{"!":0,"\"":1,"#":2,"$":3,"%":4,"&":5,"'":6,"(":7,")":8,"*":9,"+":10,",":11,"-":12,".":13,"/":14,"0":15,"1":16,"2":17,"3":18,"4":19,"5":20,"6":21,"7":22,"8":23,"9":24,":":25,";":26,"<":27,"=":28,">":29,"?":30,"@":31,"A":32,"B":33,"C":34,"D":35,"E":36,"F":37,"G":38,"H":39,"I":40,"J":41,"K":42,"L":43,"M":44,"N":45,"O":46,"P":47,"Q":48,"R":49,"S":50,"T":51,"U":52,"V":53,"W":54,"X":55,"Y":56,"Z":57,"[":58,"\\":59,"]":60,"^":61,"_":62,"`":63,"a":64,"b":65,"c":66,"d":67,"e":68,"f":69,"g":70,"h":71,"i":72,"j":73,"k":74,"l":75,"m":76,"n":77,"o":78,"p":79,"q":80,"r":81,"s":82,"t":83,"u":84,"v":85,"w":86,"x":87,"y":88,"z":89,"{":90,"|":91,"}":92,"~":93,"¡":94,"¢":95,"£":96,"¤":97,"¥":98,"¦":99,"§":100,"¨":101,"©":102,"ª":103,"«":104,"¬":105,"®":106,"¯":107,"°":108,"±":109,"²":110,"³":111,"´":112,"µ":113,"¶":114,"·":115,"¸":116,"¹":117,"º":118,"»":119,"¼":120,"½":121,"¾":122,"¿":123,"À":124,"Á":125,"Â":126,"Ã":127,"Ä":128,"Å":129,"Æ":130,"Ç":131,"È":132,"É":133,"Ê":134,"Ë":135,"Ì":136,"Í":137,"Î":138,"Ï":139,"Ð":140,"Ñ":141,"Ò":142,"Ó":143,"Ô":144,"Õ":145,"Ö":146,"×":147,"Ø":148,"Ù":149,"Ú":150,"Û":151,"Ü":152,"Ý":153,"Þ":154,"ß":155,"à":156,"á":157,"â":158,"ã":159,"ä":160,"å":161,"æ":162,"ç":163,"è":164,"é":165,"ê":166,"ë":167,"ì":168,"í":169,"î":170,"ï":171,"ð":172,"ñ":173,"ò":174,"ó":175,"ô":176,"õ":177,"ö":178,"÷":179,"ø":180,"ù":181,"ú":182,"û":183,"ü":184,"ý":185,"þ":186,"ÿ":187,"Ā":188,"ā":189,"Ă":190,"ă":191,"Ą":192,"ą":193,"Ć":194,"ć":195,"Ĉ":196,"ĉ":197,"Ċ":198,"ċ":199,"Č":200,"č":201,"Ď":202,"ď":203,"Đ":204,"đ":205,"Ē":206,"ē":207,"Ĕ":208,"ĕ":209,"Ė":210,"ė":211,"Ę":212,"ę":213,"Ě":214,"ě":215,"Ĝ":216,"ĝ":217,"Ğ":218,"ğ":219,"Ġ":220,"ġ":221,"Ģ":222,"ģ":223,"Ĥ":224,"ĥ":225,"Ħ":226,"ħ":227,"Ĩ":228,"ĩ":229,"Ī":230,"ī":231,"Ĭ":232,"ĭ":233,"Į":234,"į":235,"İ":236,"ı":237,"Ĳ":238,"ĳ":239,"Ĵ":240,"ĵ":241,"Ķ":242,"ķ":243,"ĸ":244,"Ĺ":245,"ĺ":246,"Ļ":247,"ļ":248,"Ľ":249,"ľ":250,"Ŀ":251,"ŀ":252,"Ł":253,"ł":254,"Ń":255,"ĠÎ":256,"Î±":257,"Î¿":258,"ÏĦ":259,"Î¹":260,"Î½":261,"Îµ":262,"ĠÏ":263,"Î¿Ï":264,"Ïģ":265,"ĠÏĦ":266,"Î·":267,"Î»":268,"ÏĤ":269,"Ïĥ":270,"Î¿Ïħ":271,"Î¬":272,"Î¯":273,"Î¼":274,"Îº":275,"ÏĢ":276,"ĠÏĢ":277,"Ïī":278,"ĠÎ¼":279,"ÏĮ":280,"ĠÎº":281,"ÎŃ":282,"Î±Î¹":283,"ĠÏĥ":284,"ÎµÎ¹":285,"ĠÎµ":286,"Ïħ":287,"Î³":288,"ÎŁ":289,"ĠÎ±":290,"Îĳ":291,"Î£":292,"Î¶":293,"Î®":294,"ĠÎ½":295,"čĊ":296,"Î±Î½":297,"Î¿Î½":298,"Î¹Î±":299,"ĠÏĦÎ·":300,"ĠÎ½Î±":301,"ÎĻ":302,"Î¸":303,"Î´":304,"Î¡":305,"Ïİ":306,"Ïĩ":307,"ÏĦÎ±":308,"Î¿Ïį":309,"ÏĨ":310,"ÎµÎ½":311,"ÏģÎ±":312,"Î¹Îº":313,"Î¤":314,"ĠÏĦÎ¿Ïħ":315,"Îķ":316,"ÎĽ":317,"ĠÎ´":318,"Ïį":319,"ĠÏĦÎ¿":320,"Î¿ÏĤ":321,"ĠÎ³":322,"ÏĦÎ·":323,"ĠÎķ":324,"ÏĦÎµ":325,"ÎŁÎ":326,"ĠÎŃ":327,"Î»Î»":328,"ÎĹ":329,"Î²":330,"ĠÏĦÎ¶":331,"Î¼Î±":332,"ĠÎĳ":333,"ÎŁÎ£":334,"ÎµÎ¯":335,"Î½Î±":336,"ĠÎºÎ±Î¹":337,"ĠÏĢÎ¿Ïħ":338,"ĠÎ¼Îµ":339,"ÎĿ":340,"ÏĦÎ¿":341,"ÏģÎ¹":342,"ÏĦÎ¹":343,"ĠÎļ":344,"ĠÎľ":345,"ÎµÏĤ":346,"ĠÏĦÎ·Î½":347,"ĠÎł":348,"ĠÎ¼Î¿Ïħ":349,"ĠÎµÎ½":350,"Î¿Î¹":351,"Î¾":352,"ĠÎ¿":353,"Î±Î»":354,"ĠÏĦÎ·ÏĤ":355,"ĠÎ¤":356,"Î¯Î½":357,"Î¯Î±":358,"ĠÏĨ":359,"ĠÎ¸":360,"ĠÎ±ÏĢ":361,"ÏĦÎ¬":362,"ĠÎ£":363,"ÎµÎ¹ÏĤ":364,"ÏģÎ¬":365,"ĠÏĮ":366,"Îļ":367,"ĠÏĦÎ±":368,"ÏīÎ½":369,"Î©":370,"Î¼Îµ":371,"ÏĥÎ·":372,"ĠÏĩ":373,"ĠÎ»":374,"ÏĥÏĦ":375,"Î¿Ïģ":376,"ĠÎºÎ±":377,"ÎŁÎ¥":378,"ÎŃÎ½":379,"Î¬Î½":380,"ÏĦÎ±Î¹":381,"Î¥":382,"ÏĥÎ¹":383,"ĠÏĦÎ¿Î½":384,"Î¿ÏħÎ½":385,"ÏĮÎ½":386,"ĠÏĦÎ¶Î±Î¹":387,"ĠÎ²":388,"ĠÎ³Î¹Î±":389,"ĠÏĢÏģ":390,"Ġ(":391,"Î±ÏĤ":392,"Î¿Î»":393,"ĠÏĢÎ±":394,"ÏģÎ¯":395,"ĠÎĵ":396,"Îĵ":397,"ÏĥÎ±":398,"ÎºÎ±":399,"ĠÎºÎ¬":400,"ĠÎ±Î½":401,"Ġ-":402,"ÎŃÏģ":403,"Î»Î±":404,"ĠÎ¬":405,"ÎĽÎĳ":406,"ÎĹÎ£":407,"ÏİÎ½":408,"Î¹Î¬":409,"ĠÎŁ":410,"ÏīÏĤ":411,"ĠÏĥÎ¿Ïħ":412,"Îł":413,"ĠÏĥÏĦÎ·":414,"ĠÎµÏĢ":415,"ÎµÏģ":416,"ĠÏĥÏħ":417,"Î¿Ïĥ":418,"ÎĻÎĳ":419,"ĠÏĥÏĦÎ¿":420,"ÏĢÎ±":421,"ĠÎ±ÏĢÏĮ":422,"ĠÎ¦":423,"Î¡ÎŁÎ£":424,"Î¼ÎŃÎ½":425,"ÎµÏĦÎ±Î¹":426,"ÏĦÎ¹Îº":427,"ÏĦÏģ":428,"Î®ÏĤ":429,"ĠÎĿ":430,"Îľ":431,"ÏĢÎ¿":432,"ĠÎ®":433,"Ġ'":434,"ĠÏĥÎµ":435,"Î·Î½":436,"ĠÎµÎ¯":437,"ÏĮÏĤ":438,"ÎŃÏĤ":439,"ÎµÏħ":440,"Î¹Ïĥ":441,"ĠÏĦÎ¿ÏħÏĤ":442,"ÏĦÎ±Î½":443,"Î¡Îĳ":444,"ÏĮÏĥ":445,"Î»Î·":446,"ĠÎĹ":447,"ĠÎĶ":448,"Ġ.":449,"Î¶ÎµÎ¹":450,"Î¼ÎµÎ½":451,"ĠÏĦÎ¶Î¹":452,"Î¿Î³":453,"ÏĢÏģ":454,"ÎµÎ»":455,"ÎĴ":456,"ĠÎ§":457,"ĠÎ¾":458,"ĠÎķÎ½":459,"ĠÎĽ":460,"Î§":461,"Î¹Î½":462,"Î¿ÏħÏĤ":463,"Î·ÏĤ":464,"ĠÏĥÏĦ":465,"Î¿Î¼":466,"ĠÎ¸Î±":467,"ÏĥÎµÎ¹":468,"ÏĪ":469,"ÎŁÎľ":470,"ÎŃÎ»":471,"ĠÏģ":472,"ÏĥÎµ":473,"ÎĻÎ£":474,"ĠÏĢÎµ":475,"ĠÏĥÏĦÎ·Î½":476,"ÎĿÎ¤":477,"ÏĦÎ¯":478,"ĠÎ¼Î±":479,"Ġ1":480,"ĠÏĢÎ¿":481,"Î»Î»Î¬":482,"Î¯Î½Î±Î¹":483,"ÏģÎº":484,"ĠÏĦÎ¹":485,"ÎŁÎ¥ÎĽ":486,"ĠÎľÎķ":487,"ĠÎ·":488,"ÏģÎ³":489,"ĠÏĢÎ¬":490,"ÎĶ":491,"ĠÏĮÏĦÎ¹":492,"ĠÏħ":493,"..":494,"Î»Î»Î±":495,"ĠÎ¼Î±ÏĤ":496,"ÏģÎµ":497,"ÏĥÏī":498,"Î¼ÏĢ":499,"Î¦":500,"Î¿ÏĢ":501,"Î¹Î¿":502,"ĠÎµÎ¯Î½Î±Î¹":503,"ÎĳÎĴ":504,"Î¡Î¥":505,"ĠÎĳÎ½":506,"Î¼Î¬":507,"ÏģÎ·":508,"Î¿Î¯":509,"Î¡Î¥Î£":510,"ÎĻÎ©":511,"ÏħÏĦ":512,"ÎŁÎ¥ÎĽÎĽÎĳ":513,"Î±Ïģ":514,"Î½ÎµÎ¹":515,"Î»Î¬":516,"ĠÎ¿Î¹":517,"ĠÎ´ÎµÎ½":518,"Î»Îµ":519,"Î¤ÎŁÎľ":520,"ÎµÎ¹Î±":521,"Î¡Î¥Î£ÎŁÎ£":522,"ÏģÏī":523,"Î¿ÏįÎ½":524,"ÏĥÎº":525,"ĠÏĥÎº":526,"Î¡Î¥Î£ÎŁÎ£Î¤ÎŁÎľ":527,"ĠÎµÎº":528,"ÎĻÎļ":529,"ÏĢÎ¿Ïħ":530,"ĠÎĺ":531,"ÎĻÎ©Î¡":532,"Î»ÎŃ":533,"ĠÎ¼ÎŃ":534,"ĠÎŃÎ½Î±":535,"ÏģÏĩ":536,"Î¼Î±ÏĦÎ±":537,"ĠÎ±Î³":538,"ĠÏĦÎ¶Î¹Î±Î¹":539,"Î·Î¼":540,"ĠÎºÎ±Î»":541,"ĠÎ¶":542,"ĠÎ±Îº":543,"ÏĥÎµÎ¹ÏĤ":544,"ÏģÏĮ":545,"Î¹ÎºÎ¬":546,"ÏĥÏĦÎ·":547,"ÏĦÎ®":548,"ĠÎ¼Î¬":549,"ĠÎ¼Î¹Î±":550,"ÏģÎ¿":551,"Î¸Îµ":552,"ÏĢÎ¬":553,"Î¸Î·":554,"Î¹Ïİ":555,"Î¡ÎŁÎ£Î©":556,"Î¿ÏħÎ¼Îµ":557,"ĠÏĦÏīÎ½":558,"ÏĥÏĦÎµ":559,"Î»Î¹":560,"Î¡Î¥Î£ÎŁÎ£Î¤ÎŁÎľÎŁÎ£":561,"Î¹ÎºÏĮ":562,"ĠÎµÎ³":563,"ĠÎ¹":564,"ÏģÎŃ":565,"Î¹ÎºÎ®":566,"ÏģÏħ":567,"ĠÎĴ":568,"ÏĩÎ±":569,"ÎºÎ¬":570,"Î¯Î±ÏĤ":571,"ÎĻÎ©Î¡Îĵ":572,"ÏĦÎ¶":573,"ĠÎ¼ÏĢ":574,"ĠÎ¤Î¶":575,"ĠÏĥÏħÎ½":576,"Î¿ÏĨ":577,"ĠÎŃÎ½":578,"ĠÏĥÏĦÎ±":579,"ĠÎĪ":580,"Î®Î½":581,"ÏħÏģ":582,"ÎĳÎ¡":583,"Î¼Î±Î¹":584,"ÎĻÎ©Î¡ÎĵÎŁÎ£":585,"ĠÎŃÏĩ":586,"Î»Î¯":587,"ĠÎ¬Î»Î»":588,"ÏĦÏī":589,"ÎĳÎĿÎ¤":590,"ÏĦÏĥÎ¹":591,"Î¿Ïĩ":592,"ĠÎ´Î¹Î±":593,"ÏĢÎµÎ¹":594,"ÎµÎ¯ÏĤ":595,"ÏĦÎ±ÏĤ":596,"Î¿Îº":597,"ÎŁÎĻ":598,"ĠÎºÎ¬Î¼":599,"Î²Î±":600,"ÎĿÎĳ":601,"ĠÎµÎ¹":602,"Î¼ÎŃ":603,"ÎĻÎ£Î¤":604,"ĠÎľÎķÎĽÎĳ":605,"ĠÎµÎ¾":606,"ÏĢÎµ":607,"ÎĳÎĽ":608,"ĠÏĤ":609,"ÏģÎ±ÏĨ":610,"Î¼Î±Î½":611,"Î»Î®":612,"ÏīÏĥ":613,"ĠÏĢÎ±ÏģÎ±":614,"Î³Îº":615,"Î±ÏĢ":616,"ÏĦÎ¿Î½":617,"ÎķÎ¤":618,"Î³Î¬":619,"Î¯Î½ÎµÎ¹":620,"ÏĦÎ¿Ïħ":621,"ĠÏĦÎ¹ÏĤ":622,"Î´Î±":623,"Î¯Î¶":624,"ÏĥÎ±Î½":625,"19":626,"ĠÏĢÎ¬Î½":627,"ÎºÎ¹":628,"ĠÏĢÏĮ":629,"Î¡ÎĻÎ£Î¤":630,"Î´Î¹":631,"ÏĦÎŃ":632,"Ġ19":633,"ÏĥÎ±Î¹":634,"ÎµÎ¯Î½":635,"ÎµÏį":636,"ĠÎ¼Î¹":637,"Î§Î¡Î¥Î£ÎŁÎ£Î¤ÎŁÎľÎŁÎ£":638,"ÏĦÎµÏĤ":639,"ĠÎ®ÏĦÎ±Î½":640,"ĠÎ±Î½Î±":641,"ÏħÎ½":642,"ÎĳÎĴÎŁÎ¥ÎĽÎĽÎĳ":643,"ĠÏĦÎ¿Ïį":644,"ĠÎľÎķÎĽÎĳÎ£":645,"ĠÎµÏĥ":646,"Î¤Îķ":647,"ĠÏĥÏĦÎ¿Î½":648,"ÎºÎµ":649,"...":650,"ÏīÏģ":651,"ĠÎ¸ÎŃÎ»":652,"Î¼Î·":653,"ĠÏĩÏģ":654,"ĠÎĻ":655,"ĠÎºÎ¿Î¹":656,"Îĸ":657,"ÎĽÎķ":658,"ÏħÏĩ":659,"ĠÎ±ÏħÏĦ":660,"Î±Î½Î±":661,"ĠÎºÎ±ÏĦÎ±":662,"ĠÎºÎ¿Ïħ":663,"ÏĦÎ¿ÏĤ":664,"20":665,"ĠÎ¿Ïį":666,"Î¿Î´":667,"ĠÎ±ÏĨ":668,"Î»ÎµÎ¹":669,"ÏģÎ¹Î½":670,"ĠÏħÏĢ":671,"ÏįÏĢÏģ":672,"ĠÏĢÏģÎ¿Ïĥ":673,"ÎķÎ¥":674,"ÏİÏĤ":675,"ĠÏĪ":676,"ĠÎľÎ±":677,"ĠÏī":678,"ÏĢÏīÏĤ":679,"ĠÎ±Î»Î»Î¬":680,"ÏĦÎ·ÏĤ":681,"Î¦Î¡ÎŁÎ£Î©":682,"ÏĥÎµÎ½":683,"Î²Î¬":684,"ĠÎµÏĢÎ¹":685,"ĠÏĢÎµÏģÎ¹":686,"ÏĦÏĮ":687,").":688,"ÏĢÎ¯":689,"ĠÎºÎ±Î½":690,"Î¡ÎĻÎ£Î¤ÎĹ":691,"ĠÎºÏĮ":692,"Î½Î¬":693,"ÏĢÎ¿Î¹":694,"ÏĢÎ·":695,"Î´Î¹Î±":696,"Î¿ÏįÏĤ":697,"ÎĳÎĿÎ¤Î¡ÎŁÎ£":698,"ĠÏĢÎ¿Î»":699,"Î¸Î®":700,"ĠÏģÎµ":701,"ÏĥÏĦÎ±":702,"ÎĵÎĻÎ©Î¡ÎĵÎŁÎ£":703,"Î¼ÎŃÎ½Î·":704,"ÏħÎ¼":705,"ĠÎ¯":706,"ÏīÏģÎ¬":707,"Î¼Î¼Î±":708,"Î¤Îĳ":709,"Î±Î¯":710,"Îŀ":711,"ĠÏĢÎ¿Î¹":712,"ÎºÎ¹Î±":713,"ĠÏĢÏīÏĤ":714,"ĠÎ¼ÏĢÎ¿Ïģ":715,"Îĺ":716,"ĠÎ»Î±Î»":717,"ĠÎĵÎ¹Î±":718,"Î¼Î¿ÏĤ":719,"ĠÎ¤Î¿":720,"ĠÎĮ":721,"Î´Î·":722,"Î½ÏĦÎ±":723,"Î³ÎµÎ¹":724,"ĠÎ¼ÎŃÏĥÎ±":725,"Î¸ÎµÎ¯":726,"Î½Î·":727,"ÎŁÎĿ":728,"ÏĥÎ·ÏĤ":729,"ĠÎºÎ¹":730,"ĠÏİ":731,"ÏģÏİ":732,"ÏĢÎ¿ÏĦÎµ":733,"ĠÎ¡":734,"ÏģÏħÏĥ":735,"ÎµÎº":736,"ÏĦÏħ":737,"ÎŁÎ¥Î£":738,"ĠÏĦÏģÎ±":739,"ÎµÏĨ":740,"ÏĮÎ³":741,"Î½Ïī":742,"ÎĳÎĿ":743,"Î¶Î¯":744,"ĠÎĨ":745,"Î£ÎĳÎĴÎŁÎ¥ÎĽÎĽÎĳ":746,"ÏĥÎ¼":747,"ĠÏĩÎ±":748,"ÎķÎĽ":749,"ĠÎļÎĳ":750,"ĠÎĿÎ±":751,"Î¿Î½ÏĦÎ±Î¹":752,"ĠÎļÎ±":753,"ÏĢÎ¹":754,"ÎºÎ±Î¹":755,"ÎĶÏģ":756,"Î¼Î¿":757,"Î¹Î±Îº":758,"Î³Î³":759,"ĠÎ¼ÏĮÎ½":760,"ĠÏĥÎ±ÏĤ":761,"ÏĦÎ·Î½":762,"ĠÎ±Ïħ":763,"ĠÏĢÎ¹":764,"ÏĦÏĥ":765,"Î©ÎĿ":766,"ÏĦÎµÏģ":767,"ĠÎĳÎĿÎ¤":768,"Î»Î¿":769,"ÎŃÎ½Î±":770,"Î¼ÎŃÎ½Î¿ÏĤ":771,"ĠÎľÎķÎ¡Îĳ":772,"ÎºÎ±Î»":773,"ĠÏĩÏī":774,"Î¬Ïģ":775,"ĠÏĢÎ¿Î»Î»Î¬":776,"ÏĦÎ¹ÎºÎ®":777,"ÎµÏĦ":778,"Î¹Ïī":779,"ÎµÏĩ":780,"ĠÎļÏįÏĢÏģ":781,"Î½Î¿":782,"Î´Î®":783,"ÎŃÏģÏī":784,"ĠÏĨÎ¿Ïģ":785,"ĠÎµÏĨ":786,"ĠÎ¼ÎµÎ½":787,"ĠÏĦÏĮ":788,"ĠÎ´Î¹":789,"ÏĥÎ¿ÏħÎ½":790,"Î±Î²":791,"ĠÎ§ÏģÏħÏĥ":792,"ÎµÏħÎº":793,"ÎŃÏĨ":794,"ÏĮÏĥÏī":795,"ĠÏĢÏģÎ¿":796,"Î¼Î¹":797,"Î·Î³":798,"ĠÏĢÏģÎ¬":799,"ĠÎºÏħ":800,"ĠÎļÎ±Î»":801,"ĠÏĥÏĩ":802,"ÎŃÏģÎ±":803,"ÎºÎ¿Ïħ":804,"ĠÎºÎ¬ÏĦÎ¹":805,"ÏĥÎ¹Î½":806,"ÎķÎ¥ÎĹ":807,"ĠÏĥÎ±Î½":808,"Î¬Î¶":809,"ĠÎ¶Ïī":810,"ĠÎµÏħ":811,"ÎļÎ¡ÎĻÎ£Î¤ÎĹ":812,"ĠÎºÎ±Î¸":813,"ĠÎ¤Î¹":814,"ĠÎ¿ÏĢÎ¿":815,"ĠÏĥÏĦÎ¹":816,"ÏģÎ¿Ïħ":817,"ĠÏĢÎ¬Î½Ïī":818,"ĠÎĿÎ±Î¹":819,"Î³Ïī":820,"ÎŁÎ¥Î£ÎĹ":821,"Î¯Î¶ÎµÎ¹":822,"ÎµÎ¯Î¿":823,"ĠÎłÎ±":824,"ÏĦÏīÎ½":825,"ÎķÎĻ":826,"ĠÏĦÎ¯":827,"ÏĦÎ¹ÎºÏĮ":828,"ĠÎ´Ïħ":829,"Î¯ÎµÏĤ":830,"ĠÎ´Îµ":831,"Î¤ÎĹÎ£":832,"ÏĮÎ¼Î±":833,"ĠÎĳÎ½ÏĦÏģ":834,"ĠÎĵÎ¹Ïİ":835,"Î¼ÏīÏĤ":836,"ĠÏĢÎ±Î½":837,"ĠÎ¦Ïģ":838,"ÎŃÏĩ":839,"ÎļÎĹÎ£":840,"ĠÎ²Î¬":841,"ÏĦÎ¿Ïį":842,"ÏģÎ¹ÏĥÏĦ":843,"ÏĦÎµÎ¹":844,"),":845,"Î±Ïĥ":846,"ÏĦÎ¹ÎºÎ¬":847,"ĠÎ¦Î¡ÎŁÎ£Î©":848,"ĠÎ¥":849,"ĠÎµÎ¹ÏĤ":850,"ÏĮÏĥÏĦÎ¿":851,"ÎĻÎ£ÎĳÎĴ":852,"ĠÏĩÏģÏĮÎ½":853,"Î¯Î¿Ïħ":854,"ÎºÎ·":855,"ĠÎŃÏĦÏĥÎ¹":856,"ĠÎ³Î¹Î±ÏĦÎ¯":857,"Î¾ÎµÎ¹":858,"ĠÏĦÎµÎ»":859,"ÎĻÎ£ÎĳÎĴÎķÎ¤":860,"ÏģÏĦÎ±":861,"ÏĦÏİ":862,"ĠÎºÎ¿Î¹ÏĦÎ¬":863,"ÎµÏĢ":864,"ÎºÎ±Î½":865,"Î¾Ïī":866,"ÏĨÏīÎ½":867,"ÎŁÎĽ":868,"ĠÏĮÏĢÏīÏĤ":869,"ĠÎĵÎ¹ÏİÏģÎ³":870,"Ġ2":871,"Î¿Î»Î¿Î³":872,"Î¼Î²":873,"Î¬Î½ÎµÎ¹":874,"Î¿ÏħÎ¼ÎµÎ½":875,"ĠÎ¤Î¶Î±Î¹":876,"ĠÎ¬Î½":877,"ÎµÏħÎºÏīÏĥ":878,"ĠÏĢÎ±ÏģÎ¬":879,"ĠÎ´Î¹Î¬":880,"ĠÏĦÎµÏĤ":881,"ĠÎ´Î¯":882,"Î»Î»Î·Î½":883,"ÏĮÎ»":884,"ĠÎºÎ±ÏĦÎ¬":885,"17":886,"Î¼Î®":887,"ĠÏĢÎ¹Î¿":888,"ĠÎ§ÏģÏħÏĥÏĮÏĥÏĦÎ¿":889,"ĠÎ±ÏģÏĩ":890,"ĠÎ£Î±Î²":891,"ÎķÎĿ":892,"ĠÏĥÎ·":893,"ĠÏĢÎ±Î¹":894,"ĠÏĢÏģÏİ":895,"ĠÎŃÎ½Î±Î½":896,"Î¼Î¿Ïħ":897,"Ġ/":898,"ĠÏĦÏīÏģÎ¬":899,"ÏĨÎ¿Ïģ":900,"ĠÎºÎ±Î»Î¬":901,"ĠÏĢÎ¯":902,"ĠÎ³Ïħ":903,"ÏģÎ¹Ïĥ":904,"Î¼ÎŃÎ½Î±":905,"Î¾Îµ":906,"ÏĥÎ¹ÎµÎ¹":907,"Î³Î±":908,"Î»ÎµÎ¯":909,"ĠÎ´Î±":910,"ÏħÏĢ":911,"ÏģÎ¿Î½":912,"ĠÎ±Î½Î¬":913,"ÏĦÏģÎ±":914,"Î¿Î½ÏĦÎ±ÏĤ":915,"ĠÎ±ÏĢÎ¿":916,"ĠÏĥÎ¹":917,"Î¿ÏįÎ¼Îµ":918,"ĠÎłÎµ":919,"Î¯Î´":920,"ĠÎľÎµ":921,"Î¸Î±":922,"ÏĦÎ¿Î¹":923,"ÏĩÎ½":924,"ĠÎºÏģÎ±":925,"ĠÎłÎĳ":926,"ĠÏĥÏĢÎ¯":927,"ÎºÎµÎ¹":928,"ÏĦÎ¹Î½":929,"ÏįÏģÎ¹":930,"ĠÎŀ":931,"ĠÎ±Ïģ":932,"ÎŁÎľÎŁÎĻ":933,"ÎľÎĳ":934,"ĠÏĮÎ¼ÏīÏĤ":935,"ÏįÎ½":936,"ÎŁÎľÎŁÎĻÎ¡Îĳ":937,"ĠÎļÎ±Î¹":938,"ÏĥÏĥ":939,"ĠÏīÏĤ":940,"ÎµÎ¯Î±":941,"ÎĳÎĽÎŁÎľÎŁÎĻÎ¡Îĳ":942,"ĠÎķÏħ":943,"ĠÎ¸ÎŃ":944,"Î¬Îº":945,"Î»Î¿Î³":946,"ĠÎ¤Î¶Î¹":947,"Î½ÎµÎ½":948,"ĠÎ´Î¿Ïħ":949,"ÏĦÏİÎ½":950,"Î¼Î¿Î½":951,"ĠÎ¼ÎµÏĤ":952,"Î³ÏģÎ±ÏĨ":953,"ĠÎ³Î¹":954,"ÎŃÏĢÎµÎ¹":955,"'.":956,"Ġ[":957,"04":958,"ÏģÎ¬ÏĨ":959,"ÏĩÎ¹":960,"ÏĦÎµÎ¯":961,"ĠÎ²Î±":962,"Î¯Î½ÎµÏĦÎ±Î¹":963,"Î»Ïī":964,"ÎĹÎĿ":965,"ĠÎķÎ¥":966,"ĠÎ¸Îµ":967,"ĠÎ²Î»ÎŃ":968,"Î¹Î»":969,"ĠÎŃÏĩÎµÎ¹":970,"ÎµÏħÎºÏīÏĥÎ¯Î±":971,"Î¿ÏįÎ¼ÎµÎ½":972,"ÎµÏĦÎµ":973,"ĠÎĶÏģ":974,"Î¹ÎºÎ®ÏĤ":975,"ĠÏĢÏģÎ¿ÏĤ":976,"ÏħÎ³":977,"Î·ÏĥÎ·":978,"ĠÏĢÏī":979,"ĠÏĮÎ¹":980,"Î¼ÏĮ":981,"ÎµÎ»Î¬":982,"Î·Ïĥ":983,"ĠÎ´Î·Î¼":984,"ĠÎ¦ÏģÏĮÏĥÏī":985,"ÎĻÎĿÎĳ":986,"ÏįÏĢ":987,"ĠÎķÎ¯":988,"ĠÏį":989,"ÏģÎ±Î½":990,"06":991,"ĠÎī":992,"ĠÎĵÎĻÎ©Î¡ÎĵÎŁÎ£":993,"ÏĢÏģÎ¹Î±Îº":994,"ÏĩÏī":995,"ĠÎ³ÎµÎ½":996,"Î¯Î³":997,"ÏģÎµÏĤ":998,"ÏģÎ®":999,"ÎºÎµÎ½":1000,"ĠÏĨÎ±":1001,"ĠÎ¼Î±Î¶Î¯":1002,"ÏĦÎ¹Î±":1003,"ÏĢÏĮ":1004,"Î´ÎµÏĤ":1005,"ĠÏĢÏģÎŃÏĢÎµÎ¹":1006,"ÏģÎ¹Î±":1007,"ĠÎµÎºÎ±":1008,"Î³Î¼Î±":1009,"ĠÏĨÏį":1010,"ĠÎµÎ¼":1011,"ÏģÎ¿ÏĤ":1012,"ĠÎ¼ÎµÏĦÎ±":1013,"ÎŁÎĶ":1014,"Î¬Î½Ïī":1015,"Î¤ÎķÎ¡":1016,"ÏİÏģÎ±":1017,"ĠÎłÎ¿Ïħ":1018,"ĠÎ¼Î¹Î±Î½":1019,"ÎĽÎŁÎ¥Î£ÎĹ":1020,"Î¾Î·":1021,"ÏĩÎµÎ¹":1022,"ÎµÎ´":1023,"ĠÎĶÎµÎ½":1024,"Î»Î¿ÏĤ":1025,"ÏĥÎ¯Î±":1026,"ÎĻÎļÎĻÎĳ":1027,"ĠÏĦÏģ":1028,"ÎĻÎĿ":1029,"ĠÎ´Î¹Îº":1030,"ĠÎĵÎ¹Î±ÏĦÎ¯":1031,"ÏģÎ¯ÏĥÏĦÎ·":1032,"ĠÎŃÎºÎ±":1033,"ĠÎĳÎĿ":1034,"ĠÎºÎ¿Î¹ÏĦÎ¬Î¶ÎµÎ¹":1035,"ÏĨÎ±Î½":1036,"ĠÎļÎ¬":1037,"ÎºÏħ":1038,"ÏĥÏĦÎ®":1039,"Î»Î»Î·":1040,"ĠÎ¾ÎŃÏģ":1041,"ÏĥÏĦÎ¿Ïģ":1042,"2017":1043,"ĠÏĦÎ¶ÎµÎ¯Î½":1044,"ÏģÎ¯Î¿Ïħ":1045,"Î¸ÎºÎ¹Î±":1046,"ÏĨÎŃÏģ":1047,"ĠÎ¼ÎµÏĦÎ¬":1048,"ĠÎµÎ¯ÏĥÎ±Î¹":1049,"Î½Î±ÏĤ":1050,"ĠÎŁÎĻÎļÎĻÎĳ":1051,"ÏĥÎµÏĤ":1052,"ĠÎµÎ¯Î¼Î±Î¹":1053,"ÏģÏĦ":1054,"ĠÏĢÎ¯ÏĥÏī":1055,"Î»Ïħ":1056,"ĠÎµÎ³Ïİ":1057,"ĠÏĢÎ»Î·":1058,"ÎŃÏĪ":1059,"Î»Î¹Ïĥ":1060,"Î¬Î²":1061,"ĠÎĺÎµ":1062,"ĠÎľÎĳÎ¡":1063,"Î»Î¿Ïħ":1064,"ĠÎ±ÏħÏĦÏĮ":1065,"ÎķÎĽÎĻÎ£ÎĳÎĴÎķÎ¤":1066,"ÏĢÎ¿Ïį":1067,"ĠÏĦÎ¯ÏĢÎ¿ÏĦÎµ":1068,"ÏĥÎ¹Î±":1069,"ÏĥÎ¿ÏħÎ¼Îµ":1070,"Î´Î¹Î¬":1071,"ÎºÏī":1072,"ÏĮÏĥÎ¿":1073,"ÎºÏĮ":1074,"ÏģÎ¹Î¿":1075,"ÎĽÎĹÎ£":1076,"Î½Îµ":1077,"00":1078,"Î¸Î¿ÏĤ":1079,"Î¼ÎµÏģÎ±":1080,"ĠÎºÎ¬ÏĢÎ¿Î¹":1081,"Î¾Î¹":1082,"ĠÎ»ÎŃ":1083,"ĠÎ¼ÎŃÏģ":1084,"ÏİÎ½ÎµÎ¹":1085,"ĠÏĩÏģÏĮÎ½Î¹Î±":1086,"ĠÎ§Î¡Î¥Î£ÎŁÎ£Î¤ÎŁÎľÎŁÎ£":1087,"ĠÏĢÏĮÏģÏĦÎ±":1088,"er":1089,"ĠA":1090,"ĠÎĳÎł":1091,"ĠÎļÎĽÎķ":1092,"Î¹ÎºÎŃÏĤ":1093,"Î¿ÏįÎ»Î»Î±":1094,"ĠÏĢÎµÎ¹":1095,"Î´Î¯":1096,"Î±Î»Î¬":1097,"ĠÏĢÏģÏĮ":1098,"ĠÎºÏĮÏĥ":1099,"ĠÏĢÎ»":1100,"ĠÎŃÎº":1101,"Î¸ÏģÏī":1102,"ÎľÎķ":1103,"ĠÏĢÎµÏģÎ¯":1104,"ĠÎ¸ÎŃÎ»Ïī":1105,"ĠÎķÎ¹":1106,"ÏĢÎŃ":1107,"ÏģÎ¯Î¶":1108,"ÏģÎµÎ¹":1109,"Î»ÏĮ":1110,"ĠÎ»ÏĮÎ³":1111,"ĠÎ¼Î·":1112,"ĠÏĥÏħÎ¼ÏĢ":1113,"ÎĻÎĳÎ£":1114,"ĠÏĥÏĢÎ¯ÏĦÎ¹":1115,"ÏĦÎ·ÏĦÎ±":1116,"Ġt":1117,"Î¸Îº":1118,"Ġ3":1119,"ÏĦÎµÏģÎ±":1120,"Î½Ïİ":1121,"Î¶Î¹":1122,"Î©Î¤":1123,"',":1124,"Î¬Î¶ÎµÎ¹":1125,"ĠÎĺÎ±":1126,"ĠÎµÎ¼ÏĢ":1127,"ÏĢÏģÎ¿Ïĥ":1128,"ĠÎ¼ÎµÎ³Î¬":1129,"ĠÎļÏģÎ¯ÏĥÏĦÎ·":1130,"ÏįÏĩ":1131,"ÏĢÎ»Î±":1132,"ĠÎºÎ¿Î½":1133,"Î¿Î¼Î±Î¹":1134,"ĠÏĢÎ¿Î¹Î·":1135,"ÎļÎĳÎĽÎŁÎľÎŁÎĻÎ¡Îĳ":1136,"ĠÎŃÏĨ":1137,"ĠÎ±ÎºÎ¿Ïį":1138,"ÎŁÎ¦":1139,"ĠÎĵÎĻÎĳ":1140,"ÏĢÎ±Î¯Î½ÎµÎ¹":1141,"Î¸Ïħ":1142,"Î¼ÎŃÎ½Î¿":1143,"ĠK":1144,"ĠÎ±ÎºÏĮÎ¼Î±":1145,"Î±Î½Î¬":1146,"ĠÎµÎ´":1147,"Î¸ÎµÏĦÎ±Î¹":1148,"ĠÎ¤Î±":1149,"ĠÎ»Î¿Î³":1150,"ÎŁÎļ":1151,"Î¿Î·":1152,"ĠÎ¿Î¹Îº":1153,"Î¿ÏĢÎ¿Î¹":1154,"ĠÎ±Î³Î¬":1155,"Î¯Î½Î·":1156,"an":1157,"Î½Î®":1158,"ÎĳÎ£":1159,"ĠÎ¼Î¿Î½":1160,"Î¸ÎµÏģ":1161,"ÏĪÎµ":1162,"ĠÏĨÏħ":1163,"ĠÏĢÎ¿Î»Ïį":1164,"ÏĦÎ¶Î¹":1165,"ĠÎ±Î½ÏĦÎ¹":1166,"ĠÎºÎ¬Î¸Îµ":1167,"ĠÎ´Ïī":1168,"Î±Î±":1169,"ÏĢÎ¿ÏĤ":1170,"ĠÎºÏĮÏģÎ·":1171,"ĠÎĵÎ¹ÏİÏģÎ³Î¿ÏĤ":1172,"ĠÎ´Î¿ÏħÎ»ÎµÎ¹":1173,"Î¹Î²":1174,"Î¤ÎĻ":1175,"ĠÎĽÎµÏħÎºÏīÏĥÎ¯Î±":1176,"ĠÏĢÎµÏģ":1177,"Î¸ÎµÎ½":1178,"ÏģÎ¯ÏĤ":1179,"ÏĩÎµ":1180,"ĠÎŃÏĩÏī":1181,"Ġ20":1182,"Î¿ÏħÎ»":1183,"ÏĦÎ¿ÏħÎ½":1184,"Î±ÏĨ":1185,"ÎŃÎ±":1186,"ĠÎ´Ïį":1187,"ÏģÎ¹Î¬":1188,"in":1189,"ÏģÏĮÎ½":1190,"ĠÏĥÏį":1191,"ĠÎºÎ±Ïģ":1192,"ÎŃÎ½Î±Î½":1193,"Î¡ÎĹÎ£":1194,"ĠÏĩÎ±Ïģ":1195,"ĠÎŃÎ²":1196,"ĠÎºÎ±Î¼":1197,"Î¸Î·ÎºÎµ":1198,"ÏĥÎ·Î½":1199,"ĠÎ´Ïİ":1200,"ĠÎ»Î¬":1201,"Î»Ïİ":1202,"ĠÎ§ÏģÏħÏĥÏĮÏĥÏĦÎ¿Î¼Î¿ÏĤ":1203,"ĠÎµÏĢÎ¯":1204,"ÎŁÎĵ":1205,"Î¯Î¶Ïī":1206,"Ġ8":1207,"ĠÎ¼ÏĢÎ¿ÏģÎµÎ¯":1208,"ĠÏİÏģÎ±":1209,"18":1210,"ĠÎļÏįÏĢÏģÎ¿Ïħ":1211,"ÏĦÎ®ÏĤ":1212,"Î¯Îº":1213,"ÏĮÏģ":1214,"Î®ÏĥÎµÎ¹":1215,"Î¹Ïĩ":1216,"Î¹Î½Î·":1217,"ĠÏĢÎ¬ÎµÎ¹":1218,"ĠÎµÏĢÎ®":1219,"ĠÎµÎ¯ÏĢ":1220,"ĠÎºÎ±Î¹Î·":1221,"ÏģÎ¯ÏĥÎº":1222,"Î¹ÏĥÏĦ":1223,"Î¯Î±Î½":1224,"Î´Î¹Î¿":1225,"ĠÏĥÎºÎ·Î½":1226,"Î®Î¼Î±ÏĦÎ±":1227,"ĠÎŁÎ¹":1228,"ÎºÎ¿Î»":1229,"ĠÏĥÏħÎ¼":1230,"ÎĽÎķÎŀ":1231,"ĠÎłÎ¡":1232,"ĠÎºÎ±ÏĨ":1233,"Î¸ÎµÎ¹":1234,"ĠÎĳÎĽÎķÎŀ":1235,"ĠÏĢÏģÏī":1236,"Î¾ÎµÎ½":1237,"ĠÏĥÎ·Î¼":1238,"ĠÏĥÏĦÎ¹ÏĤ":1239,"Î¿Î²":1240,"ĠÏĢÎ¿Î»Î»":1241,"ĠÎºÎ¬ÏĦÏī":1242,"Î·Î¼Î±":1243,"ĠÎ£ÎĳÎĴÎŁÎ¥ÎĽÎĽÎĳ":1244,"ĠÎ±Î´":1245,"Î¸Ïī":1246,"ĠÎĳÏĨ":1247,"ÎĻÎļÎĹ":1248,"Î¿ÏģÏĨ":1249,"ĠÎ¬Î»Î»Î¿":1250,"Î´Î·ÏĤ":1251,"Î¹ÏīÏģÎº":1252,"ĠÎ¶ÏīÎ®":1253,"ĠÏĦÏģÎ±Î³":1254,"ĠÏĨÏīÎ½":1255,"ĠÎ¤ÎĹÎ£":1256,"Î´Îµ":1257,"Î¯Î¿":1258,"ÏĮÎ¼ÎµÎ½":1259,"ÏĩÎ½ÎµÎ¹":1260,"Î¡ÎĳÎĵ":1261,"ÏħÏĦÏĮ":1262,"ĠÎĺÎķ":1263,"ĠÎĳÎĿÎ¤Î¡ÎŁÎ£":1264,"Î¼Î¿ÏħÎ½":1265,"ĠÏĨÏī":1266,"ĠÎ»Î±":1267,"ĠÎ¿ÏįÏĦÎµ":1268,"ĠÏĢÏģÎ¹Î½":1269,"ĠÏĢÎ±Î»":1270,"Î¹ÎºÎ¿Ïį":1271,"ĠÎļÎĳÎĻ":1272,"Î»Î¬Î²":1273,"ĠÏĢÎ¬Î½ÏĦÎ±":1274,"on":1275,"ÎµÏģÎ¬":1276,"ĠÎ±ÏģÎº":1277,"ĠÎ±Ïĥ":1278,"ÏģÎ¬Î³":1279,"ÎŃÏģÎ¹":1280,"ĠÏĢÎ±Î¯":1281,"ĠÎºÎ¿Ïģ":1282,"Î¸Ïİ":1283,"ÏĦÎµÏį":1284,"Î·Î»Î±":1285,"ÏĦÎ¿Îº":1286,"):":1287,"Î»Î¿Î¹":1288,"Î¡Îķ":1289,"ÏĨÏīÎ½Î¿":1290,"Î»Î¹Î±":1291,"Î¶Ïī":1292,"ĠÎ½Î±Î¹":1293,"ÏĨÎ±":1294,"Î»Î»Î¿Î½":1295,"ÏģÏį":1296,"ĠÎ£Î¤":1297,"ÏģÎ±ÏĤ":1298,"ĠT":1299,"ĠÏĥÎ®":1300,"Î³Î¹Î±":1301,"ĠÎ¿Ïħ":1302,"ĠÎļÏħ":1303,"ĠÎłÎ¬":1304,"ĠÏĦÎŃ":1305,"ÎºÎ»Î·":1306,"Î¾Î±":1307,"ĠÏĢÎ¹Î¬":1308,"Î¼Î±Î¯":1309,"ÏĢÎ¿Î½":1310,"ÏĩÎ±Î½":1311,"ĠÎłÎ¿Î»":1312,"ĠÎ¼ÏĮÎ½Î¿":1313,"ĠÎķÎ¥ÎĹ":1314,"ÏĢÎ¬ÏģÏĩ":1315,"ÎĪ":1316,"ÎºÏİÎ½":1317,"ĠÏĩÎ¬":1318,"ĠÎŃÎ½Î±ÏĤ":1319,"ĠÎµÎ²":1320,"ÏĥÏīÏĤ":1321,"Î´ÎµÎ¹":1322,"ĠÎ³Îµ":1323,"Î¿Î¯Î³ÎµÎ¹":1324,"Î²Î¿Î»":1325,"ÏħÎ¸":1326,"ĠÎºÎ¬Î¼Ïī":1327,"Î¿ÏħÎ»Î»Î±":1328,"Î±Î»Î±":1329,"ĠÎ½Î¿Î¼":1330,"Î´Î¬":1331,"ĠÎ¤Î¶Î¹Î±Î¹":1332,"ĠÎ´ÎµÎ¯":1333,"ĠÎ±Î»Î»Î±":1334,"Î´Î¿":1335,"ĠÎ¹ÏĥÏĦÎ¿Ïģ":1336,"ĠÎ¸ÎŃÎ»ÎµÎ¹ÏĤ":1337,"ÎŁÎ¦ÎĻÎĳ":1338,"ĠÏĥÏħÎ³Îº":1339,"ĠÎĿÎķ":1340,"ÏĦÎŃÏĤ":1341,"ÎºÎ¿Ïį":1342,"ĠÎĳÎ½Î±":1343,"ĠÏĥÏĦÎ¹Î³":1344,"ÏĥÏĦÎ·Î½":1345,"ĠÎ©":1346,"ÏĥÏħ":1347,"ĠÎĳÏĢ":1348,"ĠÎ¼Î¹Îº":1349,"Î³Î®":1350,"ĠÎľÎ¬":1351,"ÎŁÎĽÎ¥":1352,"ĠÎŃÎ¾Ïī":1353,"ĠÏĥÎ±":1354,"ÎķÎ£":1355,"Î¼Î¼Î¬":1356,"ÎŃÎ»Î¿ÏĤ":1357,"ĠÎºÏħÏģ":1358,"ÏĦÎµÏģÎ¿":1359,"ĠÏĮÏĦÎ±Î½":1360,"ĠÎºÎ¿Î¹Î½":1361,"ĠÎļÎ¡ÎĻÎ£Î¤ÎĹ":1362,"Î¡ÎĳÎĵÎĻÎ©Î¡":1363,"ĠÏĢÏģÎ±":1364,"Î¹Î¿Ïħ":1365,"Î¹ÎºÏİÎ½":1366,"ĠÎ¿ÏįÎ»Î»Î±":1367,"ĠÎ¼Î·Î½":1368,"Î¹ÎºÏĮÏĤ":1369,"ÎľÎł":1370,"Î¡ÎĳÎ¤":1371,"ĠÎķÎ³":1372,"ĠÎµÎ¯ÏĢÎ±":1373,"Ġ18":1374,"ĠÎłÎķÎ¤":1375,"ĠÏĮÏĥ":1376,"ÎŁÎĿÎĻ":1377,"Ġ9":1378,"Î¿Î³ÏģÎ±ÏĨ":1379,"ĠÏĥÏĦÏģÎ±":1380,"ĠÎµÏĩ":1381,"ÎĳÎĽÎŁÎĿÎĻ":1382,"ÏĦÏĮÏĤ":1383,"Î»ÎµÏĤ":1384,"Î¾ÎµÎ¹ÏĤ":1385,"ĠÏħÏĢÎ¿":1386,"ĠÎµÎ½Ïİ":1387,"ĠÎ£ÎŁÎ¦ÎĻÎĳ":1388,"ÏĦÏģÎ¿":1389,"Î¶Îµ":1390,"ÏģÎ¯Î¶ÎµÎ¹":1391,"ĠÎķÎ¯Î½Î±Î¹":1392,"Î¡Î¥Î£ÎŁÎ£Î¤ÎŁÎľÎŁÎ¥":1393,"ĠÎ±ÏĨÎ®":1394,"ĠÎļÎ±ÏģÎ¬Î³":1395,"ĠÏĨÎ¯":1396,"ĠÎŃÏģÎ³":1397,"ĠÎļÎ±ÏģÎ¬Î³Î¹ÏīÏģÎº":1398,"ĠÏĥÏĦÎ¿ÏħÏĤ":1399,"ÏĦÎµÏĩÎ½":1400,"ÏģÎ¿Ïį":1401,"ĠÏĢÎµÎ¹ÏĤ":1402,"ĠÎ£Îµ":1403,"ĠÎ»Î»Î¯":1404,"ĠÎ¼Î¬Î½Î±":1405,"ĠÎºÎ¬Î¸ÎµÏĦÎ±Î¹":1406,"ÎµÏħÏĦÎ±":1407,"ĠÏĨÎ¿ÏģÎ¬":1408,"ÎºÎµÏĤ":1409,"ĠÏĢÎ»Î¬":1410,"ĠÎ¾Î±Î½Î±":1411,"ĠÎ¿ÏĢÎ¿Î¯Î±":1412,"ÏĮÎ½Î¹":1413,"ĠÏĢÎ±ÏĢÎ¬":1414,"Î¸Î®Î½Î±":1415,"ĠÏĦÎ¬":1416,"Î¼Î¯":1417,"Î¶Î±":1418,"ĠÎłÎŁÎĽÎ¥":1419,"ĠÎ´ÏħÎ¿":1420,"ÎĽÎŁÎ¥":1421,"ĠÎ¤Î¿Ïį":1422,"ĠÎ²ÏģÎ¯ÏĥÎº":1423,"ĠÎļÎĽÎķÎĻ":1424,"ÏģÎ½ÎµÎ¹":1425,"ĠÎ¸ÎŃÎ»ÎµÎ¹":1426,"ĠÎºÏħÏĢÏģÎ¹Î±Îº":1427,"ĠÏĢÎ¿Î»Î¹":1428,"Î²Î»Î·":1429,"ÏĢÏģÎ¿ÏĥÏĦÎ¬":1430,"re":1431,"Î¸ÏģÏİ":1432,"ĠÎ¸ÏīÏģ":1433,"ĠÎľÎ¹":1434,"ĠÏĮÏĢÎ¿Ïħ":1435,"ĠÎºÎ±Î½ÎŃÎ½Î±":1436,"ÎºÏħÎ¿":1437,"ĠÎ½Îµ":1438,"Î¿ÏĪ":1439,"ĠÎĵÎ¹":1440,"ĠÎ±Î³Î±ÏĢ":1441,"Ġ197":1442,"Î´Î¿Ïĥ":1443,"ĠÎŃÏĥÎ¹ÎµÎ¹":1444,"Î³Î¹":1445,"ĠÎµÏĥÏį":1446,"he":1447,"Î½ÎµÎ¹ÏĤ":1448,"ĠÏĢÎ±ÏģÎ±ÎºÎ±Î»":1449,"ĠÎ¿ÏįÎ»Î»":1450,"ÏģÎ¿ÏĨ":1451,"ÎĳÎĽÎĳ":1452,"ĠÏĨÎ¬":1453,"ĠÎ»Î¯Î³":1454,"ĠÏĦÎ¿ÏįÏĦÎ¿Î½":1455,"ĠÎ±Î³Î¬ÏĢÎ·":1456,"ĠÎ³ÏģÎ±ÏĨ":1457,"ÏĥÎ¹ÎµÎ¹ÏĤ":1458,"ĠÎļÎĳÎ¡ÎĳÎĵÎĻÎ©Î¡":1459,"ĠÎ±Î¹":1460,"ĠÏĢÎ¬Ïī":1461,"ĠÎļÎĽÎķÎĻÎŁÎ¥ÎĽÎĽÎĳ":1462,"ĠÏĦÏĥ":1463,"Î¹ÎºÎ±":1464,"ĠÎķÏĢ":1465,"ĠÎĺÎŃÎ»":1466,"Î½Î¿ÏħÎ½":1467,"ÏĮÎ»Î¹":1468,"Î¿ÏģÎµÎ¯":1469,"ĠÏĢÎ¿Î½":1470,"ĠÏĦÎ·Î»ÎŃ":1471,"Î»Î»Î¿Î³":1472,"Î¼ÎŃÎ½Î¿Î¹":1473,"ÏĥÏĦÎ¬":1474,"ĠÎłÎ¿Î¹":1475,"Î©ÎĿÎĹÎ£":1476,"ĠÎµÎ³Ïī":1477,"ĠÎ¸Î¬":1478,"ÏĥÎ¹Î¬":1479,"ĠÎŃÏĥ":1480,"ĠÏĩÏİ":1481,"ĠÏħÏĢÎ¬ÏģÏĩ":1482,"Î³Ïĩ":1483,"ĠÎ£ÏħÎ½":1484,"Î·Î»Î±Î´Î®":1485,"ĠÎ£Îļ":1486,"ĠÎłÎ¡Î©":1487,"ÏĦÏĥÎ±":1488,"ÏīÏĥÎ·":1489,"ÏĥÏĦÎ±Î½":1490,"ÏĪÎµÎ¹":1491,"ÎŃÏĩÎµÎ¹Î±":1492,"Î¸ÎµÏĥÎ·":1493,"ĠÎ£Î±Î²Î¿ÏħÎ»Î»Î±":1494,"ÏĥÏĥÎ±":1495,"ĠÎºÏģÎµ":1496,"ÏģÎ¯Î±":1497,"ÏĢÎ±Î¹":1498,"ĠÎ±Î½ÏĦÎ¯":1499,"ÎłÎĳ":1500,"Î»Î¹Î¬":1501,"ĠÏīÏģÎ±":1502,"ĠÏĦÎµÎ»ÎµÏħÏĦÎ±":1503,"ĠÎºÎ¬Î½ÎµÎ¹":1504,"Î¯Î½Î¿ÏħÎ½":1505,"ĠÎ»Î¹":1506,"Î¼Î±ÏĦÎ¿ÏĤ":1507,"ÏĥÏĦÎ¿Î½":1508,"ĠÏĢÏģÎ¿ÏĥÏĢÎ±":1509,"Î¼Î¼":1510,"ĠÎ³Î½Ïī":1511,"ÏĦÎ·ÏĥÎ·":1512,"ÏĥÏĦÎ¿":1513,"ÏģÎ¿Ïĥ":1514,"ĠÎ¼Î±Î½":1515,"Î¿ÏįÎ¼Î±Î¹":1516,"Ġ:":1517,"or":1518,"ĠÏĦÏİÏģÎ±":1519,"Î¡ÎĻ":1520,"ĠÎµÏĢÎµÎ¹":1521,"ĠÎ¼ÎŃÏģÎ±":1522,"Î¿ÏĩÎ®":1523,"ÏĥÎ¼Î±ÏĦÎ±":1524,"ĠÎ±Î»Î»":1525,"ĠÏĢÎ¿Î¯":1526,"ĠÎŃÏĩÎ¿ÏħÎ½":1527,"ĠÎĸ":1528,"Î¸ÎŃ":1529,"ĠÎ´ÎµÎ¹":1530,"ĠÎºÎ¿Î½ÏĦÎ¬":1531,"Î»Î·ÏĤ":1532,"ÏĥÏĦÎµÎ¯":1533,"ĠÎĳÎ½ÏĦÏģÎ¿ÏĤ":1534,"ÎµÎ¸":1535,"ĠM":1536,"ÎºÎ»":1537,"ĠÎµÎ»Î»Î·Î½":1538,"ĠÎŃÏģ":1539,"ÎĻÎļÎŁ":1540,"ÏĥÏĦÎµÏģÎ±":1541,"Î±ÏĢÏĮ":1542,"ĠÎµÎ½Î½Î¬":1543,"ĠB":1544,"ĠÎ»Îµ":1545,"ĠÏĥÎ®Î¼ÎµÏģÎ±":1546,"ĠÎĳÎ³":1547,"ÎµÎµ":1548,"ĠÎ£ÎĳÎĽÎŁÎĿÎĻ":1549,"Î¬ÏĤ":1550,"Î¸ÎµÎ»":1551,"ĠÏĩÎŃÏģÎ¹":1552,"ĠO":1553,"ÏģÎ·ÏĤ":1554,"Î¼ÎµÏĤ":1555,"ĠÏĢÎ¹Ïĥ":1556,"Î³Î·":1557,"Î¹ÏĥÎ¼":1558,"ÏĪÎ·":1559,"Î¿ÏĦÎµÏĩÎ½":1560,"ĠÎ¼Î¬Î¼Î¼Î±":1561,"Î¯Ïĩ":1562,"Î£Î©Î¤":1563,"ĠÏĨÎ¹Î»":1564,"ĠÎ§Î±":1565,"ĠÏĦÎ·Î»ÎŃÏĨÏīÎ½Î¿":1566,"ÏĨÎ·":1567,"Î½Î±Î¯":1568,"ĠÎ»Î±Î»ÎµÎ¯":1569,"ĠÎķÎŀ":1570,"ĠÏĨÎŃÏģ":1571,"ÎµÏĥ":1572,"ÏģÎµÎ½":1573,"ÏĢÏĮÎ½":1574,"ÎĽÎŁÎ£":1575,"ĠÎĳÎ»Î»Î¬":1576,"Î¿ÏįÏĥÎµ":1577,"ĠÏĦÎ¿ÏįÏĦÎ¿":1578,"Î¯Î½ÏĦÎ±":1579,"Î¼ÎµÏĥ":1580,"ĠÎ»Î±Î»Ïİ":1581,"ĠÎ¼ÏĢÏģÎ¿ÏĥÏĦÎ¬":1582,"ĠÎľÎµÎ»Î¬":1583,"ĠÎ¾ÎŃÏģÏī":1584,"ÎŃÎº":1585,"Î´Ïħ":1586,"ÏĨÎ¹":1587,"ĠÏĢÎ®":1588,"ĠÎ®Î½ÏĦÎ±":1589,"is":1590,"ĠE":1591,"ÎŁÎ§":1592,"ĠÎ±Î»Î®":1593,"ĠÎľÏĢ":1594,"ĠÎ¬Î»Î»Î±":1595,"ĠÏĢÎ¬Î»Îµ":1596,"ÏĦÎ¬Î¾ÎµÎ¹":1597,"ĠÎºÎ¿ÏħÎ¶Î¯":1598,"ĠÎļÎ±Î»Î¿Î¼":1599,"ÎĹÎĿÎĹ":1600,"ĠÏĨÎ±Î½":1601,"Î¿Î¯ÏģÎ±":1602,"ĠÎºÎ¿ÏħÎ²":1603,"ĠÎºÎ±ÏĦÎ±Î»Î¬Î²":1604,"ĠÎµÎ´Ïİ":1605,"Î³Î¹Î¬":1606,"Ġ196":1607,"ÎĨ":1608,"Ġ5":1609,"ĠÎºÎ¿":1610,"ÏĦÎ¹Î¬":1611,"ĠÎĽÎµ":1612,"ĠÎ´Î¯ÏĢÎ»Î±":1613,"Î¼Î½":1614,"Î¸ÏħÎ¼":1615,"ÏĮÏĥÎ¿Î½":1616,"Î¼ÎµÎ¹":1617,"ĠÏĥÏĩÎŃ":1618,"ĠÎķÏĥ":1619,"Î¼Î±ÏĥÏĦÎµ":1620,"ÎĳÎ¡ÎĹÎ£":1621,"ÎĳÎĽÎĳÎ¤Îķ":1622,"ĠÏĦÏĮÏĥÎ¿":1623,"ĠÎºÏįÏģÎ¹":1624,"ÎĳÎľÎł":1625,"ĠÏĨÎ¹":1626,"ÏĥÏĦÎ¿Ïħ":1627,"Î¯Î¶Î¿ÏħÎ½":1628,"ĠÎ±ÏħÏĦÎ®":1629,"ĠÏĩÏīÏģÎ¯ÏĤ":1630,"ĠÎºÎµÏĨ":1631,"ĠÎ¤ÎŁ":1632,"ĠÎļÏįÏĢÏģÎ¿":1633,"11":1634,"ÎºÎ¿":1635,"ĠÏĢÎ¹Î±":1636,"ĠÏĦÎ·Î»Îµ":1637,"ĠÎķÎĽ":1638,"ÏĦÎ¹Î¿":1639,"ĠÎµÎºÎµÎ¯Î½":1640,"ÎłÎķ":1641,"ÏĢÎ¿Î¹Î±":1642,"ÎĸÎŁÎ¥ÎĽ":1643,"ÏĥÏĦÎ±ÏĥÎ·":1644,"ĠÎ¼Î¿":1645,"ĠÎ´ÏģÏĮ":1646,"as":1647,"Ġ06":1648,"Î£Î¤":1649,"ÏĦÎŃÏģÎ±":1650,"Î»Î±Î²":1651,"ĠÎ³Î¯Î½ÎµÏĦÎ±Î¹":1652,"ĠÏĪÏħÏĩ":1653,"ĠÎłÎµÏĦÏģ":1654,"ĠÎ´Î¿ÏħÎ»ÎµÎ¹Î¬":1655,"ĠÎ¼Î¬ÏĦÎ¹Î±":1656,"ĠÏĢÏģÎ¬Î¼Î±ÏĦÎ±":1657,"Î·ÏĦÎ®":1658,"ĠÏĥÏİ":1659,"ÏĨÎµÏģ":1660,"ĠÏĢÎ¿ÏĦ":1661,"ÏĮÎ»Î¹ÏĤ":1662,"Î¸Î¿ÏįÎ½":1663,"Î´Ïī":1664,"ĠÏĦÎ¶Î¹Î±":1665,"ÏĦÎ¿Î³ÏģÎ±ÏĨ":1666,"ÎĵÎĻÎĳ":1667,"Î¸ÎºÎµÎ¹Î±":1668,"ÏĦÎ¹ÎºÎŃÏĤ":1669,"ÎĳÎĻ":1670,"ĠÎ¬Î»Î»Î·":1671,"ÎĳÎĽÎĳÎ¤ÎķÎĻÎĳ":1672,"Î¿ÏħÏĥ":1673,"ĠÎŃÎ³":1674,"ĠÎ£ÏĦÎ¿":1675,"ÎŃÎ½ÎµÎ¹":1676,"Î±Î¹Î½":1677,"ÏĦÎµÏħ":1678,"ĠÎºÎ±Î¹Î¿":1679,"ĠÎ±ÏħÏĦÎ¿Îº":1680,"ĠÎµÎ»":1681,"ĠÎķÎº":1682,"Î»Î±Î²Î±":1683,"Î³Îµ":1684,"ÏįÎº":1685,"ÎµÎ¯ÏĦÎ±Î¹":1686,"ĠÏĢÎ±ÏģÎ±ÎºÎ±Î»Ïİ":1687,"ÎĻÎļÎŁÎĻ":1688,"Î±Î½Îµ":1689,"ĠÎ¾ÎŃÏģÎµÎ¹ÏĤ":1690,"ĠÏĦÏģÏĮ":1691,"ĠÎ³Î¹Î½":1692,"ĠÎļÎĳÎ¡ÎĳÎĵÎĻÎ©Î¡ÎļÎĹÎ£":1693,"Î¿ÏįÏĥÎ±":1694,"ĠÎ²Î¿Î·":1695,"Î¸ÎµÎ¹Î±":1696,"ĠÎ¼Ïī":1697,"ĠÎĽÎŁÎ¥Î£ÎĹ":1698,"ĠÎ¾Îµ":1699,"ĠÎºÎ¿Î¹Î½ÏīÎ½":1700,"ÎŃÏģÎ¹Î±":1701,"Î¼Î±ÏĦÎ¬":1702,"ĠÎ¹Î´":1703,"Î¹Î¿ÏĤ":1704,"ĠÎºÎ¹Î½Î·":1705,"ÎĿÎĻÎĳ":1706,"ĠÎ¬Î»Î»Î¿Î½":1707,"Î®ÏĥÏī":1708,"ÎķÎ½":1709,"Î³Î³ÎµÎ»":1710,"Î®ÏĥÎµÎ¹ÏĤ":1711,"ĠÎ¿Î¼":1712,"ĠÎ³Î¹Î±ÏĦÏģ":1713,"ÏĦÏģÎ¿ÏĢ":1714,"ĠÎ¼Ïħ":1715,"Î¤Î¿":1716,"Î¸ÏģÏīÏĢÎ¿ÏĤ":1717,"ÏĥÏĦÎ¹":1718,"ĠÎºÎ¿ÏĢ":1719,"ĠÎ£ÎĳÎĴ":1720,"ĠÏĥÏħÎ½ÎµÏĩ":1721,"Î¡ÎĻÎĳ":1722,"Î¶Î±Î½":1723,"Î¶ÎµÏĦÎ±Î¹":1724,"ĠÎ½ÏįÏĩ":1725,"Î¸Î¿Ïħ":1726,"ÏģÎ±Îº":1727,"ÎŁÎ¥ÎĽÎĳ":1728,"Î¡ÎĳÎ£":1729,"ÏİÏĥÎµÎ¹":1730,"Î¿ÏįÏĥÎ±Î½":1731,"ĠÎ§ÏģÎ¹ÏĥÏĦ":1732,"ĠÏħÏĢÏĮ":1733,"ĠÎ±ÏĢÎ¿ÏĨ":1734,"ĠÎµÎ¯ÏĩÎ±":1735,"Ġ4":1736,"ÏģÎ¹Î²":1737,"ÎŃÎ²":1738,"ĠÏĩÎµÎ¹":1739,"ĠÏĥÏħÎ»Î»Î¿Î³":1740,"ĠÎ»Î¯Î³Î¿":1741,"Î¶Î¿ÏħÎ½":1742,"ĠÎĳÎ¸Î®Î½Î±":1743,"Î¥Î§":1744,"ĠÎĽÎ¿Ïħ":1745,"ĠÎĨÎ½":1746,"ÎŁÎĶÎ©":1747,"ĠÎ¤Î¿Ïħ":1748,"Î»Î¯Î¿Ïħ":1749,"ĠÏĩÏģÎ¿Î½":1750,"ĠÎķÏħÎ·":1751,"ĠÎ£ÏĦÎ±":1752,"ĠÎ¦Î±Î½":1753,"Î»Î¯Î±":1754,"ÏģÎ±ÏĦ":1755,"ÎĸÎŁÎ¥ÎĽÎĹÎ£":1756,"ĠÎ¼Î¹Ïĥ":1757,"ÏĥÎ¼Î±":1758,"ÏİÎ½ÏĦÎ±ÏĤ":1759,"ÏĦÎ¹ÎºÏĮÏĤ":1760,"Î¿Î´Î¿":1761,"ÏĦÎ¹ÎºÎ®ÏĤ":1762,"ĠÎµÎ¯ÏĩÎµ":1763,"ÏĥÎ¼ÏĮ":1764,"Î¹Î¬Î½":1765,"ĠÎ±Î½Î¿Î¯Î³ÎµÎ¹":1766,"ĠÎ¦Î¡ÎŁÎ£Î©Î£":1767,"ÏĨÏħ":1768,"Î¹ÎºÏĮÎ½":1769,"ĠÎ»ÎµÏĢ":1770,"196":1771,"ĠÎ¯Î´Î¹":1772,"ĠÎ¿Î¹ÎºÎ¿Î³":1773,"Î¿Î¹ÏĢÏĮÎ½":1774,"ÎļÎŁÎ£":1775,"ĠÎĵÎĳÎĽÎĳÎ¤ÎķÎĻÎĳ":1776,"ĠÎĳÎłÎŁ":1777,"Î³Î¿Î½":1778,"ĠÎ²Î¿Ïħ":1779,"ĠÎºÏħÏģÎ¯Î±":1780,"Î¹Î½Îµ":1781,"ĠÎµÏĥÏħ":1782,"Ġc":1783,"ÏĢÎ¿Î»":1784,"ĠÏĦÏĮÏĦÎµ":1785,"ÏĦÎµÎ¹Î±":1786,"ÏģÎ¿Î¼":1787,"ÏĢÏī":1788,"ĠÎ±Î½Î¸ÏģÏİ":1789,"Î¿ÏĩÏīÏģ":1790,"ĠÎºÎ±ÏĨÎŃ":1791,"ĠÎµÏģÎ³":1792,"Î¬Î½ÏĦÎ±":1793,"ÏĦÎ¿ÏħÏĤ":1794,"Î³ÏģÎ¬ÏĨ":1795,"ĠÎ¤Î·Î½":1796,"ĠÎ´Î±Î¼ÎŃ":1797,".(":1798,"ĠÏĢÎ»Î±":1799,"ĠÎķÎ£Î©Î¤":1800,"ĠÎµÎ¯ÏĢÎµ":1801,"ÏĪÎ±":1802,"ĠÎºÎ±Î»ÏĮ":1803,"ĠÎ²Î»ÎŃÏĢÎµÎ¹":1804,"ĠÎºÎ»ÎµÎ¹":1805,"Î¾Î±Î½":1806,"ĠÎ´ÏħÎ½Î±":1807,"at":1808,"Î½Î±Î¹":1809,"ĠÏĢÎŃ":1810,"ĠÏĥÎ·Î¼Î±":1811,"ĠÏĥÏĦÎ¹Î³Î¼Î®":1812,"en":1813,"ĠÎ¦ÎĳÎĿ":1814,"Î»Î¹Î¿":1815,"ÎĳÎļ":1816,"ĠÎĵÎ±Î»Î¬":1817,"Î²Î»Î·Î¼Î±":1818,"ÏĦÏĮÎ½":1819,"ĠÎķÎ³Ïī":1820,"ÎºÎ¹Î¬":1821,"ĠÏĢÎ¿Ïį":1822,"ÏĦÎ¿ÏįÎ½":1823,"Î»Î¹Îº":1824,"ÏįÏĥÎ·":1825,"ÎłÎ±":1826,"ĠÏģÏī":1827,"ĠÎ³Î¬":1828,"ÏĢÎ¹Î±":1829,"Î³Î¿Ïģ":1830,"Î´ÏģÎ±":1831,"ĠÎ³ÎµÎ½Î±Î¯":1832,"ĠÎķÎĽÎĻÎ£ÎĳÎĴÎķÎ¤":1833,"ĠÏĥÏī":1834,"Ġ6":1835,"ĠÎĳÎĽÎķÎŀÎĳÎĿÎ¤Î¡ÎŁÎ£":1836,"ÎĳÎ½":1837,"ĠÎºÎ±ÏĦÎµ":1838,"ĠÎºÎ¬Î¼ÎµÎ¹":1839,"ĠÎºÎ¬Î½":1840,"ĠÎ½ÎµÏģ":1841,"Î²Î¿":1842,"ĠÎ¸ÏħÎ¼":1843,"ĠÎĶÎ·Î¼":1844,"ĠÎĮÎ¹":1845,"ÏĦÎµÏģÎ·":1846,"ĠÎļÎ¹":1847,"ĠÎ±ÏĨÎ¿Ïį":1848,"ĠÎ»Î±Î»ÎµÎ¯ÏĤ":1849,"ÎºÏİÎ½ÎµÏĦÎ±Î¹":1850,"ĠÎļÎ±Î»Î¿Î¼Î¿Î¯ÏģÎ±":1851,"Î»Î±Î½":1852,"ÏĦÎ¬ÎµÎ¹":1853,"ĠÎ£Îł":1854,"ĠÎĹÎ½ÏĦÎ±":1855,"ĠÎºÎ¿ÏħÎ¶Î¯Î½Î±":1856,"Ġp":1857,"Î»Î¿ÏħÏĤ":1858,"ÏģÎ®Î½":1859,"Î³Î±Î»":1860,"ĠÏĨÎµÏį":1861,"ÎºÎ±ÏĦÎ¬":1862,"ĠÎ±ÎºÎ¿Ïħ":1863,"it":1864,"ÏĢÎ¿ÏħÏĤ":1865,"ÏģÎ¹Î¿ÏĤ":1866,"ÎĮ":1867,"Î¾ÎµÏģ":1868,"ÏĨÎ¿ÏĤ":1869,"Î¿ÏĥÎ¹":1870,"al":1871,"ĠÎ¸ÎºÏħÎ¿":1872,"ĠÏĨÎ±Î¯Î½ÎµÏĦÎ±Î¹":1873,"ar":1874,"ÏĦÏħÏĩ":1875,"ÏĥÏĩ":1876,"ĠÎ¼ÏĢÎ¿ÏģÏİ":1877,"ĠÏĨÏīÏĦÎ¿Î³ÏģÎ±ÏĨ":1878,"ĠÎ½ÎŃ":1879,"ÏĢÎ¿ÏħÏģÎ³":1880,"Î¹Î¿ÏħÏģÎ³":1881,"ĠÎ¦ÎĳÎĿÎŁÎ¥ÎĽÎĽÎĳ":1882,"ĠÎºÎ»ÎµÎ¯":1883,"ĠÏĥÏĩÎ¿Î»":1884,"Ġs":1885,"ÏĢÎ½":1886,"ĠÎ±ÏĤ":1887,"Î¦ÎĳÎĿ":1888,"Î´ÎµÎ½":1889,"ÏģÎŃÏĢÎµÎ¹":1890,"ÏĪÏī":1891,"ÎºÎ¿Î»Î¿Ïħ":1892,"ĠÏħÏĢÎ¬ÏģÏĩÎµÎ¹":1893,"ĠÏĢÎ¿ÏĦÏĦÎŃ":1894,"ÏĦÏīÏĤ":1895,"Î¼Î¿Î³":1896,"ÎºÎ®":1897,"ĠÎ±Î¾":1898,"ÎĻÎ¤Îĳ":1899,"ĠÎĳÏģÏĩ":1900,"ĠÏĢÎ¬Î¼Îµ":1901,"ĠÏĥÎºÎµÏĨ":1902,"ĠÏĦÏģÎ±ÏĢÎŃ":1903,"ÏĦÏį":1904,"ĠÎ±ÏĢÎ±Î½":1905,"ÏĥÏĦÎ·ÎºÎµ":1906,"Î¸ÎºÎ¹":1907,"ÏĨÏī":1908,"Î¹ÎºÎ¿":1909,"Î¯Î½Ïī":1910,"ÏĥÎ¼ÏĮÏĤ":1911,"14":1912,"ĠÏĥÏĨ":1913,"Î³ÎµÏĦÎ±Î¹":1914,"ÎĻÎ¤":1915,"Î¬Î½Î¹":1916,"ĠÎ¼Î±Îº":1917,"Î¸Î·ÎºÎ±":1918,"ĠÏĨÎ¿ÏģÎŃÏĤ":1919,"ĠÎ±ÏģÎ³":1920,"ĠÎ²Î¹Î²":1921,"ÏģÏīÎ½":1922,"ÎºÎº":1923,"ĠÎºÎ¿Î¼":1924,"ĠÎ´Î¯Î½ÎµÎ¹":1925,"ĠÎĵÎ¹ÏİÏģÎ³Î¿":1926,"ĠÎºÎµÏĨÎ¬":1927,"ĠÏĥÎºÎ¿":1928,"ĠÎ±ÏģÏĨ":1929,"Ġthe":1930,"ÎŃÏģÎ±Î½":1931,"Î¸Î¬":1932,"ĠÏĮÎ»Î±":1933,"ĠÏĢÎ±Ïģ":1934,"ĠÎ¡ÎĻÎ¤Îĳ":1935,"ĠÏĥÏħÎ¶":1936,"ĠÏĢÎ±Î¯ÏģÎ½ÎµÎ¹":1937,"ÏĦÎŃÎ»":1938,"ÎµÏģÎ±":1939,"ÏĢÎ±Î½":1940,"ÏĥÎºÎ¿Î»":1941,"es":1942,"ÎµÏĥÎ±Î¹":1943,"ĠÎºÎ»Î±":1944,"ĠÎµÏģÏī":1945,"ĠÎ³ÏģÎ¬":1946,"Î¸Î±Î½":1947,"ÏįÏģÏī":1948,"ÎĿÎ¤Îĸ":1949,"ĠÎ¼ÏĮÎ½Î¿Î½":1950,"ĠÎ¼ÎŃÏģÎµÏĤ":1951,"ĠÎ´Î·Î»Î±Î´Î®":1952,"ĠÎľÎµÎ½":1953,"Î¾ÎŃÏģÏī":1954,"ÏĥÏĦÎ¿ÏĤ":1955,"ĠÎłÎķÎ¤Î¡ÎĹÎ£":1956,"Î½Î¿Î¹":1957,"Î¯Î½Î±":1958,"ÏĮÏģÎ±":1959,"ÏĥÏĦÎµÎ½":1960,"ÏĥÎ±Î¼Îµ":1961,"Î¼ÎµÎ½Î±":1962,"ĠÎ¾ÎµÎº":1963,"ÎĳÎĿÎ¤Î©ÎĿÎĹÎ£":1964,"ĠÎ¿ÏĢÎ¿Î¯":1965,"ĠÏĢÏģÏİÏĦÎ·":1966,"Î¿Î®":1967,"ĠÎ®Ïģ":1968,"Î§Î¡Î¥Î£ÎŁÎ£Î¤ÎŁÎľÎŁÎ¥":1969,"ĠI":1970,"ÎŃÎ±ÏĤ":1971,"ĠÎºÎ¬Î¼ÎµÎ¹ÏĤ":1972,"ou":1973,"ÎķÎŀ":1974,"ÏĦÎ¬ÏĤ":1975,"Î¿ÏįÎ½ÏĦÎ±Î¹":1976,"Î¡ÎķÎĿÎ¤Îĸ":1977,"ĠÎĵÎ±Î»Î¬ÏĦÎµÎ¹Î±":1978,"ĠÎŁÏħ":1979,"ĠÎĵÎĻÎĳÎĵÎĻÎĳ":1980,"ĠÏĦÏģÎŃ":1981,"Î¿ÏįÎ»Î±":1982,"Î¼Î¬ÏĦÏīÎ½":1983,"ĠÎ±Î³ÎºÎ±Î»":1984,"ÏĦÏħÏĢÎ¬":1985,"ÎľÎķÎ¡Îĳ":1986,"ÏģÏĮÏĤ":1987,"ÏĨÏģÎ±":1988,"ĠÎ±ÏĢÎ¿Îº":1989,"ÏĥÎµÏĦÎµ":1990,"ĠÎĳÎĿÎ¤ÎĸÎŁÎ¥ÎĽÎĹÎ£":1991,"ĠÏĢÏģÎ¬Î¼Î±":1992,"ĠÎĺÎķÎŁÎ§":1993,"ĠÏĩÎŃÏģÎ¹Î±":1994,"ÎĵÎĵ":1995,"ÎºÎ±ÏĦÎ±":1996,"ÎľÎĻ":1997,"ÎŃÎ»ÎµÎ¹Î±":1998,"ÏģÏĦÎµÎ½":1999,"ÎĻÎ£ÎŁÎĶ":2000,"ĠÎ¥Îł":2001,"ĠÎłÎ¡Î©ÎĻ":2002,"ÏĦÏģÎ¬":2003,"ÏĮÏĦÎ·ÏĦÎ±":2004,"ĠÏĮÏĩÎ¹":2005,"ÏģÏĩÎµÏĦÎ±Î¹":2006,"ĠÎµÏĢÎµÎ¹Î´Î®":2007,"ÏĮÏĦÎ¹":2008,"ĠÏĢÏģÏĮÏĥÏī":2009,"ĠC":2010,"Î½ÎµÏħ":2011,"ĠÏĥÎ±Î»":2012,"ĠÎ±ÎºÎ¿Î»":2013,"ĠÎºÎ¬Î¼Î½ÎµÎ¹":2014,"ÏĥÎ¸Î·":2015,"ĠÎ¼ÏĢÎ±":2016,"ÎŃÏģÎµÎ¹ÏĤ":2017,"ĠÎµÎ³Î¹Ïİ":2018,"ÏĦÎ¯Î¿Ïħ":2019,"ĠÎ´Î·Î¼Î¹Î¿ÏħÏģÎ³":2020,"Î½Î±Î¯ÎºÎ±":2021,"ĠÎ¼ÏīÏģÏĮ":2022,"Î¹Îµ":2023,"ÏĥÎ¿Ïħ":2024,"ĠÏĦÎ¿ÏįÏĦÎ±":2025,"ÎĻÎĿÎĹ":2026,"ĠÎ±Î¯":2027,"ĠÎºÎ±Î»Î»":2028,"ĠÎ»Î¿Î³Î¿ÏĦÎµÏĩÎ½":2029,"ĠÎļÎ±ÏģÎ¬Î³Î¹ÏīÏģÎºÎ·ÏĤ":2030,"Î´Î¿ÏĥÎ·":2031,"Î£Îĳ":2032,"ÏİÎ½Î±":2033,"Î¼ÎµÏģ":2034,"ĠÎµÎºÎ±ÏĦÎ¬":2035,"ĠÏĦÏģÎ±Î³Î¿Ïį":2036,"Î½Î¿Ïħ":2037,"ĠÏĢÎ±ÏĤ":2038,"Î³ÎµÎ½":2039,"ĠÎ½ÏĮ":2040,"ĠÎ³Î»Ïİ":2041,"ĠÎłÎ¿":2042,"ÏĥÏĦÏģÎŃ":2043,"ĠÏĥÎºÎŃÏĨ":2044,"ÎºÎ¿Î¹":2045,"ÎµÎ¯Î¿Ïħ":2046,"ĠÎ¼Î¹Î»Î®":2047,"ĠÎ´ÏįÎ¿":2048,"ĠÏĢÏģÎ±Î³Î¼Î±":2049,"ÎĻÎŁ":2050,"ĠÎ³ÏģÎ±":2051,"ĠÏĢÎµÎ¶":2052,"Î±Î½Î±Î³":2053,"Î¹ÏİÎ½":2054,"Î½Î±Î½":2055,"ÏĥÎ¯Î±ÏĤ":2056,"ĠÎļÎŁÎ¥":2057,"ĠÎłÏģÎŃÏĢÎµÎ¹":2058,"Î©Î¤ÎĹÎ£":2059,"ĠÎµÎºÎ¬":2060,"Î¯Î¶ÎµÏĦÎ±Î¹":2061,"ĠÎµÎ¯ÏĢÎµÎ½":2062,"ĠÎµÎ¹Ïĥ":2063,"Î¤Î¶":2064,"ÎµÎ²":2065,"ĠÎµÎºÎµÎ¯":2066,"ĠÎ´ÎµÎºÎ±":2067,"ĠÏįÏĥÏĦÎµÏģÎ±":2068,"ĠÎľÎĳÎ¡ÎŁÎ¥ÎĽÎĽÎĳ":2069,"ĠÎĺÎķÎŁÎ§ÎĳÎ¡ÎĹÎ£":2070,"15":2071,"ĠÎ¼ÏĢÎ±Î¯Î½ÎµÎ¹":2072,"ĠÎ³Î¿Î½":2073,"ĠÎŁÏį":2074,"ĠÎ¼Î±Î¼Î¼Î±":2075,"ÏģÏĮÏĥÎ±":2076,"ÏħÏģÏİ":2077,"ĠÎŃÏģÎ³Î¿":2078,"ĠÎľÎ¹ÏĩÎ±":2079,".)":2080,"ĠF":2081,"Î¿Î¿":2082,"ĠÏĢÎ¬ÎµÎ¹ÏĤ":2083,"ÎĶÎ©ÎĿ":2084,"ĠÎīÏĦÎ±Î½":2085,"Î³Î¿Ïħ":2086,"ĠÎ³Î¯Î½ÎµÎ¹":2087,"ĠÎĳÏĦÎµ":2088,"ÏĥÎ¹Î¿":2089,"Î½Î·ÏĥÎ·":2090,"ĠÏĩÎ±ÏģÎ¬":2091,"Î¯Î´Î·ÏĤ":2092,"Î¼ÎŃÎ½ÎµÏĤ":2093,"Î±Î¹Î±":2094,"ĠÎ½Î¹Ïİ":2095,"ÎŁÎĺ":2096,"ĠÎºÎ¬ÏĢÎ¿Î¹Î±":2097,"ÏĥÎºÎµÎ¹":2098,"ÏĮÏĦÎ·":2099,"Î¤ÎĳÎĽ":2100,"ĠÎ¯Î´Î¹Î±":2101,"ĠÏĦÎµÎ»ÎµÎ¹":2102,"ÎķÎĿÎĻÎĳ":2103,"Î»Î¹ÏĥÎ¬Î²":2104,"ĠÎĬ":2105,"Î´ÏģÎŃ":2106,"Î¼ÎŃÎ½Î¿Î½":2107,"ÏģÎ¹ÏĥÏĦÏİ":2108,"ĠÎķÎ»Î¹ÏĥÎ¬Î²":2109,"ĠÎĽÎĳÎľÎł":2110,"ÏĮÏĦÎ±Î½":2111,"ĠÎłÎ±Î½":2112,"ĠÎĿÎĳ":2113,"ĠÎĶÎ¹":2114,"ĠÎ¼Î±Î¶":2115,"Î¼Î²ÏģÎ¯Î¿Ïħ":2116,"ÎķÎĿÎĹ":2117,"Î¥Î§Î¤Îĳ":2118,"ĠÎ¼Î®":2119,"ĠÎ¦ÏģÏĮÏĥÎ±":2120,"ÎľÎĳÎ¤ÎĻ":2121,"Î±ÏĨÎ½":2122,"ĠÎľÎµÎ»Î¬ÏĤ":2123,"Î»Î¿Î½":2124,"ĠÎłÎķ":2125,"ÎļÎĹ":2126,"Î»ÎµÎ½":2127,"Î¿Î½Î¯":2128,"ÎŁÎł":2129,"Î¿ÏģÎ¬":2130,"ĠÎ±Î³Î³":2131,"ĠÎ»Î»Î¯Î¿Î½":2132,"Î¸ÎµÎ»Î±":2133,"ĠÎľÎķÎĽÎĳÎĶÎ©ÎĿ":2134,"ĠÎ±Î¼":2135,"Î´ÎµÏį":2136,"ĠÎ³Î±":2137,"ÏģÎ¹Î±Î½":2138,"ÏĮÎ½Î¿":2139,"ÎĸÎĻÎĿÎĳ":2140,"Ġo":2141,"Î¸Î·Î½":2142,"ĠÎ£ÏĦÎµ":2143,"Î¿Î²Î±Ïģ":2144,"ĠÎºÎ¿ÏħÎ²ÎŃÎ½":2145,"ÏĥÏĦÏģÎµ":2146,"ÏħÏĦÏħÏĩ":2147,"ĠÏĥÏįÎ½":2148,"ĠÎµÎ¸":2149,"ÏįÎ½Î·":2150,"ĠÏĢÎ±ÏĢ":2151,"Î¹Î¬ÏĤ":2152,"ĠÎĿÎµ":2153,"ÏįÏĢÏģÎ¿Ïħ":2154,"ĠÎ¸ÎŃÎ¼Î±":2155,"Î»Î¹ÏĥÏĦÎ±":2156,"ĠÎºÎ¹Î½Î·ÏĦÏĮ":2157,"Î·Î»Î¯":2158,"ĠÏĥÎ¯Î¿Ïħ":2159,"ĠÎ²Î³Î¬":2160,"ĠÏĦÎŃÎ»Î¿ÏĤ":2161,"ÎºÎ·ÏĤ":2162,"Î´Î¿Ïħ":2163,"ÏĩÎ¿":2164,"ÏĥÏĦÏģÎ±":2165,"Î½Î¿Î¼Î±":2166,"Î·Î¼Îµ":2167,"ĠÎ¼ÎµÎ¯Î½":2168,"ÎµÏģÎ³":2169,"ĠÎĿÎ¥Î§Î¤Îĳ":2170,"ĠÎ¯Î½ÏĦÎ±":2171,"Î±ÏĥÎ¯":2172,"ÏģÎµÏħ":2173,"ÏĢÎ¬Î½Ïī":2174,"ĠÎķÎ¾":2175,"ĠÎ¤Î¿Î½":2176,"ĠÎ±ÏĢÎ±":2177,"ĠÏĢÎµÏģÎ¬":2178,"ĠÎ¼Î¹Î±ÏĤ":2179,"199":2180,"ĠÎ¡Îµ":2181,"le":2182,"Ġf":2183,"Î¿Î½Î¿Î¼":2184,"Î´Î±ÏĤ":2185,"Î¡Î§":2186,"ÏĩÎ¿Î»":2187,"ĠÎľÎ±Ïģ":2188,"ĠÎ£Îº":2189,"ÏĥÏĦÎ¹ÎºÏĮ":2190,"ÎľÎĿÎĻÎĳ":2191,"Î¡ÎĳÎ¦":2192,"ÎľÎĳÎ¤ÎĻÎŁ":2193,"ĠÏĦÏī":2194,"ÏĥÎ¬":2195,"ĠÎ±ÏģÎŃ":2196,"Î¡ÎŁÎĿ":2197,"ÏİÏĥ":2198,"ÏĦÎ¿Î¼Î±":2199,"ĠÎļÎĳÎĽÎŁÎľÎŁÎĻÎ¡Îĳ":2200,"ĠÏĢÎµÏģÎ¹Î¼ÎŃÎ½":2201,"Î¬Î¶ÎµÏĦÎ±Î¹":2202,"Ġ1974":2203,"ĠÏĦÏģÎ±ÏĢÎŃÎ¶Î¹":2204,"ÎµÎ¼":2205,"Î»Î»Î¿Ïį":2206,"ĠÎĳÏĢÏĮ":2207,"ĠÎ²Î±ÏĥÎ¹":2208,"ĠÎºÎ±Î½ÎŃÎ½Î±ÏĤ":2209,"ÏĮÏģÎ·":2210,"ÏĦÎµÎ»":2211,"ĠÎ¸ÎµÎ»":2212,"ÏĦÏħÏĢ":2213,"ĠÎ³ÏħÎ½Î±Î¯ÎºÎ±":2214,"ĠÏĦÏģÎµÎ¹ÏĤ":2215,"ac":2216,"ĠÏĪÎ·":2217,"ĠÎ¼ÎŃÏģÎ¿ÏĤ":2218,"ÏĦÏĥÎµ":2219,"ÎµÎ¯Î¿Î½":2220,"ĠÎľÎµÎ»":2221,"ĠÎ»Î±Î¹":2222,"Î¿Î»ÏĮÎ³":2223,"ÎĺÎŁÎ£":2224,"ĠÎĺÎŃÎ»Ïī":2225,"ÏīÏĢ":2226,"Î´Î¿ÏĤ":2227,"Î¿ÏĢÎ¿Î¯":2228,"ĠÎ³ÏģÎ±ÏĨÎµÎ¯Î¿":2229,"Î½Î¯":2230,"ÏĥÎ¼ÎŃÎ½Î·":2231,"ĠÎºÏģÏħ":2232,"ÏĥÏĦÎ¹ÎºÎ¬":2233,"ĠÎĵÎĻÎĳÎĿ":2234,"Î±Ïĩ":2235,"ÎĻÎ¡":2236,"Î¼Î¬ÏĦÎ¹Î¿":2237,"197":2238,"ĠÎ±ÏħÏĦÎ¬":2239,"Î»Î¿Îº":2240,"ÎĻÎ¤ÎĻ":2241,"ĠÎµÎºÎºÎ»Î·":2242,"ĠÎĽÎµÎ¼ÎµÏĥ":2243,"Î±ÏĥÎ¹":2244,"ÏĩÏģÎ¹":2245,"ĠÎ±ÎºÎ¿Î»Î¿Ïħ":2246,"Î±ÏħÏĦÏĮ":2247,"ÎµÏģÎ¹":2248,"ÏĥÏħÏĩ":2249,"ÎµÎ¹Î¿":2250,"Î²Î¿Ïħ":2251,"ĠÏĨÎ¿":2252,"ĠÎ»Î¯":2253,"ĠÎµÎ¼ÎµÎ¯ÏĤ":2254,"Î»ÏīÎ½":2255,"Î¼Î¿ÏģÏĨ":2256,"ĠÎķÏĢÎ¹":2257,"Î»Î»Î¿":2258,"Î¯Î¶ÎµÎ¹ÏĤ":2259,"ĠÎĳÎ½ÏĦÏģÎ¿":2260,"ĠP":2261,"Î¿Îµ":2262,"ÏģÎµÎ¹ÏĤ":2263,"ĠÏĥÎºÎ·Î½Î®ÏĤ":2264,".'":2265,"ĠÎ³Î»":2266,"ĠÎĳÎĽ":2267,"ÏģÎ¹Î²ÏİÏĤ":2268,"ĠÎ±Î¸":2269,"Î¿ÏħÎ½ÏĦÎ±Î¹":2270,"Î²Î¬Î¶ÎµÎ¹":2271,"ÏĥÎ¼Î¿Ïį":2272,"ĠÎºÎ±Î¸ÏİÏĤ":2273,"ĠÎ±Î»Î®Î¸ÎºÎµÎ¹Î±":2274,"13":2275,"ÎµÏĦÎ¬":2276,"ÎŃÎ»Î»":2277,"Î£ÎĹ":2278,"Î¶ÎµÎ½":2279,"ÎĽÎµÏħÎºÏīÏĥÎ¯Î±":2280,"Î¹ÏĥÎµ":2281,"Ġ15":2282,"ÏĦÎ®ÏĥÎµÎ¹":2283,"000":2284,"ĠÏĥÏĦÎ¬":2285,"Î´ÎµÎ¯":2286,"ÏĦÎ·ÏĥÎµ":2287,"ĠÎ¸Ïħ":2288,"ĠÏĥÏħÎ³Î³":2289,"Î¦Î¤ÎĹÎ£":2290,"ĠÎ¼Î¹Î»Î¬":2291,"ĠÎĳÎĿÎĿÎĳ":2292,"Ġb":2293,"ĠÏĦÎ¿ÏįÎ½":2294,"Î¼Î·Î½":2295,"Î³Î¼Î±ÏĦÎ±":2296,"ÏĪÎµÎ¹ÏĤ":2297,"ĠÎ¶ÏīÎ®ÏĤ":2298,"ÏĮÎ»Î¿Ïħ":2299,"ÎºÎµÎ¹ÏĤ":2300,"ĠÎ¼ÏĮÎ»Î¹ÏĤ":2301,"ĠÎłÏĮ":2302,"ĠÎµÎ½ÏĮÏĤ":2303,"ĠÎ²ÏģÎ¬":2304,"Î·Î¼ÎŃÏģÎ±":2305,"ÎķÎ¤ÎĳÎĻ":2306,"ĠÎ±ÏħÏĦÎ¿ÎºÎ¯Î½Î·":2307,"ĠÎ³ÏģÎ¬ÏĨ":2308,"ĠÎµÎ½Î½Î¿":2309,"ĠÎ£Ïħ":2310,"ĠÎ®ÏĦÎ¿ÏħÎ½":2311,"ÎĶÎ¡Îĳ":2312,"ĠÎĳÎ½ÏĦÏİÎ½":2313,"ĠÎ±Î³Î±":2314,"198":2315,"ĠÎ²Î¬Î¶ÎµÎ¹":2316,"ĠÎļÎĽÎķÎ¦Î¤ÎĹÎ£":2317,"ĠÎĳÏĨÎ¿Ïį":2318,"ĠÎºÎµÏĨÎ¬Î»Î¹":2319,"10":2320,"ÏģÎ·Î½":2321,"ĠÏĥÏĦÏģ":2322,"ĠÏĥÎ¿Î²Î±Ïģ":2323,"Î¡ÎŁ":2324,"Î²ÏģÎ±":2325,"ĠÎĳÎĵÎĵ":2326,"ĠÎľÎ¹Î±":2327,"ÏĢÏģÎ¿ÏĤ":2328,"ĠÏĥÏħÎ½ÎŃÏĩÎµÎ¹Î±":2329,"ĠÎ¿ÏĢÎ¿Î¯Î¿":2330,"ĠÎłÎŁÎĽÎ¥ÎľÎĿÎĻÎĳ":2331,"ÎĳÎļÎĻÎĿ":2332,"ÎºÎ¿Î½":2333,"ÏĢÎ»Î·":2334,"ĠÏĢÎŃÏģÎ±":2335,"ÏĪÎµÎ½":2336,"Î»ÎµÏį":2337,"Î²Î±Î¯Î½ÎµÎ¹":2338,"ĠÎ±Î½Î±Î³":2339,"ĠÎµÎ»Î¬":2340,"ĠÎ±ÏĢÎ¿Î´":2341,"Î¼ÎµÏĥÎ±":2342,"ĠÎ£ÏĦÎµÏĨÎ±Î½":2343,"ÏĦÎŃÏģ":2344,"Î¾Ïį":2345,"ĠÏĮÎ»Î¿Î¹":2346,"Î¼Î¿Î¹":2347,"ĠÏĢÏİÏĤ":2348,"ÎŃÏĦ":2349,"Î²ÎŃÏģ":2350,"ĠÎ²ÏģÎµ":2351,"ĠÏĢÎ±ÎµÎ¹":2352,"ĠÎµÎ¯ÏĩÎ±Î½":2353,"ĠÏĮÏĦÎ¹Î·":2354,"Î¸Î®ÎºÎ·":2355,"ĠÏĢÎ¿Î¹Î¿ÏĤ":2356,"ĠÏĥÎ·Î¼Î±Î½":2357,"ÎľÎ±":2358,"ĠÎ®Î¼Î¿ÏħÎ½":2359,"Î²Î¬Î»Î»":2360,"ĠÏĩÏīÏģÎ¯":2361,"Î¸ÎºÎ¹Î¬":2362,"ÎĳÎļÎĻÎĿÎĺÎŁÎ£":2363,"Î±Î¹Î½Îµ":2364,"Î¹ÎºÎ¿Î»":2365,"ĠÎļÎŁÎ¥ÎĸÎĻÎĿÎĳ":2366,"ÏĥÎ¯":2367,"ÏĮÎ¼Î·":2368,"Î¼ÏĢÎ¬":2369,"ĠN":2370,"ÏĥÎ¿ÏħÎ¼ÎµÎ½":2371,"ĠÎ±ÏģÎ¹":2372,"Î®Î»":2373,"Î´Î¹Îº":2374,"ĠÎ¸ÎŃÏĥÎ·":2375,"Ġa":2376,"Î½Î¿Ïį":2377,"ĠÎľÎł":2378,"ĠÎ£ÏĦÎ·Î½":2379,"ĠÎ¯Î´Î¹Î¿":2380,"ĠÎ±ÏĥÏĦ":2381,"ÎĳÎĿÎĳ":2382,"ĠÎµÏĢÎ¹Îº":2383,"ÎĶÎ¥":2384,"ĠÎºÏĮÏĥÎ¼Î¿":2385,"ĠÏĥÎ±Î»ÏĮÎ½Î¹":2386,"ĠÎķÎ»Î¹ÏĥÎ¬Î²ÎµÏĦ":2387,"ÏĮÏĨ":2388,"ĠÎµÏĥÎº":2389,"ÎĶÎķÎ¥":2390,"ĠÏĦÎ¿ÏįÏĦÎ·":2391,"ÎºÎ»Î¿ÏĨ":2392,"ĠÎ±Î³ÎºÎ±Î»Î¹Î¬":2393,"Î¬ÎºÎ¹":2394,"ÏĦÎ¬Î¶ÎµÎ¹":2395,"ĠÎµÎ¯Î´Î±":2396,"Î²Î¬ÏĦÎ¹":2397,"ÏįÏĢÏģÎ¹":2398,"ĠÎ½Î·":2399,"ÎĻÎļÎŁÎ£":2400,"ĠÏĨÏħÏĥ":2401,"ÏĦÎ¿Ïģ":2402,"Î¼Î¹Î±":2403,"ÏĩÎ¬":2404,"ĠÎ£Î¬Î²":2405,"ĠÎ»Ïħ":2406,"Ġ(-":2407,"ĠÎ¼ÏĮÎ½Î·":2408,"ĠÎ£Î±Î²Î¿ÏįÎ»Î»Î±":2409,"us":2410,"Ġ7":2411,"Ġm":2412,"ÎŃÎ³":2413,"ĠÎĳÎº":2414,"ĠÎĳÎ³Î¬":2415,"ÏģÎ¯Î´Î±":2416,"ĠÏĢÎ±Î½ÏĦÏģ":2417,"ĠÎ¸Î¬Î»Î±":2418,"ĠÎķÎŀÎ©":2419,"ÎĻÎĵ":2420,"ĠÎĪÏĦÏĥÎ¹":2421,"Î¿ÏĩÎ®ÏĤ":2422,"ĠÎºÎ±Î½ÎŃÎ½Î±Î½":2423,"ĠÏĦÎ¯ÏĢÎ¿":2424,"ro":2425,"Î±Îº":2426,"ÏĥÎ¼ÎŃÎ½Î¿ÏĤ":2427,"ĠÎµÏĦÎ¿Î¹":2428,"ÎĽÎĹ":2429,"Î¥Îł":2430,"ĠÎ¦Î©Î¤ÎĹÎ£":2431,"ÎĻÎ£Îĺ":2432,"ĠÏĢÎ¬Î»Î¹":2433,"ĠÏİÏģÎ±Î½":2434,"ĠG":2435,"ĠÏĦÏĥÎ¹":2436,"Î¡ÎŁÎ¥ÎĽÎĽÎĳ":2437,"ĠÎºÎ±Î»Î®":2438,"ÏĦÎ¶Î±Î¹":2439,"Î¤ÎķÎ¦ÎĳÎĿ":2440,"ĠÏĩÏīÏģÎº":2441,"ĠÎŃÏģÎº":2442,"Î»Î»Î¿Ïħ":2443,"Î¯Î½Î¿":2444,"ĠÏĥÎ·ÎºÏİÎ½ÎµÏĦÎ±Î¹":2445,";'":2446,"ĠÏĥÎ¿":2447,"ĠÏĥÏĦÎµ":2448,"ÏĩÎ·":2449,"ÏĩÏģÎ¿Î½":2450,"ĠÎµÏĥÎ¿Ïį":2451,"ĠÎµÎ¯ÏĢÎµÏĤ":2452,"ÎłÎķÎĻÎ£ÎŁÎĶ":2453,"Î¤Î¶Î±Î¹":2454,"Ġw":2455,"ĠÎ±Î¹Ïİ":2456,"Î®Î³":2457,"ÏĨÎ¿":2458,"ĠÎķÎ»":2459,"Î¼ÏĢÎ¿Ïħ":2460,"ÏħÏģÎ±Î½":2461,"Î½Î¹":2462,"ÎµÎ¾":2463,"ÏĦÏİÎ½ÏĦÎ±ÏĤ":2464,"ĠÎ¼ÎµÎ³Î¬Î»Î·":2465,"ÏĦÎµÎ½":2466,"Î½Î·ÏĤ":2467,"Î¤ÎŁ":2468,"ĠÎµÏĢÎ±":2469,"ĠÎºÎ¬Î¼Î½ÎµÎ¹ÏĤ":2470,"Î¿Î¹Îº":2471,"ÏģÏİÎ½":2472,"ĠÏĦÏĮÏĥÎ¿Î½":2473,"ĠÎ³Î»Ïħ":2474,"ÎŃÎ½ÏĦÎµ":2475,"ĠÎ¬ÎºÎ¿Ïħ":2476,"Î¿ÏĢÎ¿":2477,"ĠÎºÎ»Î¬":2478,"ÎŃÏĥ":2479,"Î±Î¹ÏģÎµ":2480,"ÏįÎ¼":2481,"ÏĦÎ¿Î»":2482,"ÏĥÏĦÏģÎ¿ÏĨ":2483,"ĠÎ·Î¼":2484,"ÎĶÎķÎ¥ÎļÎĹÎ£":2485,"ĠÏĥÏĢÎ¹":2486,"Î¤ÎŁÎĽ":2487,"ĠÎŃÏĢÏģ":2488,"ĠÏĦÎ¶ÎµÎ¹":2489,"ÏģÎ¹ÏĤ":2490,"ĠÏĥÏħÎ¼Î²":2491,"ÏĦÎ¹ÎºÎ¿Ïį":2492,"ÏĦÏģÎ¿ÏĤ":2493,"ĠÎ¼ÎŃÏĩÏģÎ¹":2494,"ĠÎµÎ¹Î¼Î±Î¹":2495,"ÎµÏĦÎ¿ÏħÎ½":2496,"ĠÎ´Î¯ÎºÎ±Î¹":2497,"ĠÏĢÎ±Î¹Î´Î¯":2498,"ĠÎłÎĳÎ¥":2499,"ÏģÎ¸":2500,"Ġ195":2501,"ĠÎĿÎķÎŁÎļ":2502,"ĠÎķÎ³Ïİ":2503,"ÎĽÎŁÎ¥Î¡ÎķÎĿÎ¤Îĸ":2504,"Î±Î³":2505,"ÎŃÏĢ":2506,"Î²ÎµÏģ":2507,"ĠÎľÏĢÎ±Î¯Î½ÎµÎ¹":2508,"ĠÏģÎ¯":2509,"ĠÏĢÏħ":2510,"ĠÎ¼Î®Î½":2511,"ÏĩÎ¿ÏĤ":2512,"ĠÏĦÎ¶Î±Î¹Î·":2513,"ÎŁÎļÎ¡ÎĳÎ¤":2514,"ĠÎŃÎ³Î¹Î½Îµ":2515,"ĠÎ½Î±Î½":2516,"ĠÎ¼ÎµÎ³Î±Î»":2517,"ÏīÎ½ÏĥÏĦÎ±Î½":2518,"ĠÎĶÎµ":2519,"ĠÎ´Î¹Î±ÏĨÎ¿Ïģ":2520,"ĠÎºÎ¬ÏĢÎ¿Î¹Î¿ÏĤ":2521,"Î¿Î³ÏģÎ±ÏĨÎ¯Î±":2522,"ÏĨÎ¬":2523,"ĠÎ¾ÎµÏĩ":2524,"ĠÎĽÎ¿Ïį":2525,"Î»ÎµÎ¾":2526,"ĠÎºÏĮÏĥÎ¼Î¿ÏĤ":2527,"ĠÎ¿ÏįÎ»Î»Î¿Î¹":2528,"ĠÎ£ÎłÎĻÎ¤ÎĻ":2529,"ĠÎĿÎķÎŁÎļÎĽÎĹÎ£":2530,"ĠÎºÎ¹Î½":2531,"ÎĹÎľ":2532,"ĠÏĩÏģÎ·":2533,"ÏĥÎ¹Î¬Î¶ÎµÎ¹":2534,"Î¼ÎŃÎ½Î±Î½":2535,"ĠÎ§ÏģÏħÏĥÏĮÏĥÏĦÎ¿Î¼Îµ":2536,"ĠÎ¾ÎŃÏģÎµÎ¹":2537,"Ġ200":2538,"ÎŃÎ¸":2539,"ĠÎ±Î¼Î¼Î¬":2540,"Î»Î»Î¹Î¬":2541,"ĠÎ¼ÎŃÎ½Î±":2542,"16":2543,"ĠÎ£Î¥":2544,"ĠÎ¬Î¼Î±Î½":2545,"ĠÎĽÎ±":2546,"ĠÎ²Î±Î¸":2547,"ĠÎļÏħÏĢÏģÎ¹Î±Îº":2548,"ÏģÎ¿ÏħÎ½":2549,"Î¼ÏĢÎ±":2550,"ÏĢÎµÎ½":2551,"ÏĢÏĢÎ±":2552,"ÎŁÎ¤Îķ":2553,"ÏĦÎ±Î»":2554,"Î¬Î½Î¿":2555,"195":2556,"ÏĦÏĥÎ¹Î±":2557,"ÎķÎĻÎŁ":2558,"Î½ÏİÎ¼Î·":2559,"ĠÏĦÏģÎ±Î³Î¿Ïħ":2560,"Î½Î¿Î¼":2561,"Î»Ïį":2562,"Î¿ÏħÎ¼Î±Î¹":2563,"ĠÏĢÎ¿Ïģ":2564,"ĠÏĨÎºÎ¬":2565,"ĠÎĳÎ½ÏĦÎ¶":2566,"ĠÏĢÎµÏģÎ¹ÏĥÏĥ":2567,"12":2568,"Ġd":2569,"Î¹Î±ÎºÎ¬":2570,"ĠÎ´Î¹ÎºÎ®":2571,"ĠÎ³ÏįÏģÏī":2572,"Î²Î¹":2573,"Î»Î±Î¼Î²":2574,"ĠÎµÏĢÎ¹Ïĥ":2575,"ĠÎ¯ÏĥÏīÏĤ":2576,"ĠÎłÎ±ÏģÎ±":2577,"ĠÎŀÎŃÏģÏī":2578,".,":2579,"ÏĥÎ±Î¼ÎµÎ½":2580,"ĠÎŃÎ½Î¹":2581,"ĠÎ»Î¬Î¸Î¿ÏĤ":2582,"ĠÎłÎµÏĦÏģÎ®ÏĤ":2583,"Î¼ÏĢÏģ":2584,"Î¼Î¿ÏħÏĤ":2585,"ÏħÏĥ":2586,"Î¿Î»Î¿Î³Î¯Î±":2587,"ĠÏĢÎ±Î¹Î´":2588,"ÏīÎ¼Î±":2589,"ĠÎ´ÎµÎ¹ÏĤ":2590,"ĠÎŃÏĥÎ¹ÎµÎ¹ÏĤ":2591,"ĠÎļÎŁÎĻ":2592,"ĠÏĨÏĦÎ¬":2593,"ĠÏĦÏĮÏĥÎ±":2594,"ĠÏĢÏģÏİÏĦÎ±":2595,"Î¤ÎķÎ¦ÎĳÎĿÎĹÎ£":2596,"ÎĽÎŁÎ¥Î¡ÎķÎĿÎ¤ÎĸÎŁÎ¥":2597,"am":2598,"Ġ17":2599,"ĠÏĢÎ¿ÏĦÎŃ":2600,"ĠÎ±ÎºÏĮÎ¼Î·":2601,"Ġ198":2602,"ĠÏīÏģÎ±Î¯Î±":2603,"ĠÎºÏįÏģÎ¹Îµ":2604,"Âł":2605,"ÏĥÏĢÎ¿Ïħ":2606,"Î²ÎµÎ¹":2607,"ĠÏĦÎ¶Îµ":2608,"ĠÎµÎ½Î´Î¹Î±":2609,"ÏĥÏĦÏĮ":2610,"ÏĩÎ±ÏģÎ¹ÏĥÏĦÏİ":2611,"ĠÏĥÏĩÎµÎ´":2612,"ĠÏĦÎµÎ»ÎµÏħÏĦÎ±Î¯Î±":2613,"ĠÏĩÎ¿Ïģ":2614,"ĠÎĵÎµÎ½":2615,"ÎĻÎ£Îľ":2616,"ĠÎĳÎ³Î¬ÏĢÎ·":2617,"ĠS":2618,"Î¹ÎŃÏĤ":2619,"ÏįÏĦ":2620,"ĠÎ¤ÎŁÎ¥":2621,"ĠÎ¤ÎĹÎĿ":2622,"ĠÎ±ÏĢÎ¿Ïĥ":2623,"ĠÏĢÎ±Ïī":2624,"ĠÏĢÎ¬ÏģÎµÎ¹":2625,"ĠÎ±ÏģÏĩÎ¯Î¶ÎµÎ¹":2626,"ĠH":2627,"Î¯ÏĥÎµÎ¹":2628,"ÏĦÎ±Î¯":2629,"ĠÏģÎ¿Ïį":2630,"ÏĦÎ®ÏģÎ¹":2631,"Î¼ÎŃÏģÎ±":2632,"ÏīÏĥÎµÎ½":2633,"ĠÏĩÎ±Î¼Î¿Î³":2634,"ĠÎ´Î¹Î¬ÏĨÎ¿Ïģ":2635,"ĠÎ²Î¿Î·Î¸Î®":2636,"Î±ÏĦÏģ":2637,"Î²Î¿ÏĤ":2638,"ÎĿÎ©ÎĿ":2639,"ĠÎļÎ¿Î¹":2640,"ÎļÎŁÎ¥":2641,"ĠÎ¬Î»Î»ÎµÏĤ":2642,"194":2643,"ÎĸÎĻ":2644,"ĠÎŀÎŃÏģÎµÎ¹ÏĤ":2645,"ÏĦÏģÎ¹":2646,"ÎµÏĢÎµ":2647,"ÏĥÎ¿":2648,"ĠÎµÏĨÎ·Î¼Îµ":2649,"Î¬Î¶Ïī":2650,"ĠÏĨÏīÎ½Î®":2651,"Î¹Î¿Ïį":2652,"Î·ÏĥÎµ":2653,"ĠÎ¼Î¿ÏħÏĥ":2654,"ÎļÎ±Î¹":2655,"ĠÎºÎ±Îº":2656,"ĠÎ£ÎļÎĹÎĿÎĹ":2657,"ĠÏĦÏģÎ¯":2658,"ÏĥÏĢ":2659,"Î¼Î¼ÏĮ":2660,"Î¸Î¿Î½ÏĦÎ±Î¹":2661,"ÏĨÎ¿Ïħ":2662,"ĠÎ´Î·":2663,"ĠÎķÎ»Î±":2664,"ĠÎ±Î½Î¬Î³Îº":2665,"ĠÎ³ÎµÎ³Î¿Î½":2666,"ĠÎ³ÎµÎ½Î±Î¯ÎºÎ±":2667,"ed":2668,"ĠÎ¿ÏĢÎ¿Ïį":2669,"ĠÏĢÎ±ÏģÎŃ":2670,"ĠÎĵÎĻÎ©Î¡Îĵ":2671,"ĠÎµÎ¾Î±":2672,"ÏĢÎµÎ¶":2673,"ĠÏĪÎ¬":2674,"ĠÏĥÎºÎ·Î½Î®":2675,"ÎķÎ£Îł":2676,"ĠÎłÎŁÎĽÎ¥ÎĶÎķÎ¥ÎļÎĹÎ£":2677,"ÏģÎ®Î½Î·":2678,"ĠÏĨÎµÏįÎ³ÎµÎ¹":2679,"ÏĨÏīÎ½Î±":2680,"ic":2681,"Î´ÏģÎ¿Î¼":2682,"ĠÎĳÏĩ":2683,"ĠÎĵÎµ":2684,"ÎĵÎ¹Î±":2685,"ÏĢÎ¿ÏħÎ¼Îµ":2686,"ÎºÎ¬ÏĦÏī":2687,"ĠÎ¬Î»Î»Î¿Î¹":2688,"ÏħÎ½Î¿Î¼":2689,"ĠÏħÏĢÎµÏģ":2690,"ĠÎĳÎĿÎĿ":2691,"ĠÏĢÏģÎ¿ÏĥÏĢÎ±Î¸ÎµÎ¯":2692,"ÏħÎ¼Î±":2693,"Î´Ïİ":2694,"ĠÎŃÏģÏī":2695,"ĠÎ±ÏĢÎ¿Ïģ":2696,"ÏĥÏĦÎ¹ÎºÎ®":2697,"ĠÏĢÏģÏĮÏĥ":2698,"Î±ÏħÏĦ":2699,"Î¼ÏĮÏĤ":2700,"Î¸ÎµÏĤ":2701,"ÎĿÎ±":2702,"ĠÏĨÏīÏĤ":2703,"ÎļÎ±":2704,"ÏģÎ¯ÏīÎ½":2705,"ĠÎĶÎ¡":2706,"ĠÎĳÎ½Î´ÏģÎŃ":2707,"ÏĦÎ®ÏģÎ¹Î±":2708,"ÎŁÎĻÎĴ":2709,"ĠÎ¬Î½ÏĦÏģÎ±":2710,"ĠÏĢÎ±Î¹Î´Î¹Î¬":2711,"ĠÎłÎĳÎ¤ÎķÎ¡":2712,"ÏĨÎŃÏģÎ¿Î½":2713,"ĠÏĢÎ¿Î»Î»ÎŃÏĤ":2714,"ĠÎ¨":2715,"ÏģÎºÎ±":2716,"ÎºÏģÎ¹":2717,"ÎŃÎ»Î±":2718,"ĠÎļÎ¿Ïħ":2719,"ĠÎ¿ÏħÏģÎ±Î½":2720,"Î¼ÎŃÎ½ÏīÎ½":2721,"ĠÎĶÎ©":2722,"ĠÎµÎ¯Î½Î±Î¹Î·":2723,"Î±ÏĢÎŃ":2724,"Î¬ÏģÎ½Î±":2725,"Î¿ÏĩÏīÏģÎµÎ¯":2726,"ĠÎºÎ»ÎµÎ¯Î½ÎµÎ¹":2727,"Ġof":2728,"ĠÏĢÎµÎ¯":2729,"ĠÏĢÏĮÎ½":2730,"Î®ÏĦÎ·":2731,"ĠÎ¶Î·":2732,"ĠÎĮÏĩÎ¹":2733,"ĠÎ¼ÎµÏĦÎ±Î¾Ïį":2734,"ĠÏĦÏģÏİ":2735,"ĠÏĢÎ¿Ïĥ":2736,"Î´Î·Î¼":2737,"ĠÎ¿Î´Î·":2738,"ĠÎ¼Î±Ïį":2739,"ÏģÎµÏį":2740,"ĠÎŃÎ½Î½ÎµÎ½":2741,"ĠÎ±ÏħÏĦÏĮÏĤ":2742,"ÏįÏĢÏģÎ¿":2743,"ĠÎ¼ÏĮÎ½Î¿ÏĤ":2744,"ĠÎ´Î¹ÎºÎ±Î¹":2745,"ĠÏĥÏħÎ¼ÏĢÎµÎ¸":2746,"ĠÏĢÏģÏīÎ¯":2747,"Î¼Î¼Î±ÏĦÎ±":2748,"ĠÏĥÏĢÎ¿Ïħ":2749,"ÏİÏĥÎµÎ¹ÏĤ":2750,"ĠÎ³ÏħÏģ":2751,"ÏģÎ¬ÏĤ":2752,"ÎŃÎ½ÎµÎ¹Î±":2753,"ĠÏĥÎºÎŃÏĪ":2754,"ĠÎ±ÎºÏģÎ¹Î²ÏİÏĤ":2755,"ĠÎ³Î¹Îµ":2756,"ĠÏĢÏģÏĮÎ²Î»Î·Î¼Î±":2757,"ĠÎ´ÎµÎ¯ÏĩÎ½ÎµÎ¹":2758,"ĠÎ½ÏįÏĩÏĦÎ±":2759,"ÎµÎ³":2760,"ĠÎ¼ÏĢÎ¿Ïħ":2761,"ÏĩÎµÏĦÎ±Î¹":2762,"ÏĦÎ·ÎºÎ±":2763,"ĠÎķÎłÎķÎĻÎ£ÎŁÎĶ":2764,"ĠÎ¿ÏĦÎ¹":2765,"ĠÎ¦Î¿Î¯":2766,"ĠÎ´Î±Î¼Î±Î¯":2767,"ĠÎķÎ¯ÏĥÎ±Î¹":2768,"Î¹ÏĩÎ¬":2769,"Î¼Î¹Î¿":2770,"ĠÏĥÎµÎ¹":2771,"ÏħÏĥÎ·":2772,"ĠÎŃÎ¼ÎµÎ¹":2773,"ĠÎłÎ±Î½Î±Î³":2774,"ĠÎ£Î¤ÎķÎ¦ÎĳÎĿÎĹÎ£":2775,"ÎµÏģÏī":2776,"ÏĦÎ¹ÎºÏİÎ½":2777,"Ġ.(":2778,"ĠÎ¾Î±Î½Î¬":2779,"Î³ÏīÎ³Î®":2780,"ĠÎ±Î³Î±ÏĢÎ·":2781,"ĠÏĢÎµÏģÎ¹ÏĥÏĥÏĮ":2782,"ÎµÏĢÎµÎ¹":2783,"ĠÏĦÏħ":2784,"ÎºÏģ":2785,"ĠÏĥÎ¬":2786,"Î²Î¿Ïį":2787,"Î±ÏģÏĩ":2788,"Î¿ÎºÏģÎ±ÏĦ":2789,"ĠÎµÎ¾Ïī":2790,"ĠÎļÎ±Î»Î¬":2791,"ĠÎŃÏĥÏĥÏī":2792,"ĠÎ½ÎŃÎ±":2793,"ĠÎ§Î¡Î¥Î£ÎŁÎ£Î¤ÎŁÎľÎŁÎ¥":2794,"ĠÏĢÎµÎ»Î»":2795,"ÎĻÎļÎĳ":2796,"ĠÎ¬Î»Î»Î·Î½":2797,"ĠÏĦÎµÎ»Î¹ÎºÎ¬":2798,"ĠÎ£ÏħÎ½ÎŃÏĩÎµÎ¹Î±":2799,"Î±Î½ÏĦÎ¯":2800,"ÎºÎ±Î¼ÎµÎ½":2801,"ĠÎµÏĢÎŃ":2802,"ĠÎ¦ÎĽÎŁÎ¥Î¡ÎķÎĿÎ¤ÎĸÎŁÎ¥":2803,"ĠÏģÎ¬":2804,"ĠÏĢÎ¹Î¬Î½ÎµÎ¹":2805,"ÎµÏĦÎ¯Î±":2806,"ĠÎĺÎķÎŁÎĶÎ©":2807,"ĠÎłÎķÎ¤Î¡ÎŁÎ£":2808,"ĠÎĽÎ¿ÏħÏĥÎ·":2809,"ĠÎľÎ¹ÏĩÎ±Î·Î»Î¯":2810,"ion":2811,"ÎĬ":2812,"ÏĦÎ¿ÏĢ":2813,"Î´ÎŃ":2814,"ĠÎĪÎ½Î±":2815,"ĠÎºÎ¬ÏĢÎ¿Î¹Î¿Î½":2816,"ĠÎ±Î´ÎµÎ»":2817,"ĠÎ±Î¹ÏİÎ½Î±":2818,"ÏĥÏĥÎµ":2819,"Î¸ÎµÎ¯ÏĤ":2820,"Î²Î·":2821,"ĠÎ²Î¹":2822,"ĠÏĢÏģÎ¿Îº":2823,"ĠÏĢÎ±ÏģÎ¿Ïħ":2824,"ĠÏĢÎ¹ÏĥÏĦÎµÏį":2825,"ĠÏĦÏīÏģÎ±":2826,"ĠÎ¼Î¿ÏģÏĨ":2827,"Î¶Î¿Î½ÏĦÎ±Î¹":2828,"Î´ÏĮ":2829,"ĠÎ¿ÏģÎ³":2830,"Î¿ÏĥÏįÎ½Î·":2831,"ÎľÎķÎĽ":2832,"Î¼ÎµÎ½Î¿":2833,"ĠÎ¸ÎµÏīÏģ":2834,"ĠÎĵÎ¹Î±Î½":2835,"ÎµÏĢÎ¹":2836,"Î»ÎµÎ¹ÏĤ":2837,"Î¼Î¿Ïį":2838,"Î¼Î¹Ïĥ":2839,"ĠÎºÎµÎ¯":2840,"ĠÎŃÏĦÎ¿Î¹":2841,"ĠÎĳÎ»Î»Î±":2842,"Î¼ÎµÏģÎ¹Î½":2843,"ĠÎºÎ±Î¸Î·":2844,"ĠÏĦÎ¶Î±Î¹Î¿":2845,"ĠÎ®ÏģÏĦÎµÎ½":2846,"Î§ÎĳÎ¡":2847,"ĠÎļÏįÏĢÏģÎ¿ÏĤ":2848,"ĠÎļÎ±Î»Î·Î¼ÎŃÏģÎ±":2849,"ĠÏĥÏĦÏģÎ±ÏĦÎ¹":2850,"ĠÎľÏĢÎ¿ÏģÎµÎ¯":2851,"ĠÎ¦Î±Î½Î¿ÏįÎ»Î»Î±":2852,"ĠÎĽÎ¿ÏįÏĥÎ·":2853,"âĪ":2854,"ĠÏĨÎ¿Ïħ":2855,"ÎµÏħÎ¸":2856,"Î»ÎµÎº":2857,"Î»ÏĮÏħ":2858,"ÎľÎķÎĽÎĹÎ£":2859,"ÏĥÎ¿Î½":2860,"ĠÎºÎ»":2861,"ĠÎµÏį":2862,"ĠÎµÏħÏĦÏħÏĩ":2863,"ĠÎ´Î¬Îº":2864,"ÎŁÎ¥ÎĿ":2865,"ÎŃÏģÎµÎ¹":2866,"ĠÎ®Î¸ÎµÎ»":2867,"ĠÏĥÏĦÎ®":2868,"ing":2869,"ĠÎ½Î¿Î¼Î¯Î¶Ïī":2870,"ĠÏĥÏİÎ¼Î±Î½":2871,"el":2872,"Î¹Î¶":2873,"ÎºÎ»Î±":2874,"ĠÎ¼ÏīÏģÎ¬":2875,"ÏİÎ½ÎµÏĦÎ±Î¹":2876,"Î¿Î³ÏģÎ¬ÏĨ":2877,"Î»Î¯Î¿":2878,"Î¿ÏĩÏİ":2879,"ÏĦÎ¿ÏħÏģÎ³":2880,"ÎķÎĽÎŁÎ£":2881,"ĠÎ³Î¹Î¿ÏĤ":2882,"ĠÎ³Î»ÏİÏĥÏĥÎ±":2883,"ÎŁÎĻÎĴÎŁÎ£":2884,"Î¸ÎµÎ¹ÏĤ":2885,"ĠÎ´Î¬":2886,"ÏĦÎ¿Î¯":2887,"ĠÎ±ÏĢÎ»":2888,"ĠÎ»Î»ÏĮÏħ":2889,"ĠÎĿÎ¿Î¼":2890,"ĠÎ®Î´Î·":2891,"ÎµÏħÎ¸ÎµÏģ":2892,"ĠÏĮÏĦÎ¹Î¿":2893,"ĠÏĢÎ¹Î¿Î½":2894,"ĠÏĥÏĩÎŃÏĥÎ·":2895,"ĠD":2896,"ĠÏĦÏģÎ¹":2897,"ĠÏĦÏģÎ¬":2898,"Î¼Î¬Î½":2899,"ÎºÎ±ÏĤ":2900,"ÏĢÎµÏĤ":2901,"ĠÎµÏĥÎ¹ÎµÎ¹":2902,"ÏĦÎ¬Î½":2903,"ĠÎ¾ÎŃÎ½":2904,"ĠÎ¬Î»Î»Î¿ÏħÏĤ":2905,"ĠÎłÎĳÎ¥ÎĽÎŁÎ£":2906,"Ġh":2907,"ĠÏĢÎ·":2908,"ÏīÏģÎ³":2909,"Î¸ÏīÎ½":2910,"ĠÎ¤ÏīÏģÎ¬":2911,"ĠÎ±Î½Î¿Î¹":2912,"ĠÎŃÏĩÎ¿ÏħÎ¼Îµ":2913,"ÎĿÎĳÎĵ":2914,"ÏĥÏĦÎ±ÏĥÎ¹Î¬":2915,"ĠÎĮÏĦÎ±Î½":2916,"ĠÏĢÎ±ÏĢÎ¬ÏĤ":2917,"Î¸ÏīÏĤ":2918,"ĠÎķÏĨ":2919,"ĠÎłÎ¡ÎŁÎ£":2920,"ĠÎµÎ½Î·":2921,"ĠÎ¤ÏĮ":2922,"ĠÏĥÏħÎ½Î±":2923,"Ġ16":2924,"Î¸Î·ÎºÎµÎ½":2925,"ĠÎĮÏĢÏīÏĤ":2926,"ĠÎºÏģÎ¹":2927,"ĠÏĥÎ¹Ïī":2928,"ÏĩÏĦÎ¬":2929,"ĠÏĮÎ½Î¿Î¼Î±":2930,"ĠÎ´ÏīÎ¼Î¬ÏĦÎ¹Î¿":2931,"ĠÎºÎ±ÏģÎ´Î¹Î¬":2932,"ĠÏĮÏĥÎ¿":2933,"ĠÎ£ÎĳÎĴÎĻÎĿÎĳ":2934,"ĠÏĢÎ·Î³":2935,"Î¼Î±ÏĥÏĦÎµÎ½":2936,"ĠÎµÎ¯ÏĥÎµÎ½":2937,"ĠÎ§Î©":2938,"ĠÎĮÏĦÎ¹":2939,"ÏĨÎ¿ÏģÎ¬":2940,"Î³Î±Î¯Î½ÎµÎ¹":2941,"ĠÎ»ÎŃÎµÎ¹":2942,"ĠÏĢÏģÏĮÏĥÏīÏĢÎ¿":2943,"ÎºÎ¿ÏħÎ½":2944,"ĠÎµÏĩÏī":2945,"Î³Î¿ÏħÎ½":2946,"ÎŁÎ¡":2947,"ĠÎŃÎ»Îµ":2948,"ĠÎ¤Îĸ":2949,"ĠÏĥÏħÎ³":2950,"Î¡Î¥Î£Î¤ÎĳÎĽ":2951,"ĠÏĢÎ±ÏģÎ±ÏĢÎ¬Î½Ïī":2952,"ĠÎ´Î·Î¼Î¿ÏĥÎ¹":2953,"ĠÏĦÏģÏĮÏĢÎ¿":2954,"ÎŁÎĺÎĹ":2955,"21":2956,"Î±Î¯Î½":2957,"ĠÎµÎ¯Î½ÏĦÎ±":2958,"ĠÎ±Î¹Ïĥ":2959,"ĠÎ´Î¹ÎºÏĮ":2960,"ĠÎ¼ÎµÏģ":2961,"ĠÎļÏīÎ½ÏĥÏĦÎ±Î½":2962,"ÏĢÎ±Ïģ":2963,"Î¹Î½Î¬":2964,"Î´Î¹Î±Î¯":2965,"ÎºÎµÎ¹ÏĦÎ±Î¹":2966,"ĠÏĦÎ¶ÎµÎ¯Î½Î¿Î½":2967,"ĠÎľÎĳÎ¡ÎĻÎĳ":2968,"ĠÎĳÎĽÎķÎŀÎĳÎĿ":2969,"ĠÎºÏħÏĢÏģÎ¹Î±ÎºÎ®":2970,"ÏİÏĥÏĦÎ±ÏĤ":2971,"ĠÎĵÎĻÎ©Î¡ÎĵÎŁÎ¥":2972,"Ìĩ":2973,"ÏĦÎ¯Î½":2974,"ÏĢÎµÏģ":2975,"ĠÎºÏģÎ¯":2976,"ÎĳÎł":2977,"Î¥ÎĳÎļÎĻÎĿÎĺÎŁÎ£":2978,"ĠÎ§Î¡ÎŁÎĿ":2979,"Î¿Î¯ÏĦÎ±":2980,"ĠÏĩÎ±ÏģÎ±Îº":2981,"and":2982,"ĠÎºÎ±Î¼Î¹Î¬":2983,"ĠÏĥÏħÎ»Î»Î¿Î³Î®":2984,"Î¿ÏħÎ»Î¯Î¿Ïħ":2985,"ĠÎ¼Î¿Î¹":2986,"ĠÎłÏīÏĤ":2987,"ÏĥÎ¹Îµ":2988,"ĠÏĥÏĦÎ¿Î¹Ïĩ":2989,"ĠÎ¾Î±Î½":2990,"Ġ14":2991,"ĠÏĩÏīÏģÎ¹":2992,"ĠÎºÎ±Î¸Î±":2993,"ĠÎķÎ¹ÏģÎ®Î½Î·":2994,"ĠÎĽÎĳÎľÎłÎ¡":2995,"ĠÎ±Î³Î±ÏĢÎ¬":2996,"Î¡Î¥Î£Î¤ÎĳÎĽÎĽÎĳ":2997,"ĠÎ¼Î¼Î¬":2998,"ÏĦÎ±ÏĥÎ·":2999,"ÎµÎ¯Î±ÏĤ":3000,"ĠÎłÎ¿Î»Ïį":3001,"ĠÎ¹ÏĥÏĦÎ¿ÏģÎ¯Î±":3002,"ĠÎºÏģÎµÎ²Î¬ÏĦÎ¹":3003,")...":3004,"Î½ÏĮ":3005,"ÏĢÎ®":3006,"ÎĻÎĶ":3007,"ÎķÎĿÎ¤":3008,"ĠÎ¤Î¯":3009,"ÏīÎ½Î¯Î±":3010,"ĠÎ³Î¹Î±ÏĦÎ¹":3011,"Î¼ÎŃÎ½Î¿Ïħ":3012,"ĠÏģÎ±":3013,"ĠÏĥÎ¹Î³Î¬":3014,"ĠÎļÎ±ÏģÎ¬Î³Î¹ÏīÏģÎºÎ·":3015,"ĠÎ²ÏģÎ¯ÏĥÎºÎµÏĦÎ±Î¹":3016,"ĠÎ²Î³Î¬Î¶ÎµÎ¹":3017,"ĠÎ½Î¿Ïĥ":3018,"Î¹ÎºÎ·":3019,"Î¤ÎŁÎ£":3020,"ĠÎķÎĻÎ¡":3021,"ĠÎŃÏĥÎµÎ¹":3022,"ĠÎļÏħÏĢ":3023,"Î±Î»Îµ":3024,"ÏģÎ¯Î´Î·ÏĤ":3025,"ÎĹÎ£ÎĹ":3026,"Î¿ÏĥÏĦÎ¿":3027,"Ġ10":3028,"Î»ÎŃÎ¿Î½":3029,"ĠÎĻÏī":3030,"ÏĢÎ¿Î¹Î¿ÏĤ":3031,"âĢ":3032,"ĠÎºÏģÎ¬":3033,"ĠÎµÏĥÏĦ":3034,"Î¹ÎºÎ¿Î¯":3035,"ĠÎ³ÎŃÏģ":3036,"ĠÎ¾Î±ÏĢ":3037,"ÏĥÎµÏīÎ½":3038,"ÏĦÎ®ÏĥÏī":3039,"ĠÎķÏĢÎ®":3040,"ĠÎłÎ¿Î¹Î¿ÏĤ":3041,"ĠÎĺÎķÎŁÎĶÎ©Î¡ÎŁÎ£":3042,"ÏĥÏħÎ½":3043,"ĠÎĳÏħ":3044,"ĠÎµÎ¯Î¼Î±ÏĥÏĦÎµ":3045,"ÏĦÏĥÎ¹Î½":3046,"193":3047,"ÏĮÎ»Î¿Î¹":3048,"ÏģÎ¯Î¶Î¿ÏħÎ½":3049,"ÎŁÎĺÎĹÎļÎĹ":3050,"Î¼ÎŃÎ»ÎµÎ¹Î±":3051,"ÏĨÎ®":3052,"ĠÎ³ÎµÎ¹":3053,"Î¯Î½Î·ÏĥÎ·":3054,"ĠÎ»Î¿Î¹ÏĢÏĮÎ½":3055,"Ġ12":3056,"ÏĥÎºÎµÏħ":3057,"ĠÎµÎ¾Î·Î³":3058,"ĠÎĳÎ½Î±ÏĥÏĦÎ±ÏĥÎ¹Î¬":3059,"ĠÎ±ÏħÏĦÎ¿ÎºÎ¯Î½Î·ÏĦÎ¿":3060,"Î»Î¿Ïį":3061,"ÏĥÎ®":3062,"ĠÎºÎ¿Îº":3063,"Î´Î±Î½":3064,"ÎĽÎĻÎĳ":3065,"ÎĿÎŁÎĶÎ©":3066,"ĠÎľÏĮÎ½":3067,"ĠÎ±ÏĢÎ»Î¬":3068,"ĠÏĢÎ±ÏĦ":3069,"ĠÎ¦ÎŁÎĻÎĴÎŁÎ£":3070,"Î§ÎĿ":3071,"ĠÎĳÎ½Î½":3072,"ĠÎ¶ÏīÎ½":3073,"ÏĦÎ®ÏĥÎµÎ¹ÏĤ":3074,"ĠÎ¼Î¬Î»Î¹ÏĥÏĦÎ±":3075,"ÎĺÎķ":3076,"ĠÎ¼Î·ÏĦÎŃÏģÎ±":3077,"Î±ÏĨÎ½Î¹ÎºÎ¬":3078,"Î¹Î¹":3079,"ÏĥÏį":3080,"Î±Î»Î¯":3081,"ĠÏĮÎ½ÎµÎ¹":3082,"Î¿ÏģÎ±":3083,"ÏģÎ¯ÎµÏĤ":3084,"ÎºÎ±Ïģ":3085,"ĠÎºÎ±Î»ÏĮÎ½":3086,"ĠÏİÏģÎµÏĤ":3087,"Î·ÏĥÏħÏĩ":3088,"ĠÎ£Î¤ÎŁ":3089,"ĠÎ¸Î¬Î½Î±":3090,"ĠÎ´ÏģÏĮÎ¼Î¿":3091,"ĠÎ¼ÏīÏģ":3092,"ĠÎµÏĩÎµÎ¹":3093,"Î¹ÎºÎ¿ÏįÏĤ":3094,"ĠÎĳÏĢÎ¿":3095,"ÎĴÎŁÎ¥ÎĽÎĳ":3096,"ĠÎºÎ±Î»Î¿":3097,"Î¼ÎŃÏĥÏīÏĤ":3098,"ĠÎŃÎºÎ±Î¼Î±":3099,"1960":3100,"ĠÎľÎ¿Ïħ":3101,"Î©Î£":3102,"ĠÎĽÎŁÎĵ":3103,"ĠÏĥÏĦÏĮ":3104,"Î¼Î¬ÏĤ":3105,"ĠÏĢÏģÎ¿ÏĥÏīÏĢ":3106,"ĠÏĢÏģÏİÏĦÎ¿":3107,"ĠÎµÎ¼ÏĨÎ±Î½":3108,"ĠÏĦÏģÎ±Î³Î¿ÏįÎ´Î¹":3109,"Î¹ÏĦÎ¹":3110,"Î¼Ïī":3111,"ÏĢÎ¹Ïĥ":3112,"ÏĩÎ¿ÏħÎ½":3113,"ĠÎľÎŃ":3114,"ÎļÎ¬":3115,"ÏģÏİÏĦÎ·":3116,"Î³ÏīÎ³":3117,"ĠÎ¬Î½Î¸ÏģÏī":3118,"ĠÎºÏģÎ±ÏĦÏİÎ½ÏĦÎ±ÏĤ":3119,"LO":3120,"ÏĥÏĮ":3121,"ĠÏĥÎŃÎ½Î±":3122,"ĠÎłÏģ":3123,"Î¾Î¯":3124,"Î¾Î¿ÏħÎ½":3125,"Î¬Î½Î´":3126,"ÏĥÎ¹Î¼":3127,"ĠÎ³Î¹Î±Î³Î¹Î¬":3128,"ĠÏĢÎ±ÏĢÎ±":3129,"ĠÎ±Î½ÏĦÎ±":3130,"ÏĢÏģÎ¹Î±ÎºÎ¬":3131,"ĠÏħÏĢÎ¿ÏħÏģÎ³":3132,"ĠÎºÎ±Î»Ïį":3133,"ĠÏĦÎ¿ÏįÏĦÎ¿ÏĤ":3134,"ĠÏħÏĢÎ¿Ïĥ":3135,"ĠÎĳÎłÎŁÎĺÎĹÎļÎĹ":3136,"Î¹Î¼Î±":3137,"ĠÎŃÎºÎ±Î½":3138,"Î²Î¯":3139,"ĠÎ¿Î»ÏĮ":3140,"ÎłÎ±ÏĢ":3141,"ĠÏĢÎ¬Î½ÏĦÏīÎ½":3142,"ĠÎºÎ±Î½Î±ÏĢÎŃ":3143,"ÎµÏĢÎ¹Ïĥ":3144,"ĠÎķÎ¯Î¼Î±Î¹":3145,"ĠÎ¥ÎłÎĿÎŁÎĶÎ©":3146,"ÏĥÏĦÏģÎŃÏĨ":3147,"ĠÏģÎ¿ÏįÏĩÎ±":3148,"Î·Î·":3149,"ĠÎºÎ¿Ïį":3150,"ÎŃÏĦÎ±Î¹":3151,"Î¾Î·ÏĤ":3152,"ĠÎ»ÎµÏĤ":3153,"ÏĢÎ±ÏģÎ±":3154,"ĠÎĽÎ¿Î¹ÏĢÏĮÎ½":3155,"ĠÏĥÏĦÏĮÎ¼Î±":3156,"ĠÎ´Î¹Î±Î²Î±":3157,"Ġ199":3158,"ĠÏĢÏģÎ¿Î·Î³":3159,"ĠÎ¬Î½Î¸ÏģÏīÏĢÎ¿ÏĤ":3160,"Ġto":3161,"ÎŃÎ½Î±Î½ÏĦÎ¹":3162,"Î¹ÏĤ":3163,"ÎºÎ¿ÏĢ":3164,"Î´ÏģÏħ":3165,"ÎµÎ½ÏĦÏģ":3166,"ĠÏĦÎ¿Î¯Ïĩ":3167,"ĠÎļÎ±Î½":3168,"ĠÎ»ÎµÎ¹":3169,"ÎľÎµ":3170,"ĠÎĽÎ±Î»":3171,"ÏģÎºÎ¿Îº":3172,"ÎĿÎĳÎĵÎĻÎ©":3173,"Î¹ÏĮ":3174,"Î¹Î±ÏĤ":3175,"ĠÎ³Î·":3176,"ĠÎłÎ±Ïģ":3177,"ĠÎµÎ½ÏĦÎ¬Î¾ÎµÎ¹":3178,"ĠÎĶÎķÎ£Îł":3179,"ĠÎ¼Î±Î¸Î·":3180,"ÎķÎ¤Î¤Îĳ":3181,"Î»Î¿Î³ÎŃÏĤ":3182,"ÎµÎ´Ïİ":3183,"ĠÎ¿Î¹ÎºÎ¿Î½Î¿Î¼":3184,"ĠÎ´ÏįÎ½Î±":3185,"Î»Î¹Î½":3186,"ĠÎºÏģÏį":3187,"ÎŃÏģÎ¹Î½":3188,"ĠÎµÎ½Î±":3189,"ÎĽÎĻ":3190,"ĠÎķÎ¯Î½ÏĦÎ±":3191,"ĠÎ¬Î´":3192,"Î¡ÎĳÎĶÎ¥":3193,"ĠÎ¾ÎµÎ½":3194,"ĠÏĥÏĦÎŃÎº":3195,"ĠÎºÎ±Î½Î¿Î½":3196,"ĠÏĥÏĢÎ¯ÏĦÎ¹Î½":3197,"ÏĨÎŃÏģÎµÎ¹":3198,"ĠÎ³Î¯Î½":3199,"ĠÎļÎ¥Îł":3200,"ÎŃÎ½Î·":3201,"ĠÎºÎ¬ÏĦ":3202,"ĠÎĶÎĹÎľ":3203,"Î¼Î¬ÏĥÎ±Î¹":3204,"ĠÎĪÎ½":3205,"ÎµÏħÎºÏīÏĥÎ¯Î±ÏĤ":3206,"ĠÏĢÎ»ÎµÏħ":3207,"Î¸ÎµÏģÎµ":3208,"ĠÎķÏĥÏį":3209,"ĠÎ½ÎµÏģÏĮ":3210,"ĠÎ¿Î´Î·Î³":3211,"Ġin":3212,"Î»Î±ÏĤ":3213,"ĠÏĨÏĮ":3214,"ÏģÎ¬Î¶ÎµÎ¹":3215,"ĠÏĮÎ¼Î¿ÏģÏĨ":3216,"ĠÎºÎ±ÏģÎŃ":3217,"ĠÎ±Î½ÏĦÎ¹Îº":3218,"Î¹Î½Î®":3219,"ÏģÎºÎ¿":3220,"ĠÏĥÏĩÎµ":3221,"Î²Î¿Î»Î®":3222,"ĠÎ¿ÏĢÎ¿Î¯Î¿ÏĤ":3223,"ĠÏĦÎ¯ÏĢÎ¿ÏĦÎ±":3224,"ĠÎĽÎĳÎľÎłÎ¡ÎĻÎĿÎĹ":3225,"ÎŃÏģÎºÎ±":3226,"ÏĦÏģÎµÏĤ":3227,"ÎĳÎĿÎ¤Î¡ÎŁÎ¥ÎĽÎĽÎĳ":3228,"Î¡ÎĻÎ£Î¤ÎĹÎ£":3229,"ÎŃÎ½Î±ÏĤ":3230,"ĠÎºÎ¿ÏĢÎµ":3231,"ÏĢÏīÎ½":3232,"ĠÎ¼ÎµÎ¹":3233,"ĠÎ¼ÎµÎ¯":3234,"ĠÎºÎ»ÎŃ":3235,"ÏħÏĢÏģÎ¹Î±Îº":3236,"Î³Î±Î½":3237,"ĠÎ½Î·Ïĥ":3238,"Î¤ÎĹ":3239,"ÏĥÎ¹ÎµÎ½":3240,"ĠÎ±Î½Î·ÏĥÏħÏĩ":3241,"Ġ193":3242,"ĠÏĦÏģÎ¯Î±":3243,"Î¿ÎµÎ»Î»Î·Î½":3244,"ĠÎµÏĦÏĥÎ¹":3245,"Î¿ÏįÎ»Î»":3246,"ĠÎŃÎ´Ïī":3247,"ÎµÏħÏĥÎ·":3248,"Î¡ÎĳÎ¤ÎĹÎ£":3249,"ĠÎĻÏĥÏĦÎ¿Ïģ":3250,"ÏĢÎ¯ÏĥÎº":3251,"ĠÎµÏħÎºÎ±Î¹":3252,"Î½ÏİÏģÎ¹":3253,"Î¡ÎķÎĳÎ£":3254,"ĠÎ£Î¤Î¡ÎĳÎ¤":3255,"Î¿ÏĪÎ·":3256,"ÎºÎ¿Î»Î¿ÏħÎ¸ÎµÎ¯":3257,"Î¬Î´Î±":3258,"Î¼Î®Î½":3259,"ÏĢÏĦÏī":3260,"ĠÎĳÎ»ÎµÎ¾":3261,"ÏĦÎ¹ÏĤ":3262,"ĠÎłÎŁÎĻ":3263,"ÏģÎ¯ÏĥÎµÎ¹":3264,"ĠÎ±Î½Î¬Î¼ÎµÏĥÎ±":3265,"ĠÏįÏĨÎ¿ÏĤ":3266,"ĠÎ¼Î±Î¶Î¯Î½":3267,"ĠÎĳÎĽÎķÎŀÎĳÎĿÎĶÎ¡Îĳ":3268,"om":3269,"Î¿ÏħÎ»Î®":3270,"ÏĮÎ½Î±":3271,"ĠÎ±Î¾Î¹":3272,"Î®Î¼Î±":3273,"ĠÎ¤ÎŃÎ»Î¿ÏĤ":3274,"Î¿Î»Î¯":3275,"Î¼ÎŃÎ½Î¿ÏħÏĤ":3276,"ĠÎ·ÏĦÎ±Î½":3277,"ÏīÏĥÏĦÎ¿":3278,"ĠÏĩÏģÎµÎ¹":3279,"ĠÎŃÏģÏĦÎµÎ¹":3280,"ĠÎ²Î±ÏĥÎ¹Î»Î¹Î¬":3281,"ÏĥÎºÎ±":3282,"Î¯ÏīÎ½":3283,"Î£ÎĳÎĴ":3284,"Î´ÏħÎ½":3285,"ÏĦÎ±Îº":3286,"Î¤Î±":3287,"ĠÎķÎ»Î»Î·Î½":3288,"ĠÎľÎ·":3289,"ÏĥÏĦÏİ":3290,"ĠÏĥÏħÏĩ":3291,"ĠÏĥÏĦÎµÎ½":3292,"ĠÎŃÎºÎ±Î¼ÎµÏĤ":3293,"ĠÏĥÎ·Î¼ÎµÎ¹":3294,"ĠÎ¼Î¹ÎºÏģÏĮ":3295,"ĠÎ¿Î¹ÎºÎ¿Î³ÎŃÎ½ÎµÎ¹Î±":3296,"ÏĦÎ¿Ïĥ":3297,"ĠÎ³ÏħÎ¼":3298,"ÏĦÎµÏĦÎ±Î¹":3299,"ĠÎŃÏģÏĩÎµÏĦÎ±Î¹":3300,"ĠÎ£Îķ":3301,"ĠÎºÎ±ÏģÎº":3302,"ĠÎ±Î½Î®":3303,"ĠÎ¬Ïģ":3304,"Î¹ÏĥÎ¼ÎŃÎ½Î·":3305,"ĠÎĽÎ¬ÏģÎ½Î±":3306,"ĠÏĢÎµÎ¸":3307,"ÏģÎ·ÏĥÎ·":3308,"Î¹Î±ÎºÎ®":3309,"ĠÏĩÏģÏĮÎ½Î¿":3310,"ĠÎºÎ±ÏĦÎ¬ÏĥÏĦÎ±ÏĥÎ·":3311,"ĠÎ´ÏįÏĥÎºÎ¿Î»":3312,"ĠÎºÎ»Î±Î¯":3313,"ĠÎ¥ÎłÎĿÎŁÎĶÎ©ÎľÎĳÎ¤ÎĻÎŁ":3314,"ÏĦÎ¿ÏĢÎ¿Î¹":3315,"ĠÎ´ÏģÎ¬":3316,"ĠÎ¸ÎµÎ¯Î±":3317,"ĠÎ±ÏĢÎŃÎ½Î±Î½ÏĦÎ¹":3318,"ĠÎ£Î±":3319,"ĠÎĿÎĻÎļÎŁÎ£":3320,"ÏĢÎ·ÏģÎµ":3321,"ĠÎ´Î¹ÏĢ":3322,"ĠÎºÎ¿Î»Î»":3323,"Î·ÏĥÎ±":3324,"Î´Î¹Î½":3325,"Î²Î®":3326,"Î¸Î·ÎºÎ±Î½":3327,"ÎķÎ¥ÎľÎĳ":3328,"ĠÎĿÎķÎŁ":3329,"ĠÎ¸ÏīÏģÏİ":3330,"ÎŃÎ²Î±Î¹Î±":3331,"ÏĥÎ¿ÏĤ":3332,"Î¼Ïİ":3333,"ÎĿÎĹÎ£":3334,"ĠÏĩÏģÏħÏĥ":3335,"ÏĦÎ¹ÎºÏĮÎ½":3336,"ĠÎµÎ¹Î´":3337,"ÏīÏĥÏĦÎ¬":3338,"ĠÏħÏĢÏĮÎ»Î¿Î¹":3339,"ĠÎºÏĮÏĨ":3340,"ĠÎºÏħÎ²ÎŃÏģ":3341,"ĠÎ¶ÏīÎ®Î½":3342,"ĠÏĢÎ»Î·ÏĥÎ¹Î¬Î¶ÎµÎ¹":3343,"ĠÎ±Î³Î¬ÏĢ":3344,"ĠÎłÎŁÎĻÎĹÎ£ÎĹ":3345,"ÏĥÎ¯ÎµÏĤ":3346,"ĠÎ´ÎŃÎ½":3347,"ĠÎ´Î¿Îº":3348,"ĠÎŃÎ¾":3349,"ĠÎłÎŃ":3350,"ĠÎ±ÏĢÎ¿ÏĩÏīÏģÎµÎ¯":3351,"ĠÎ£ÏħÎ³":3352,"ÎļÎĳ":3353,"ĠÏĦÎ±ÏħÏĦÏĮ":3354,"ĠÎ»Î¿":3355,"ĠÎ¬Îº":3356,"Ġ13":3357,"ĠÎ¡Î¯":3358,"Î¸ÏīÎ¼Î±Î½":3359,"ÎŃÎºÎ±":3360,"ĠÎ±Î»Î·":3361,"Î¶ÎµÎ¹ÏĤ":3362,"ĠÎ´ÎµÏį":3363,"ĠÎķÎ¼":3364,"ĠÎµÎ½Î¿":3365,"ĠÏĮÏĥÎ±":3366,"ĠÎ±Î½Î¿Î¯":3367,"ÎĽÎĳÎ£":3368,"Î½Î¿Î¹Î±":3369,"ĠÏĢÏģÎ¬Î¼Î±Î½":3370,"ĠÏĢÏģÎ¬Î³Î¼Î±ÏĦÎ±":3371,"ĠÎŃÎºÎ±Î¼ÎµÎ½":3372,"ĠÏĮÏĥÎ¿Î½":3373,"ge":3374,"á¾":3375,"ĠÎ±Î»":3376,"ĠÎ½Î¿":3377,"ĠÎķÏĥÎ¹ÎµÎ¹":3378,"ĠÎĳÏħÏĦ":3379,"ĠÎĳÎ¼Î¼Î¬":3380,"ÎļÎĳÎ£":3381,"ĠÎĶÎ¹Î±":3382,"ĠÎĶÎĻÎĳ":3383,"ĠÎĽÎµÏħÎºÏīÏĥÎ¯Î±ÏĤ":3384,"ĠÏĪÎŃ":3385,"ĠÎķÎ¥Îĳ":3386,"ĠÎµÏĢÎ¯ÏĥÎ·ÏĤ":3387,"ĠÎłÎµÏĦÏģÎ®":3388,"ĠÎļÎ¥ÎłÎ¡ÎĻÎĳ":3389,"Î½ÏİÎ½":3390,"ÎµÎ»Î±":3391,"ÎµÎ³Ïī":3392,"ÎµÎ¯Î½Î±":3393,"ĠÎ¬Î³":3394,"ĠÎĿÎ¹ÎºÎ¿Î»":3395,"ÏĮÏĥÎµÏĤ":3396,"ĠÎ¼Î±Î»Î»Î¹Î¬":3397,"ĠÎ·Î»Î¹Îº":3398,"Î»Î¹Î¿ÏĤ":3399,"ĠÎ¼Î¹Î»":3400,"ĠÏĢÏģÎ¿ÏĥÏĢÎ¬":3401,"ĠÏĨÎ¿ÏģÎ¬Î½":3402,"Î¬Î¶Î¿ÏħÎ½":3403,"ÏĩÎ¹ÏĥÏĦÎ¿Î½":3404,"ĠÎºÏĮÏĥÎ¼Î¿Ïħ":3405,"ĠÎ»ÏĮÎ³Î¹Î±":3406,"ĠÎĿÎķÎĳ":3407,"ĠÎĽÎŁÎĵÎŁÎ¤Îķ":3408,"á¾½":3409,"ĠÏĢÎ»ÎŃÎ¿Î½":3410,"ĠÎ¼ÎŃÎ½ÎµÎ¹":3411,"ÎĳÏĢ":3412,"ĠÎ»ÎµÏĨ":3413,"ĠÏĢÏģÎ¿Ïĩ":3414,"ĠÎ±Î½ÏĦÎŃ":3415,"Î¼Î¬ÏĦÎ±Î¹":3416,"ÎĳÎ¡ÎĻÎ£Î¤":3417,"ÎŁÎĻÎĿÎĳ":3418,"ĠÎ»Î±Î»Î¿ÏįÎ½":3419,"ÎĳÎĿÎĻÎļ":3420,"ĠÏĦÎ¶ÎµÎ¯Î½Î¿ÏĤ":3421,"ĠÎ»ÏĮÎ³Î¿":3422,"ÎĳÎĿÎĳÎ¤ÎŁÎĽ":3423,"ĠÏĥÏĩÎµÎ´ÏĮÎ½":3424,"ĠÎĳÎĿÎĿÎķÎ¤Î¤Îĳ":3425,"ĠV":3426,"ÏĢÎŃÏģÎ±":3427,"ÎŃÏĦÎ±":3428,"ĠÏĥÏĦÎµÏĤ":3429,"ÎŁÎ¹":3430,"ĠÎ½ÎµÎº":3431,"ÏģÎ±Î¯Î±":3432,"ĠÎ´ÎµÏħ":3433,"ÏĦÎ·ÎºÎµ":3434,"ĠÎ²Î±Ïĥ":3435,"ÎĹÎ£ÎĻÎĳ":3436,"ĠÏĢÏĮÏĦÎµ":3437,"Î¿Î´ÏĮ":3438,"Î¼Î¹Î¬Î½":3439,"Î¤ÎķÎ¡ÎĻÎļÎŁÎĻ":3440,"ĠÎŃÏĨÏħ":3441,"ĠÏĢÎ¿Î¯Î·ÏĥÎ·":3442,"Î¿Î½Î¯ÎºÎ·":3443,"ÎŁÎłÎĹ":3444,"ÎĻÎ£ÎĺÎĹÎ£ÎĻÎĳ":3445,"ĠÎļÎŁÎĻÎĿÎ©ÎĿ":3446,"ÎĻÎ£ÎľÎŁÎĻ":3447,"ĠÎłÎ¡ÎŁÎ£ÎĳÎĿÎĳÎ¤ÎŁÎĽ":3448,"Î§ÎĿÎĻÎĳÎ£":3449,"ĠÎĿÎķÎŁÎ¤ÎķÎ¡ÎĻÎļÎŁÎĻ":3450,"ĠÎķÎ¥ÎĳÎĻÎ£ÎĺÎĹÎ£ÎĻÎĳ":3451,"ĠÎĽÎŁÎĵÎŁÎ¤ÎķÎ§ÎĿÎĻÎĳÎ£":3452,"ÎĳÎĿÎĻÎļÎļÎŁÎ£":3453,"ĠÎļÎŁÎĻÎĿÎ©ÎĿÎĻÎļÎŁÎĻ":3454,"ĠÎłÎ¡ÎŁÎ£ÎĳÎĿÎĳÎ¤ÎŁÎĽÎĻÎ£ÎľÎŁÎĻ":3455,"ÎµÎ¹Î·":3456,"ĠÎµÎ»Î±":3457,"ĠÎķÎ»Î»Î¬":3458,"ÏĦÎ¿Î¼":3459,"ĠÎļÏħÏģ":3460,"ĠÎ¤ÏģÎ±":3461,"ÏİÎ½Ïī":3462,"Î¼ÏĢÎ¿Ïģ":3463,"ĠÎ¹Î´Î¹Î±Î¯":3464,"ÏĦÎ¶Î·":3465,"ĠÎºÎ±Î¸ÏĮÎ»Î¿Ïħ":3466,"ÏĦÎ¶Î¹Î±Î¹":3467,"ĠÏĢÎµÏģÏĢÎ±":3468,"ĠÎ±ÏģÎŃÏĥÎºÎµÎ¹":3469,"LOC":3470,"ĠÏĢÎ¿ÏįÎ¼Îµ":3471,"ĠÎ¼Î¿Ïį":3472,"ÎŁÎ¡ÎĳÎ£":3473,"Î¶Î¹Î½":3474,"Î®Î¸Î·ÎºÎµ":3475,"ÏĦÎ¹Î±Î½":3476,"ÏĥÏĦÏī":3477,"Î»Î±Îº":3478,"ÎĹÎ£Î¥":3479,"ĠÎ¾ÎµÏģ":3480,"Î¿ÏħÎ»Î®ÏĤ":3481,"Î¯ÎºÎ¿ÏĤ":3482,"ÏįÏĢÏģÎ¹Î¿Î¹":3483,"ĠÎ§Î¡ÎŁÎĿÎĻÎĳ":3484,"AS":3485,"ĠÎµÎ¼ÎŃÎ½Î±":3486,"ĠÎ´ÏģÎ±":3487,"ĠÎ´Î¹ÎºÎ¬":3488,"ĠÎķÎ½ÏĦÎ¬Î¾ÎµÎ¹":3489,"ÎĸÎķÎĻ":3490,"Î¬ÎºÎ¹Î½":3491,"ĠÎµÏĢÎ®Î±":3492,"ĠÎ¼Î¹ÎºÏģÎ®":3493,"ĠÎ¯Î´Î¹Î¿ÏĤ":3494,"Î´Î¿ÏħÏĤ":3495,"ÏĩÎµÎ¯":3496,"ĠÏĢÏģÎµÏĢÎµÎ¹":3497,"ĠÎµÏĢÎ±Î½":3498,"ĠÎ®Î²":3499,"ĠÏĢÎ¬ÏģÏī":3500,"ĠÏİÏĥÏĢÎ¿Ïħ":3501,"ĠÎ±ÏģÎ³Î¬":3502,"Î£ÎĳÎļÎĹÎ£":3503,"ĠÎ¼Î¼Î¬Î¸ÎºÎ¹Î±":3504,"ÏĥÎ¹Î¼Î¿ÏĢÎ¿Î¹":3505,"26":3506,"Î¯ÏĥÏī":3507,"Î¸Î¹Î½":3508,"ĠÎ´Î¹Î¿":3509,"ĠÎŃÎ½ÎµÎ¹":3510,"ÏĮÎ½Î¹Î±":3511,"ÎĵÎķÎĿÎĻÎĳ":3512,"ĠÎ¬Ïĥ":3513,"ĠÎµÏĢÏĮÎ¼ÎµÎ½":3514,"ÎµÏħÎ³ÎµÎ¹":3515,"ĠÎ§Î¡ÎĻÎ£Î¤":3516,"ĠÏĥÏĦÎ¯Ïĩ":3517,"200":3518,"ĠÎºÏģÎ±ÏĦÎ¬ÎµÎ¹":3519,"ĠÎ²Î»ÎŃÏĢ":3520,"ÏģÎ¿ÏĨÎ¿Ïģ":3521,"ĠÎ²Î¹Î²Î»Î¯Î¿":3522,"ĠÎºÎ±Î»Î»ÏįÏĦ":3523,"ĠÏĢÎµÏģÎ¬ÏĥÎµÎ¹":3524,"(-":3525,"Î¼Î¼Î±Î½":3526,"Î¿Î½ÏĦÎ±Î½":3527,"Î´ÎµÏħ":3528,"ĠÎķÎł":3529,"ĠÎ»Î¿Ïħ":3530,"ĠÎ¦Ïī":3531,"Î»Î¬ÏĩÎ¹ÏĥÏĦÎ¿Î½":3532,"ĠÎºÎ¬Î¼Î¿ÏħÎ¼Îµ":3533,"ĠÎ±ÏĨÎ®Î½":3534,"ÎŁÎĿÎĻÎļÎĹ":3535,"Î¬ÏģÎ¿ÏĤ":3536,"Î»Î»Î·Î½ÎµÏĤ":3537,"ÎľÎĻÎ¡ÎĹÎ£":3538,"ÏģÎ¿Î¯":3539,"ĠÎµÏħÏģÏİ":3540,"Î¿Î½Î¿":3541,"ÏįÎ½ÎµÎ¹":3542,"ĠÎºÎ±Î¹ÏģÏĮ":3543,"ĠÎļÎ±Ïģ":3544,"ĠÏĦÎ¶Î±Î¹ÏģÏĮÎ½":3545,"ĠÎºÎ¬ÏĢÎ¿Ïħ":3546,"ĠÎĶÎĹÎ£Î¥":3547,"Î§ÎŁÎ£":3548,"ÎĻÎļÎĽÎķ":3549,"ÏĥÏĦÎ·Î¼Î±":3550,"ĠÎŃÎ½ÏĦÎ¿Î½":3551,"ĠÏİÏĤ":3552,"ĠÎºÏģÎ±ÏĦÎ¬":3553,"Î»ÏīÏĥÎ·":3554,"Î¿ÏħÏĥÎ¯Î±":3555,"ÎºÎ¹Î½":3556,"ÏīÏģÎ¯ÏĤ":3557,"ĠÎ±Î¼ÎŃÏĥÏīÏĤ":3558,"ĠÎ½Î¿Ïħ":3559,"ÏĦÎ¿Î¹Îº":3560,"ĠÎ±ÏĢÎ¬Î½":3561,"ÎŁÎ¥Î§":3562,"ĠÎĵÎķÎĿÎĻÎĳ":3563,"ĠÎºÎ¬ÏĢÎ¿ÏĦÎµ":3564,"ÎŃÏģÏĩÎµÏĦÎ±Î¹":3565,"Î¿ÏįÎ½Î¹":3566,"ĠÏĥÎºÎ¿ÏĢ":3567,"ÎĳÎ¡Î¤ÎĹÎ£":3568,"ĠÎºÎ¬Î¼Î½Ïī":3569,"ĠÏĢÏĮÏģ":3570,"ĠÎ¼Î¹ÏĦÏĥÎ¹":3571,"ÏĦÎµÏģÎ¿Î½":3572,"ĠÎĳÎĿÎķÎŀ":3573,"ĠÎľÎĳÎ¡ÎĻÎĵ":3574,"ĠÎºÎ¿ÏħÎ²ÎŃÎ½ÏĦÎ±":3575,"ÎŁÎļÎ¡ÎĳÎ¤ÎĻÎĳÎ£":3576,"âĢķ":3577,"ĠÎ¶ÏīÎ½ÏĦÎ±Î½":3578,"ĠÎĶÎĹÎľÎŁÎļÎ¡ÎĳÎ¤ÎĻÎĳÎ£":3579,"ĠÎļÎ¥ÎłÎ¡ÎĻÎĳÎļÎĹÎ£":3580,"ÎĳÎ¡Î¤ÎĹÎ£ÎĻÎĳÎ£":3581,"ĠÎĳÎĿÎķÎŀÎĳÎ¡Î¤ÎĹÎ£ÎĻÎĳÎ£":3582,"Î±ÏģÎ¯Î¿Ïħ":3583,"ÏģÎ±Î¹":3584,"Î»Î¿ÏħÎ½":3585,"ÏĮÎ¹":3586,"Î¡ÎĻÎ£":3587,"ĠÎĳÎ»ÎŃ":3588,"ĠÎĳÎºÎ¿Ïį":3589,"ÏĥÏĦÏħÏĩ":3590,"ĠÎ¬ÏģÎº":3591,"ĠÎ¬ÏĨÎ·":3592,"ĠÎµÏĢÎ¿ÏĩÎ®ÏĤ":3593,"ÏĪÎµÏĤ":3594,"ĠÎ¼Î¹ÏĦÏĥ":3595,"ĠÏĢÎ¹ÏĥÏĦ":3596,"ÎµÏĢÎµÎ½":3597,"ĠÎ´Î±Î¼Îµ":3598,"ĠÎķÎ¥ÎĵÎķÎĿÎĻÎĳ":3599,"Î¤ÎķÎ¡ÎĻÎļÎŁ":3600,"ĠÎŃÎºÎ±Î¼":3601,"ĠÏĩÏİÏģÎ¿":3602,"Î»Î±Î¼Î²Î¬Î½":3603,"âĪĻ":3604,"ÎºÏĦÏī":3605,"ĠÎºÎ¿ÏĤ":3606,"ĠÎµÎ±ÏħÏĦÏĮ":3607,"Î±Î»Î¹Î¬":3608,"ĠÎ¤ÏİÏģÎ±":3609,"Î¿ÏħÎ½Î¬":3610,"Î¿Î»Î¿":3611,"ĠÏĥÏħÎ³Ïĩ":3612,"ĠÎĶÎ·Î»Î±Î´Î®":3613,"ĠÏĢÏĮÎ»Î·":3614,"ĠÏĢÎ¿Î¹Î·ÏĦÎ¹ÎºÎ®":3615,"ÎŁÎĵÎķÎ¥ÎľÎĳ":3616,"ĠÎµÎ¸Î½":3617,"Î¼Î¹Îº":3618,"ĠÎ¤Î·":3619,"ĠÎµÏĢÎ·":3620,"ĠÎ¼Î¬ÏĥÏĦÏģÎµ":3621,"ĠÎĴÎ±ÏĥÎ¹":3622,"ĠÎ¼ÏĢÎ¿ÏģÎµÎ¯ÏĤ":3623,"Î¾ÎµÏģÎ±":3624,"ĠÎĺÎµÏĮÏĤ":3625,"ĠÎµÎ¼ÏĢÎ¿Ïģ":3626,"ĠÏĦÎŃÏĥÏĥÎµ":3627,"ĠÏĨÏħÏĥÎ¹ÎºÎ¬":3628,"ASH":3629,"ÎĻÎļÎĽÎķÎĻÎĳ":3630,"Î»Î·Î½":3631,"ĠÏĢÎŃÎ½ÏĦÎµ":3632,"ĠÎºÎµÏģ":3633,"Î¿Î»Î±":3634,"ĠÎ¬Î»Î»Î¿ÏĤ":3635,"ĠÎ´ÎµÎ¾":3636,"ĠÏĢÎ±ÏģÎ¬Î¸Ïħ":3637,"ĠÏĥÏħÎ¼ÏĢÎµÏģÎ¹":3638,"ĠTA":3639,"ĠÏĨÎ±Î½ÏĦÎ±":3640,"ĠÎĵÎĻÎĳÎĿÎĿÎĹÎ£":3641,"ÏĮÏĢÏīÏĤ":3642,"Î´ÏİÎ½":3643,"Î¿ÏįÏĥÏĦÎ¿Ïħ":3644,"ĠÎłÏģÎ¿":3645,"ĠÎ¤ÎµÎ»":3646,"ĠÎ£Î±Î½":3647,"ĠÏĦÎ±ÏĤ":3648,"ĠÏĢÎ±ÏģÎµ":3649,"Î¹ÏĥÎ¼ÏĮ":3650,"ĠÎ§ÏģÏħÏĥÎ¿ÏĥÏĦÎ¿":3651,"ĠÏĢÏģÎ¿Î²Î»Î·Î¼Î±":3652,"ĠÎłÎ¡Î©Î¤Îĳ":3653,"Î¹ÏĥÎ¼Î¿Ïį":3654,"Î¹ÏĥÎ¼ÏĮÏĤ":3655,"ÏĦÏģÎ¿ÏĢÎ®":3656,"ĠÎ¸Î¬Î»Î±ÏĥÏĥÎ±":3657,"os":3658,"Î»ÏīÏĤ":3659,"Î¿ÏħÏģ":3660,"ÏİÏĥÏī":3661,"ĠÏĩÏİÏģÎ±":3662,"ÎµÏħÎ¼Î±":3663,"Î¿Î¼Î¹":3664,"ĠÏĢÎµÎ»Î»Î¬":3665,"ÏĢÎµÎ¶Î±":3666,"ĠÏĢÏĮÎ»Îµ":3667,"Ġ194":3668,"ÏĦÎ¹ÎºÏĮÏĦÎ·ÏĦÎ±":3669,"ĠÎ´Î¹ÎºÎ·Î³":3670,"ĠÎłÎ¿Î»Ïħ":3671,"ĠÎºÎ±ÏĦÎ±Î»Î¬Î²ÎµÎ¹":3672,"Î¿ÎºÏģÎ±ÏĦÎ¯Î±ÏĤ":3673,"Î¿Ïİ":3674,"Î·ÏĥÎ·ÏĤ":3675,"Î¼ÎŃÏĤ":3676,"Î¼Î·ÏĤ":3677,"ĠÎ¼Î¯":3678,"ĠÏĦÎ¶Î±":3679,"ĠÏĦÎ¶Î¿Î¹":3680,"ĠÎłÎµÏģ":3681,"ĠÎºÎ±ÏĢÎ½":3682,"ÏĥÎ¹Î·":3683,"ĠÎ²ÏģÎ±":3684,"ĠÎ²Î¿Î®":3685,"ĠÏĢÎ±ÏĦÎŃÏģÎ±":3686,"ÎºÎ±Î¼Îµ":3687,"ĠÎºÎ¬Î¼ÏĢ":3688,"ĠÏģÎ¹Î¬":3689,"ĠÏĢÎ¬ÏģÎ±":3690,"ÏĦÏīÏĩ":3691,"ĠÎºÎ¹Î·":3692,"ĠÎĳÎĿÎ¤Î©ÎĿÎĹÎ£":3693,"ĠÎµÏħÏģÏī":3694,"ĠÎ´Î·Î¼Î¿":3695,"ĠÏĨÏįÎ³ÎµÎ¹":3696,"ÎŃÏĪÎµÎ¹":3697,"ÏģÎ¯Î¶Ïī":3698,"ĠÎķÎŀÎ©Î¤":3699,"ĠÏĥÏħÎ³Î³ÏģÎ±ÏĨ":3700,"ĠÎ´Î¹Î±ÏĨÎ¿ÏģÎµ":3701,"ĠÎłÎ¿Î»ÏįÎ¼Î½":3702,"38":3703,":(":3704,"ÎµÎ²Î±":3705,"ÏĮÎ¼Î¹":3706,"ĠÎµÎ»ÎŃ":3707,"ĠÎµÎ¹ÎºÏĮ":3708,"ÏĨÏİÎ½":3709,"ĠÎŃÎ¼Î±":3710,"ĠÎļÏģÎ±":3711,"ĠÎľÎĻ":3712,"ĠÎºÎ±Î»Î±":3713,"ÏħÎ½Î¬":3714,"ĠÎĮÎ¼ÏīÏĤ":3715,"ĠÎ²Î¬Î»Î»":3716,"ĠÏĢÎ»Î¿Ïį":3717,"ĠÎ»ÏĮÎ³Ïī":3718,"ĠÏĨÏīÏĦÎ¿Î³ÏģÎ±ÏĨÎ¯Î±":3719,"ĠÎŁÏįÏĦÎµ":3720,"ÎŃÏĦÏĦÎ±":3721,"ĠÎ±ÏĥÏĦÏħÎ½Î¿Î¼":3722,"ĠÏĩÎ±Î¼Î¿Î³ÎµÎ»Î¬":3723,"Î¿ÏħÏĥÎ¹Î½":3724,"Î´Î¯Î±":3725,"ĠÎ£Î¹":3726,"ÏĪÎ¹":3727,"ĠÏĢÎµÏģÎ±":3728,"ĠÏĢÎµÏĦÎ¬":3729,"ÎŁÎ¥ÎĽÎĽÎĹÎ£":3730,"ĠÎ¶ÎµÏħ":3731,"ĠÏĢÎ¿Î¹Î®Î¼Î±ÏĦÎ±":3732,"ĠÎľÎµÏĦÎ¬":3733,"ĠÏĨÏįÏī":3734,"ĠÏĥÏħÏĩÎ½Î¬":3735,"RO":3736,"Î»ÏİÎ½ÎµÎ¹":3737,"ÏĥÎ¼ÎŃÎ½Î±":3738,"Î¼ÏīÎ½":3739,"ĠÎ¼ÏħÎ¸":3740,"ÏĮÏģÎ¹":3741,"ÏħÎ¶Î±Î½":3742,"ÏĩÏİ":3743,"ÎķÎ§":3744,"Î»Î»Î¹Î±":3745,"ĠÎĳÎ¼Î¼ÏĮ":3746,"ĠÎľÎ±Î½":3747,"ĠÎłÏģÎ¿Ïĥ":3748,"Î±Î»Î¿":3749,"ĠÎ£Î¤Îĳ":3750,"ÏĥÏĦÎµÎ¹":3751,"Î¬Î½Î·":3752,"ÏĦÏģÎ¿ÏĨ":3753,"ĠÎ®Î¸ÎµÎ»Î±":3754,"ĠÏģÏĮ":3755,"ĠÎľÎ±ÏģÎ¹":3756,"ĠÎ»Î¬Î´Î¹":3757,"ash":3758,"ack":3759,"ÎºÎ»Î¿ÏĨÎ¿ÏģÎµÎ¯":3760,"ÏĩÏģÎ¿Î½Î±":3761,"ĠÏĥÏĢÎ¹ÏĦÎ¹":3762,"ĠÎ±Î½Î¬Î³ÎºÎ·":3763,"ĠÎ´Î¬ÎºÏģÏħ":3764,"ÏĢÏĢ":3765,"ĠÏĢÎ»Î®":3766,"Î¸Î¿":3767,"ÎµÎ¯ÏĦÎµ":3768,"ĠÎ£Î¿ÏĨ":3769,"Î¹Î½Î±Î¹":3770,"ĠÎĴÎ»ÎŃ":3771,"ÎºÎ¬ÏģÎ¹":3772,"ĠÎ²Î¬Î»Ïī":3773,"ÎµÎ´ÏģÎ¿ÏĤ":3774,"ĠÏĢÎ»Î¬ÏĥÎ¼Î±ÏĦÎ±":3775,"Î¡Î§ÎĳÎĿ":3776,"ĠÎ±ÏģÎ¹ÏĥÏĦÎµ":3777,"AC":3778,"Î±Î»Î»":3779,"Î¹Î±Î½":3780,"Î¼ÏĮÎ½":3781,"Î¿ÏįÏģ":3782,"Î¼Î±ÏĦÎ¹ÎºÎ®":3783,"ĠÎĳÎ»Î®":3784,"ĠÎĳÏħÏĦÏĮ":3785,"ĠÎłÎ¿Ïį":3786,"ĠÏĩÏīÏģÎ¬":3787,"ĠÎºÎ±ÎºÏĮ":3788,"ĠÎ²Î³Î±Î¯Î½ÎµÎ¹":3789,"ĠÎĽÎ¿Î³":3790,"ĠÎµÎ¹ÏĢÎ±":3791,"ĠÎ³ÏħÏģÎ¯Î¶ÎµÎ¹":3792,"ÏģÎ¹ÏĥÏĦÎ¹Î±Î½":3793,"ĠÎļÎ¬ÏĦÎ¹":3794,"ĠÎºÏħÏĢÏģÎ¹Î±ÎºÎ®ÏĤ":3795,"Î¼Î¼Î¿ÏĩÏİ":3796,"ĠÎŃÏĢÏģÎµÏĢÎµ":3797,"ĠÎķÎĻÎ¡ÎĹÎĿÎĹ":3798,"ĠÎ¼ÎµÎ¯Î½ÎµÎ¹":3799,"Î¼Î¼Î¿ÏĩÏİÏĥÏĦÎ¿Ïħ":3800,"ĠÏĢÏĮÏĥÎ¿":3801,"Î´ÏīÎ½":3802,"ĠÎķÏĢÎµÎ¹":3803,"ĠÎ£Î®":3804,"ĠÎ»Ïį":3805,"ÏĦÎ±Î¹Ïģ":3806,"ĠÎºÎ±Î»ÎŃ":3807,"ĠÎ¹Î´Î¹":3808,"ĠÏĥÏĦÎ±Î¼Î±":3809,"Î³ÎºÎ¿":3810,"ĠÏħÏĢÎ·":3811,"ĠÏħÏĢÎ®":3812,"Î¸Î®Î¼Î±ÏĦÎ±":3813,"Î±Î±Î±Î±":3814,"ĠÎ³ÎµÎ¼Î¬":3815,"ĠÎ¼Î±ÎºÏģÎ¹Î¬":3816,"ĠÏĩÏģÎ·ÏĥÎ¹Î¼Î¿ÏĢÎ¿Î¹":3817,"ĠÎºÎ¿ÏĢÎµÎ»Î»Î¿Ïį":3818,"Î³Ïİ":3819,"ĠÎ½Î¿ÏħÏĤ":3820,"ĠÎķÏĥÏħ":3821,"ĠÎĳÎ³Î³":3822,"Î¾Î¿ÏħÎ¼Îµ":3823,"ÏģÎ¬Î½":3824,"ĠÎ»ÎµÎ¯":3825,"ÏĥÎ¹ÎµÏĤ":3826,"ĠÎ²Ïģ":3827,"ÏĥÎ±ÏĥÎ¹Î½":3828,"ÏĦÎ¹ÎºÎ¿Î¯":3829,"ÏĦÏģÎ¹Î±":3830,"Î¼ÎµÎ½Î·":3831,"ĠÎ¾ÏħÏĢ":3832,"ĠÎ·Î½ÏĦÎ±":3833,"ĠÎ·Î¾ÎŃÏģÏī":3834,"ĠÎĴÎ¡ÎĳÎĶÎ¥":3835,"ĠÎºÎ±ÏĦÎ±Î»Î±Î²Î±":3836,"ĠÎ¦ÏģÏĮÏĥ":3837,"Î¹ÎµÏĢÎ¯ÏĥÎº":3838,"Ġl":3839,"ĠÏĦÎµ":3840,"ÎºÎ¿ÏĤ":3841,"ÏīÎ¼ÎŃÎ½Î¿ÏĤ":3842,"ĠÎµÏħÏģ":3843,"Î½Î±Î¯Îº":3844,"ÏģÎ¯ÏīÏĤ":3845,"ÏĪÎ±Î½":3846,"ĠÏĢÎ¿Î¹Î±":3847,"ÎŃÏĩÎµÎ¹":3848,"ĠÎ±ÏģÏĩÎ®":3849,"ĠÎķÏħÎŃÎ»":3850,"ĠÏĦÎ¶ÎµÎ¯Î½Î·":3851,"ĠÏĢÎ¿Î¹Î·ÏĦÎ®":3852,"ĠÎ´Î¿ÏħÎ»ÎµÎ¹ÎŃÏĤ":3853,"ĠÏĢÎ±Î¯Ïģ":3854,"Ġ:-":3855,"Î¸Î¿ÏħÏĥÎ¹Î±":3856,"ĠÎĳÎĵÎĵÎķÎĽÎŁÎ£":3857,"ÎĻÎĿÎ¤":3858,"ĠÎĳÏģ":3859,"ĠÎ®ÏĥÎ¿ÏħÎ½":3860,"ĠÎŃÏĩÎµÎ¹ÏĤ":3861,"ÎµÎºÏģÎ¹":3862,"Î¿Î»Î¿Î³ÎµÎ¯":3863,"ĠÎ¤Î¿ÏįÏģÎº":3864,"ĠÏħÏĢÎ¬ÏģÏĩÎ¿ÏħÎ½":3865,"ĠÏĥÎ·Î¼Î±Î¯Î½ÎµÎ¹":3866,"ĠÎµÏĦÎ¿Î¹Î¼Î¬":3867,"ÏĢÏĦÏīÏĥÎ·":3868,"24":3869,"ri":3870,"ÏĮÏĦÎµÏģÎ±":3871,"ĠÎ½Î¿ÏħÎ½":3872,"Î¿Î½ÏĦÎ±":3873,"ĠÏĦÎ¿ÏħÏĦÎ¿":3874,"ĠÎ´Î®":3875,"ÏĦÎµÎ¯Î±":3876,"ĠÏĦÎ¶ÎµÎ¹Î±":3877,"ÏģÎ¹ÏĥÎº":3878,"ĠÎĶÎķÎĿ":3879,"ĠÎ¼Î¬ÏĦÎ¹":3880,"ĠÎĴÎµÎ½":3881,"ÎµÏįÎµÎ¹":3882,"ÎŁÎĿÎ¤":3883,"Ġ21":3884,"ĠÏĢÎ»Î·ÏģÎ¿ÏĨÎ¿Ïģ":3885,"ĠÏĢÎ±Î»Î¹Î¬":3886,"ĠÎ¼Î®Î½ÎµÏĤ":3887,"ĠÎ»ÎµÎ¹ÏĦÎ¿ÏħÏģÎ³":3888,"LASH":3889,"oo":3890,"Î¶Î¿Î½ÏĦÎ±ÏĤ":3891,"Î¿ÏįÎ¹Î½":3892,"ĠÎ³ÎµÏģ":3893,"Î¼Î±Ïĥ":3894,"ÏģÎ¹Î¬Îº":3895,"ĠÏĨÎ¿Î²":3896,"ĠÎºÎ±Î¸Îµ":3897,"ĠÎ¾Ïį":3898,"Î§Î¡Î¥Î£Î¤ÎĳÎĽÎĽÎĳ":3899,"Î¼Î¬ÏĦÎ¹":3900,"Î¸ÎµÏģÎ¬":3901,"ĠÎ¸ÎŃÎ»Î¿ÏħÎ½":3902,"ÏĦÎµÎ¯ÏĤ":3903,"ĠÏĦÎŃÏĦÎ¿":3904,"ÎºÏĦÏīÎ²":3905,"ACK":3906,"ÏģÏĦÎµÎ¹":3907,"Î®ÏĦÎ·ÏĥÎ·":3908,"Î¸Î¹":3909,"ÏĦÏģÎ¿Ïħ":3910,"ÎŁÎľÎŁÎ£":3911,"ĠÏĥÎºÎ¬":3912,"ĠÎ¼Î¬Î»Î»Î¿Î½":3913,"ĠÏĢÎ¹Î¬Î½":3914,"ÏħÎ³Î¿ÏįÏĥÏĦÎ¿Ïħ":3915,"ĠÎ¼ÎµÎ³Î¬Î»Î¿":3916,"ĠÎ±ÏĨÎ®Î½ÎµÎ¹":3917,"Ġ1960":3918,"ĠÎ³ÎµÎ³Î¿Î½ÏĮÏĤ":3919,"ĠÎłÎ¿Î»ÏįÎ¼Î½Î¹Î±":3920,"ÎºÏİ":3921,"ĠÏĢÎµÎ½":3922,"Î¿ÏįÏĥÎ¹Î½":3923,"ĠÎļÎ¿Ïģ":3924,"Î¿Î¹Î½":3925,"ĠÎ¿Îº":3926,"Î±Î»ÎµÎ½":3927,"ĠÏĨÎŃÏģÏī":3928,"ĠÏĨÏĦÎ±Î¯":3929,"ĠÎ²ÎŃÎ²Î±Î¹Î±":3930,"ĠÎĵÎ¥":3931,"ĠÎ¶Î·ÏĦÎ®":3932,"Î¯Î´ÎµÏĤ":3933,"ÎŁÎĵÎ¡ÎĳÎ¦":3934,"ĠÎĳÎ½ÏĦÏİÎ½Î·ÏĤ":3935,"ĠÎ±Î´ÎµÎ»ÏĨ":3936,"ĠÎĳÎ½Î±ÏĥÏĦÎ±ÏĥÎ¹Î¬Î´Î·":3937,"Î»ÎµÎ¹Î±":3938,"ÏĢÎ¹Î½":3939,"ĠÎºÎ¬Î½Ïī":3940,"ĠÏĥÎ¿Ïį":3941,"ĠÏĥÎ¯Î³":3942,"ĠÎµÎ»Îµ":3943,"ĠÎ±ÎŃÏģÎ±":3944,"ÏĨÎ¯":3945,"ĠÎ´Î¿ÏįÎ¼Îµ":3946,"ĠÎķÏĩ":3947,"ĠÏĦÎ¶Ïį":3948,"ĠÎĳÏģÎ±":3949,"ĠÎľÏĮÎ»Î¹ÏĤ":3950,"ÎļÎ¡ÎĻÎ£Î¤ÎĹÎ£":3951,"ÏİÎ½Î¿ÏħÎ½":3952,"ĠÎĿÎ¯":3953,"ĠÎµÎ¯Ïĥ":3954,"ĠÏĢÎ¿Î»Î»Î±":3955,"era":3956,"ĠÎĳÎłÎŁÎĵÎķÎ¥ÎľÎĳ":3957,"ĠÎ±ÏĥÏĩÎ¿Î»":3958,"ent":3959,"ĠÎĳÎĽÎĻÎļÎĹ":3960,"ĠÏĥÏĦÎŃÎºÎµÏĦÎ±Î¹":3961,"ĠÎµÎ¹ÎºÏĮÎ½Î±":3962,"ROP":3963,"Ġn":3964,"Î»Î¹ÎºÏĮ":3965,"ĠÏĥÏĢÎ±":3966,"Î¸Ïį":3967,"Î¸ÏĮÎ½":3968,"Î»Î»Î¿ÏĤ":3969,"ĠÎ²Î±Ïģ":3970,"ÏĢÏģÎ¿":3971,"ÏĢÏģÏİ":3972,"ĠÎ·Î¸":3973,"ĠÏĥÎºÎ¿Ïħ":3974,"ĠÎµÎºÎ½ÎµÏħ":3975,"ĠÏĢÎ¿Î»Ïħ":3976,"ĠÎľÎ¬Î¼Î¼Î±":3977,"ÎŁÎ¥Î§Î¤":3978,"Îī":3979,"á½":3980,"ĠÎºÏī":3981,"Î¶Î·":3982,"ĠÎłÎ±Î¹":3983,"ĠÎłÎ±Î¯":3984,"ĠÎ¿Î¼Î¬":3985,"ÎŃÎ½ÏĦÏģÎ¿":3986,"ÏģÎºÎ¬":3987,"ĠÎ´Î¹Î¿Ïģ":3988,"Ġth":3989,"ĠÏĥÏħÎ³ÎºÎµÎºÏģÎ¹":3990,"ĠÎ£Î¥ÎĿ":3991,"ĠÎµÏħÎºÎ±Î¹ÏģÎ¯Î±":3992,"23":3993,"ĠÎı":3994,"ÏģÎ¿ÏĢ":3995,"Î¯ÏĥÎº":3996,"Î¿Î½Î´":3997,"ĠÎķÎ»Îµ":3998,"ĠÎĳÎ¹":3999,"ÏģÎ¹Î»Î¯Î¿Ïħ":4000,"Î¿Î»Î¿ÏĨ":4001,"ĠÎ¬ÏģÏĩ":4002,"ÏĦÏģÎµ":4003,"ÎľÏĢÎ±Î¯Î½ÎµÎ¹":4004,"ĠÎ®ÏģÏĦÎ±":4005,"ÎŃÎ»ÎµÎ¹":4006,"ĠÎĳÎ½Î¿Î¯Î³ÎµÎ¹":4007,"Î»ÎµÏĢ":4008,"ÏĦÏħÏĢÎ±":4009,"ĠÎµÏĥÎºÎŃÏĨ":4010,"ĠÎ´Î¯ÎºÎ±Î¹Î¿":4011,"ĠÎĿÎ¿Î¼Î¯Î¶Ïī":4012,"ĠÎ¤ÎĸÎķÎĿÎĹ":4013,"ĠÎ»ÎµÏĨÏĦÎ¬":4014,"EO":4015,"Î¯ÏģÎ¹":4016,"ÎĳÎĵ":4017,"ÎĻÎŁÎ£":4018,"Î¸Î½":4019,"ÏİÏģÎ³":4020,"ÏĨÏģÎ¬":4021,"ÏĦÎµÏģÎ¬":4022,"Î»Î»Î¿Î¹":4023,"Î¯Î½ÎµÎ¹ÏĤ":4024,"ÎļÎĳÎĽ":4025,"ÏĦÎ¹ÎºÎ¿ÏįÏĤ":4026,"ĠÎĿÎ¬":4027,"ĠÎ¾Î·":4028,"ĠÎµÎ¯Î½Î±Î¹Î¿":4029,"ÎºÎµÎ¼Î²ÏģÎ¯Î¿Ïħ":4030,"ĠÎ²Î»ÎŃÎ¼Î¼Î±":4031,"ĠÏĪÏħÏĩÎ®":4032,"ĠÎĬÎ½ÏĦÎ±":4033,"ĠÎŃÎºÎ±Î½Îµ":4034,"ĠÎ½Î·ÏĥÎ¯":4035,"Î»Î±Î¹":4036,"ĠÏĢÎŃÏģ":4037,"ÏĮÏĢÎ·":4038,"ĠÎºÎ¹Î¿":4039,"Î³Ïħ":4040,"ÏİÎ¼Î±ÏĦÎ±":4041,"ÏĦÎ·Î³":4042,"ĠÎĳÎºÎ¿Ïħ":4043,"ĠÏĨÎµÏģ":4044,"ĠÎ£ÏħÎ¼":4045,"Î¼ÎŃÎ½Î·Î½":4046,"ÏĪÎ¿ÏħÎ½":4047,"ĠÏĢÎ¿ÏĦÎ®ÏģÎ¹":4048,"Î¦Î©ÎĿ":4049,"ĠÎºÎ¬Î¼Î½":4050,"ĠÎµÎ¹ÏĢÎµ":4051,"ĠÎ´Î¹ÏĮÏĦÎ¹":4052,"ÎŃÏĨÏĦÎµÎ¹":4053,"ĠÎ²Î»ÎŃÏĢÎ¿ÏħÎ¼Îµ":4054,"ĠÏĨÎ±Î¯Î½":4055,"ĠÎĳÎĿÎĶ":4056,"ĠÎŃÏĨÎµÏģ":4057,"ĠÎ¼Î¿Î½Î±":4058,"ĠÎ³Î¹Î±ÏĦÏģÏĮÏĤ":4059,"ĠÏĥÎ·Î¼Î±ÏĥÎ¯Î±":4060,"ÏĢÎ»Î·Îº":4061,"ĠÎ¬Î½ÏĦÏģÎ±ÏĤ":4062,"ĠÎķÏħÎŃÎ»Î¸ÏīÎ½":4063,"ÎºÎ½":4064,"Î±Î¹ÏĥÎ¸Î·":4065,"ĠÎµÎ¼ÎŃÎ½Î±Î½":4066,"Î¸Î¿ÏįÎ¼Îµ":4067,"ÏĩÏīÏĥÏĦÎ¿":4068,"ÎķÎ¯":4069,"ĠÎµÎ½Î½ÎµÎ½":4070,"ÏģÎ¬Î²Î¿":4071,"ÏĢÎ±ÏĥÎ¼Î±":4072,"Î¼ÎŃÎ½ÎµÎ¹":4073,"ÏĦÎ¹ÎºÎ±":4074,"ĠÎµÎºÏĦÏĮÏĤ":4075,"ĠÎµÎ³Î¯Î½":4076,"ĠÎ¤Î¶ÎµÎ¯Î½":4077,"ĠÎŃÎ½Î½Î¿Î¹":4078,"ĠÎ±ÏħÏĦÏĮÎ½":4079,"ĠÏĢÎ¹Î¸Î±Î½":4080,"Î´Î®ÏĢÎ¿ÏĦÎµ":4081,"ĠÎłÎ±ÏģÎ¬":4082,"ĠÎ´ÏħÏĥÎºÎ¿Î»":4083,"ÏįÏģÎ¹Î¿":4084,"Î£Î¤Î¡ÎĳÎ¤ÎĹÎ£":4085,"ĠÏĥÏħÎ½ÎµÏĩÎ¯Î¶ÎµÎ¹":4086,"ĠÎ¿Î¹ÎºÎ¿Î³ÎŃÎ½ÎµÎ¹":4087,"ĠÎ±ÏĢÎ¿ÎºÎ±Î»":4088,"ĠÏĢÎµÏģÎ¹Î¼ÎŃÎ½ÎµÎ¹":4089,"ĠÎ¸ÎµÎ»Ïī":4090,"Î¿ÏĢÎ¿Î¯Î·ÏĥÎ·":4091,"ÏĥÏĦÏģÎ¿ÏĨÎ®":4092,"ĠÎĶÎķÎ£ÎłÎŁÎĻÎĿÎĳ":4093,"ĠÎ§Î¡ÎĻÎ£Î¤ÎĻÎĿÎĳ":4094,"Ġ,":4095,"ÏĦÎ¯Î±ÏĤ":4096,"ĠÏĦÏĥÎ±":4097,"ÏĥÎ¼Î±Î½":4098,"ĠÎ¼Î¯Î±":4099,"ÎŃÎ¼Î¿Ïħ":4100,"Î®Î¸ÏīÏĤ":4101,"Î´Î¿Î¼":4102,"ĠÏĦÎ¿ÏħÎ»Î¬ÏĩÎ¹ÏĥÏĦÎ¿Î½":4103,"ĠÎķÏģÎ±":4104,"ĠÎ¼ÎµÏĥÎ±":4105,"ĠÎ¿Ïģ":4106,"ĠÎ¤ÎĹ":4107,"Î¹ÏĥÎ¼ÎŃÎ½Î¿ÏĤ":4108,"ĠÏĦÎ¶Î¹ÎµÎ¯Î½":4109,"ÏģÎ³Î¿ÏĤ":4110,"Î¿Î¯Î·ÏĥÎ·":4111,"ÏĥÏĦÎµÏĤ":4112,"Î¿ÏĩÎŃÏĤ":4113,"ĠÎºÎ¿ÏħÎ´":4114,"ÏĦÏĥÎµÏĤ":4115,"ÏįÎ½ÎµÏĦÎ±Î¹":4116,"Î·ÏĥÏĢÎŃÏģÎ±":4117,"ĠÎ¼Î·ÏĩÎ±Î½":4118,"ĠÎµÎ¼ÏĢÎµÎ¹":4119,"ĠÎ±Î³Î±ÏĢÏİ":4120,"ĠÎĺÎŃÎ»ÎµÎ¹ÏĤ":4121,"ĠÎłÎ¿Î»ÏħÎ´ÎµÏį":4122,"25":4123,"id":4124,"ÎµÏģÎ¯":4125,"ĠÎ±Î¼Î±":4126,"ĠÎ³ÎµÎ»Î¬":4127,"Î»Î»Î¹":4128,"ĠÎłÎ¹":4129,"ĠÏģÎ¿Ïħ":4130,"Î¿ÏĢÎ¿ÏĤ":4131,"ÎĳÎ¡ÎĴ":4132,"ĠÎ´Î¹Î±Î²Î¬Î¶ÎµÎ¹":4133,"ĠÏĩÏģÎµÎ¹Î±":4134,"ĠÏĢÎµÏģÎ¹Î¿Î´":4135,"ĠÎºÏħÏģÎ¯ÏīÏĤ":4136,"ĠÏĢÎ±Î½Ïī":4137,"ĠÎ±ÏĢÎ¿ÏĦÎµ":4138,"Î¿ÏįÎ¼ÎµÎ½Î·":4139,"ĠÎīÎ½ÏĦÎ±":4140,"ĠÎºÏĮÏĥÎ¼Î¿Î½":4141,"ĠÏĥÏħÎ¼Î¼Îµ":4142,"ĠÎºÏħÏģÎ¹Î±":4143,"ĠÎ²ÏģÎ¯ÏĥÎºÎ¿Î½ÏĦÎ±Î¹":4144,"Î¸ÎŃÏĥÎµÎ¹ÏĤ":4145,"ĠÎµÎºÎ±ÏĦÎ¬Î»Î±Î²Î±":4146,"ÏĮÏĦÎ·ÏĦÎ±ÏĤ":4147,"ĠÎ£ÏĦÎµÏĨÎ±Î½Î®ÏĤ":4148,"ĠÎ±Î³ÎºÎ±Î»Î¹Î¬Î¶ÎµÎ¹":4149,"ĠÎ·Î¼ÎŃÏģÎ±Î½":4150,"ĠÎ£Î¤Î¡ÎĳÎ¤ÎŁÎ£":4151,"lash":4152,"Ġre":4153,"ÏģÎ¿ÏħÏĤ":4154,"ÎºÎ¹Î¿":4155,"ĠÎºÎ¯Î½Î·ÏĥÎ·":4156,"ĠÎµÎ¹ÎºÏĮÎ½":4157,"Î®ÏĥÎ¿ÏħÎ½":4158,"ÏĨÎ±Î»":4159,"ĠÎŃÎ»Î±":4160,"ĠÎ¼ÎµÏĥ":4161,"ĠÏĩÏīÏģ":4162,"ÏĥÏĦÏĮÏĥÎ¿":4163,"ĠÏĢÎ±Î¯Î¶ÎµÎ¹":4164,"ĠÎ±Î½Îµ":4165,"ĠÎĪÎ»Î±":4166,"ÏīÏĥÏĥ":4167,"ĠÎµÏĥÎµÎ¯ÏĤ":4168,"ĠÎ¸ÏīÏģÎµÎ¯ÏĤ":4169,"ĠÎ¿ÏįÎ»Î»Î¿ÏħÏĤ":4170,"ĠÎºÎ±ÏĦÎ±Î»Î¬Î²Ïī":4171,"ĠÎ¿Î»ÏĮÎºÎ»Î·":4172,"ĠÏĦÎ¶ÎµÎ¹Î±Î¼Î±Î¯":4173,"TI":4174,"Î¹ÏĢ":4175,"Î½ÎµÏĤ":4176,"ĠÏĦÏģÏħ":4177,"ĠÎºÎ¿Ïĥ":4178,"Î¡Îĵ":4179,"ÏģÎ±Î³":4180,"ĠÎŃÏĢÎ¹Î±":4181,"ĠÎ±ÏĢÎµÎ»":4182,"ĠÎ£ÏĦÎ·":4183,"ĠÎ¦Î¹":4184,"ĠÎ¦Î¹Î»":4185,"Î¿Î¼Î±Î½":4186,"ĠÎ·Î¼ÎŃ":4187,"ĠÎ·ÏĥÏħÏĩ":4188,"ÏĥÏĦÎ·ÎºÎµÎ½":4189,"ĠÎ¹Ïĥ":4190,"ĠÏĥÏĦÎ±Î¼Î±ÏĦÎ¬":4191,"ĠÏĢÎµÏģÎ¯Î¿Î´Î¿":4192,"ĠKÏįÏĢÏģÎ¿Ïħ":4193,"ĠBACK":4194,"Î¸ÎµÎ»ÎµÎ½":4195,"ĠÎµÎ»ÏĢÎ¯":4196,"ĠÏĦÏģÎ±Î³Î¿ÏįÎ´Î¹Î±":4197,"ÎºÏĦÏīÎ²ÏģÎ¯Î¿Ïħ":4198,"ÎŁÎ¥Î§Î¤ÎĳÎ¡ÎĹÎ£":4199,"ot":4200,"ĠL":4201,"ÏīÎ¼ÎŃÎ½Î·":4202,"Î´Î¿Î½":4203,"ÏģÎ±Î³Îº":4204,"Î¤Î¶Î¹":4205,"ĠÎķÏĩÏī":4206,"ÎĿÎŁ":4207,"ĠÏĨÏĦÎ¹Î¬":4208,"Î¬Î½Îµ":4209,"ÏĥÎ¹Î¿Ïį":4210,"ÏĢÏģÏĮÏĤ":4211,"ĠÎ¼Î¬Î¸ÎµÎ¹":4212,"Î®Î½ÏĦÎ±":4213,"ĠÎºÎ¬Î¼Î½Î¿ÏħÎ½":4214,"ĠÎºÎ±Î½ÎµÎ¯ÏĤ":4215,"ĠÏĢÎ¿Î¹Î¿":4216,"ÏģÎ¹ÏĥÏĦÎ¬":4217,"ĠÎłÎµÏģÎ¹":4218,"Î»Î»Î·Î»Î±":4219,"ÏģÏĦÎµÎ¹ÏĤ":4220,"ĠÎķÎ¹Î¼Î±Î¹":4221,"ĠÏĥÏħÎ¼ÏĢÎŃÎ¸":4222,"Î©Î¤ÎĹ":4223,"ĠÏĩÎµÎ¹ÏģÏĮ":4224,"ĠÎ³ÏģÎ±Î¼":4225,"ĠÎ½Î¹ÏİÎ¸Ïī":4226,"ĠÎĵÎĻÎĳÎĿÎĿÎĳ":4227,"ĠÎĳÎ½Î´ÏģÎŃÎ±ÏĤ":4228,"ĠÏĦÏį":4229,"Î¿ÏħÏģÎº":4230,"ÏĮÏĦÎ±":4231,"ĠÎĳÎ¸Î·Î½":4232,"ĠÏĢÏģÎ¿ÏĨ":4233,"ĠÎĹÏĦÎ±Î½":4234,"ĠÎ³ÏħÎ½Î±Î¯Îº":4235,"ĠÎµÎºÎ±ÏĦÎ±":4236,"ĠÎ»ÏĮÎ³Î¿ÏĤ":4237,"Î¿ÏħÎ»ÎµÏħ":4238,"ÏĨÎ±ÏĥÎ·":4239,"ĠÎºÏįÏģÎ¹Î¿ÏĤ":4240,"Î»Î±Î²ÎµÏĤ":4241,"ÏĦÏħÏĢÎ¬ÎµÎ¹":4242,"ĠÎ³ÏģÎ¬ÏĨÎµÎ¹":4243,"ĠÏĥÏĦÎ¿Î¹ÏĩÎµÎ¯Î±":4244,"27":4245,"et":4246,"Ġand":4247,"ÏĦÎ¯Î±":4248,"ÏĦÏįÏĢ":4249,"ÏĥÏĥÎ±Î½":4250,"ĠÏĢÎ¹Îº":4251,"Î¿ÏįÏĥÎµÎ½":4252,"ĠÎ´ÎºÏħÎ¿":4253,"Î¼Î±ÏĦÎ¿":4254,"ĠÎĳÎ¥":4255,"ĠÎļÏįÏģÎ¹":4256,"ĠÎºÎ±ÏĦ":4257,"ÏĥÎ¹Î®":4258,"ÏģÎµÏĦÎ±Î½":4259,"Î»Î¹Î¿Î½":4260,"ĠÎ´Î¹Î·Î³":4261,"ĠÎ¦ÏģÎ¿Ïĥ":4262,"ĠÎ¬Î½Î¿Î¹":4263,"ÏĨÎŃÏģÎµÏĦÎ±Î¹":4264,"ÎºÏĮÏĢ":4265,"ĠÎ©ÏģÎ±Î¯Î±":4266,"ÎĳÎľÎłÎĹÎ£":4267,"amera":4268,"ĠÎķÎłÎķÎĻÎ£ÎŁÎĶÎĻÎŁ":4269,"Î±Î½ÏĦÎ¯Î¿Î½":4270,"ON":4271,"Î½Î¿Î¯":4272,"ÎºÎ®ÏĤ":4273,"ĠÏĥÎµÎ½":4274,"ÏħÏĨ":4275,"Î³Î¿":4276,"Î³ÎµÎ¹Î±":4277,"Î¸ÏİÏĤ":4278,"ĠÎķÏĦÏĥÎ¹":4279,"Î¿Î»Ïį":4280,"ĠÏĦÎ¹ÏĢÎ¿ÏĦÎµ":4281,"ĠÏħÏĢÎ±":4282,"ĠÎĳÎ½ÏĦÎ¹":4283,"ÏĥÎºÎŃÏĨ":4284,"Î»ÎŃÎ¶":4285,"ĠÏĦÏģÎ±ÏĢÎµÎ¶":4286,"ĠÏĢÎ±ÏģÎ¬Î¾ÎµÎ½":4287,"ĠÎ§ÏģÏħÏĥÏĮÏĥÏĦÎ¿Î¼Î¿":4288,"Î´ÎµÎ¹Î³Î¼Î±":4289,"ĠÎķÎ³Î¹Ïİ":4290,"ĠÏĥÎ·Î¼Î±Î½ÏĦÎ¹ÎºÏĮ":4291,"ĠÎµÎ½Î´Î¹Î±ÏĨÎŃÏģÎ¿Î½":4292,"ÎĿÎĳÎĵÎĻÎ©Î¤ÎĹÎ£":4293,"Î·Î¸ÎµÎ¯":4294,"Î¿ÏħÎ»Î»":4295,"ÏĩÎ¿Ïħ":4296,"ĠÎ¼Î¿ÏħÎ¿":4297,"ĠÎºÎ±ÏĦÎ¹":4298,"ĠÎŁÎ¹Îº":4299,"ÎĴÎŁÎ¥ÎĽÎĽÎĳ":4300,"Î§Îĳ":4301,"ÎĶÎ¡":4302,"ÏĥÏīÏĦÎµÏģ":4303,"ĠÎĴÎ¹Î²":4304,"ÏħÏģÎ¯Î±":4305,"ĠÎ¿ÏįÎ»Î»Î·":4306,"ÏĦÎµÏģÎ¿ÏĤ":4307,"ÏģÎ¹ÏĥÎ¼Î±":4308,"Î»ÎµÎ¯Î½ÎµÎ¹":4309,"ÏĥÏĥÎ±ÏĤ":4310,"ĠÏĦÏĥÎ¬Î½ÏĦÎ±":4311,"ĠÎ»ÎµÏĢÏĦÎ¬":4312,"ĠÎµÏĨÎ·Î¼ÎµÏģÎ¯Î´Î±":4313,"ĠÎłÎ±Î½Î±Î³Î¹Ïİ":4314,"ĠÎĳÎ»ÎŃÎ¾Î±Î½":4315,".),":4316,"ĠÏĦÏĮÎ½":4317,"Î¼ÏİÎ½":4318,"ĠÎºÎ»Î¯":4319,"Î¹Î±Ïĥ":4320,"ÏĩÏį":4321,"ÏĦÎ·ÏĥÎ±":4322,"ĠÎŃÏĢÎ±":4323,"Î»Î»ÎµÏĤ":4324,"ÏĦÎ¿Î»Î®":4325,"ĠÎ¤Î·ÏĤ":4326,"ĠÏĦÎ±Î¾Î¯":4327,"ĠÎºÎ±Î¼Î¹Î¬Î½":4328,"ĠÎ²ÏģÎŃ":4329,"ÎłÎ¿Ïħ":4330,"Î¹ÏĥÎ¼Î±":4331,"ĠÎ¾ÎµÏĢ":4332,"ÏĦÎ¶Î¿Ïį":4333,"ĠÏĢÎµÏģÎ½Î¬":4334,"ĠÎµÏģÎ³Î±Ïĥ":4335,"ÎŃÎ³Î¹Î¿":4336,"Î¿ÏħÎ¿Ïħ":4337,"Î¬ÏĩÎ±":4338,"Î¯ÎºÎ·":4339,"ÏīÏī":4340,"ÎĳÎ§ÎĳÎ¡":4341,"Î¡ÎĹ":4342,"Î¤Î¹":4343,"ĠÎĳÎļ":4344,"Î±Î»Î®":4345,"ĠÎ¤Î¡Îĳ":4346,"ĠÏĮÎ½Î¿Î¼":4347,"ĠÎĵÎµÏģ":4348,"ĠÎºÎ¬Î¸Î¿Î½ÏĦÎ±Î¹":4349,"ÎłÎł":4350,"ÏĢÎ±ÏģÎ¬":4351,"ĠÎ¦Î»Î¿Ïħ":4352,"ÎµÎ»Î¿":4353,"ĠÎ´Î¹Î±ÏĨ":4354,"ÎĳÎĿÎĿ":4355,"ĠÎĨÏĦÎµ":4356,"ÏĥÎ¼Î¿ÏįÏĤ":4357,"Î³ÏģÎ±ÏĨÎ®":4358,"ÎŃÏĪÏī":4359,"Ġ30":4360,"ĠÏĥÎºÎ¿ÏĦÏİ":4361,"ĠÎ±ÏģÎ¹Î¸":4362,"ĠÎļÎ¿Î¹ÏĦÎ¬Î¶ÎµÎ¹":4363,"ĠÎ¡Î¯ÏĦÎ±":4364,"ĠÏĢÎ±ÏģÎ¬Î¸ÏħÏģÎ¿":4365,"ÎŁÎĿÎ¤ÎĻÎļÎŁ":4366,"ĠÎĳÎĿÎĶÎ¡ÎķÎĳÎ£":4367,"].":4368,"ÏĦÏĤ":4369,"Î»Î®ÏĤ":4370,"ÏĮÏģÏħ":4371,"ĠÎµÎ±ÏħÏĦ":4372,"ÏħÎº":4373,"ÎĽÎµ":4374,"ĠÎ¼Î¿ÏħÎ·":4375,"ĠÎ¬ÏĢ":4376,"ĠÎµÏĢÎ¿ÏĩÎ®":4377,"ĠÎµÎ¯ÏĦÎµ":4378,"ĠÎ§Î¡ÎĹÎ£":4379,"ĠÏħÎ³":4380,"ĠÎ¹Î¾ÎŃÏģÏī":4381,"ĠÎ¬Î»Î»ÏīÎ½":4382,"ĠÎºÎ¿ÏħÎ¼ÎŃÏģÎ±":4383,"ĠÏĢÏģÎ¬Î³Î¼Î±":4384,"Î¬ÎºÎ·ÏĤ":4385,"ĠÎĺÎµÏĮ":4386,"ĠÏĢÎ¿Î¹Î·ÏĦÎ®ÏĤ":4387,"ĠÎ¤Î¿ÏįÏĦÎ¿Î½":4388,"ÏĥÏĦÎµÎ¯ÏĤ":4389,"ĠÎ¼ÏħÎ±Î»":4390,"ÏĦÎŃÎ»ÎµÎ¹":4391,"ĠÎ£ÎºÎ·Î½":4392,"ĠÎĳÎ½ÏĦÏİÎ½Î·":4393,"ĠÎĳÎ½ÏĦÎ¶Î¿ÏħÎ»Î®ÏĤ":4394,"ĠÎ¼ÏīÏģÏĮÎ½":4395,"ÏħÎ¶Î±Î½ÏĦÎ¹Î½":4396,"ĠÎĵÎĻÎĳÎĿÎĿÎĳÎļÎĹÎ£":4397,"30":4398,"ec":4399,"Î½Î¿Ïİ":4400,"ĠÏĦÎ¿ÏĢ":4401,"ÏĩÏĦÏħ":4402,"ĠÎ³Î±Î»":4403,"ĠÎ£ÏĦÏģÎ¬":4404,"ÏĦÏģÎŃ":4405,"ÎĶÎ·Î¼":4406,"ĠÎ¼Î¹ÏĦÎ¬":4407,"ÎĽÎķÎ¦Î©ÎĿ":4408,"ĠÎłÎµÏģÎ¯":4409,"ĠÎķÏħÏĩÎ±ÏģÎ¹ÏĥÏĦÏİ":4410,"ĠÏĢÎµÎ¹ÏģÎ¬Î¶ÎµÎ¹":4411,"ĠÏĢÎµÏģÎ¯ÏĢÏĦÏīÏĥÎ·":4412,"ÏģÎ¯Î¶ÎµÏĦÎ±Î¹":4413,"ĠÎ±ÏģÎºÎµÏĦÎ¬":4414,"ÎµÎ²Î±Î¹":4415,"ĠÎĽÎµÎ¼ÎµÏĥÏĮ":4416,"ĠÏĨÎ¿Î¬":4417,"ĠÎºÎ±ÏģÎŃÎºÎ»Î±":4418,"ĠÎĳÎ»ÎµÎ¾Î¬Î½":4419,"ÎĳÎ¡ÎĻÎ£Î¤ÎŁÎĿÎĻÎļÎĹ":4420,"ĠÎ¦Î»Î¿ÏħÏģÎµÎ½":4421,"ol":4422,"ĠÎİ":4423,"ĠÏĦÎµÏĩ":4424,"Î¯Î¿Î½":4425,"ÎºÎµÏĦÎ±Î¹":4426,"ĠÎºÎµÎ½":4427,"ĠÎµÏĦÎ±Î¹Ïģ":4428,"Î´Ïį":4429,"Î´ÎºÎ¹Î±":4430,"ĠÎ´ÎŃÎºÎ±":4431,"ĠÏĢÎ¿ÏħÎ½":4432,"ÎłÎĳÎĿÎĻÎļÎļÎŁÎ£":4433,"ÎµÏģÎ³Î¬":4434,"Î¿ÏĥÏįÎ½":4435,"ĠÎ¦Î±Î¯":4436,"ÏĦÎ¹ÎºÎ¿":4437,"ÏĦÏģÎ·":4438,"Î¸Î·ÎºÎµÏĤ":4439,"ĠÎ¹Î±ÏĦÏģ":4440,"ĠÏĢÏĮÏĪÎµ":4441,"ĠÎłÎ±ÏĢÎ±":4442,"ÎºÏĮÏĢÎ¿Ïħ":4443,"ĠÎ´Î¿ÏħÎ»ÎµÎ¹Î¬Î½":4444,"ĠÏĥÏįÎ³Ïĩ":4445,"ĠÏĢÎ¹Î¬ÏĥÏī":4446,"ĠÎŃÏģÎµÏħ":4447,"ĠÏĨÎŃÏģÎµÎ¹":4448,"ĠÏĨÎ¹Î»Î¬":4449,"ÎķÎŀÎ©":4450,"Î¿ÏĢÎ¿Î¸Îµ":4451,"ĠÎµÏįÎºÎ¿Î»":4452,"ĠÎºÎ»ÎŃÏĨ":4453,"ĠÏĦÎ±ÏħÏĦÏĮÏĩÏģÎ¿Î½Î±":4454,"ĠÎµÏħÏģÏį":4455,"Î¿ÏħÏĥÎ±":4456,"ĠÎ¼Î½Î®":4457,"Î³ÏĮ":4458,"Î±Î½Î¿Ïħ":4459,"ÎµÎ½Î·":4460,"ÎķÎ¦":4461,"ĠÎķÎ¡ÎĳÎ¤":4462,"Î¼Î±ÏĦÎ¹":4463,"ĠÎ±ÏĢÎ¬Î½Ïī":4464,"ÏģÎ¯ÏĥÏī":4465,"ĠÎ±Î½Î¸":4466,"ĠÎķÎ½Î½ÎµÎ½":4467,"ÏĦÎ¯Î¶ÎµÎ¹":4468,"ĠÎĳÎ½Î¬":4469,"ĠÎĳÎ½Î¸":4470,"ĠÎºÎ±ÏĦÎ±ÏĨÎŃÏģ":4471,"ĠÎ±ÏģÏĢÎ¬":4472,"ĠÎ²Î»ÎŃÏĢÏī":4473,"ĠÏĢÎµÏģÎ¯ÏĢÎ¿Ïħ":4474,"ĠÏĥÎ·Î¼ÎµÎ¯Î¿":4475,"ĠÎºÎ¬Î½ÎµÎ¹ÏĤ":4476,"ĠFLASH":4477,"ĠÎłÎķÎĸ":4478,"ĠÎ³Î»ÏħÏĦ":4479,"ĠÏĦÏģÎ¬ÏĢÎµÎ¶Î±":4480,"ĠÏĩÏīÏģÎ¹ÏĮ":4481,"ĠÎ¤Î¯ÏĢÎ¿ÏĦÎµ":4482,"Î§ÎĳÎĹ":4483,"ĠÏĢÎºÎ¹":4484,"ÎĻÎŁÎ¥":4485,"Î¿ÏįÏģÎº":4486,"ÏĦÎ¿Î¼Î¬":4487,"ĠÎłÏģÏĮ":4488,"Î¼ÎµÏĦÎ±":4489,"Î¥ÎĽ":4490,"ÎłÎ¬":4491,"ÎŃÎ»Î¹":4492,"Î¹ÏİÏĤ":4493,"ĠÎµÎ¹ÏģÏīÎ½":4494,"ĠÏĢÎµÏģÎ¹ÏĢÎ±":4495,"Î±Î¯Î¿Ïħ":4496,"ĠÏĩÎ±Î¼Î·":4497,"ĠÎ¥Î¬ÎºÎ¹Î½":4498,"ĠÎĵÎ¹ÏİÏģÎ³Î¿Ïħ":4499,"ĠÎ¸ÎŃÎ±":4500,"ÎŁÎĵÎŁÎ£":4501,"ĠÏĢÎ¿Î¯Î·Î¼Î±":4502,"ĠÎŃÏģÏīÏĦÎ±":4503,"ĠÏĩÎ±ÏģÎ±ÎºÏĦÎ·":4504,"ĠÎºÏĮÏĨÏĦÎµÎ¹":4505,"ATI":4506,"ĠX":4507,"Î±ÏģÎº":4508,"ĠÏĦÏģÎµ":4509,"Î»ÏĮÎ³":4510,"ĠÎ±ÏģÎ±":4511,"ÏĦÎ·Î¼Î±":4512,"ĠÎŃÏĢ":4513,"Î¾ÎµÏĤ":4514,"ĠÏĮÎ»Î¿":4515,"ÏĥÏĦÎŃÏĤ":4516,"ĠÎºÎ¬Î¼Îµ":4517,"ĠÎĶÏħ":4518,"ĠÏĥÏĦÏģÎ¬":4519,"ĠÏĥÎºÏį":4520,"Î·Î¼ÎŃÎ½Î±":4521,"ĠÎĴÎ±ÏĥÎ¯":4522,"ÏĩÎ±ÏĥÎ±":4523,"ÎºÎ¬Î»Ïħ":4524,"ÏĦÏīÎ¼Î±":4525,"ÏĦÎ¿ÏħÎ¼Î±Î¹":4526,"ĠÎ±ÏħÏĦÎŃÏĤ":4527,"Î½Î·ÏĥÎ·ÏĤ":4528,"Î¬Î¶ÎµÎ¹ÏĤ":4529,"ĠÎ²Î±ÏĥÎ±Î½":4530,"ĠÎºÎ¬ÏĢÎ¿Î¹ÎµÏĤ":4531,"ĠÏĢÏģÏĮÎºÎµÎ¹ÏĦÎ±Î¹":4532,"ĠÎ±ÎºÎ¿ÏįÎµÎ¹":4533,"ĠKÏįÏĢÏģÎ¿":4534,"ĠÎĳÎ³Î±ÏĢ":4535,"ĠÏĢÎ±ÏĢÏĢÎ¿Ïį":4536,"ĠÎµÎ½Î½Î¿ÎµÎ¯ÏĤ":4537,"ĠÎ³ÎµÎ¹ÏĦÎ¿Î½":4538,"22":4539,"40":4540,"59":4541,"ÏģÎ¹ÎºÎ®":4542,"ÏģÎ¿ÏįÏĤ":4543,"ĠÏĦÏįÏĩ":4544,"Î·Î¼ÎŃÎ½Î¿ÏĤ":4545,"ĠÎµÏģÎµÏħ":4546,"Î¶Î¿Î¼Î±Î¹":4547,"Î¿ÏįÏĦÏĥÎ¹Î½":4548,"ĠÎķÏį":4549,"ÏĦÎ¹Î¿ÏĤ":4550,"ĠÎłÎŁÎ¥":4551,"Î±Î»Î±Î¹":4552,"ĠÎ±ÏĢÎµÎ¹":4553,"Î¬Î½Î½Î·":4554,"ĠÏĥÎµÎ»Î¯":4555,"ĠÎĽÎ¬":4556,"ĠÎºÎ¬Î¼Î¿ÏħÎ½":4557,"ÏĢÎµÏģÎ¹":4558,"ÏĦÎŃÏģÎ±ÏĤ":4559,"Î±Î½Î±Î³Î¹Î¬":4560,"ĠÎºÎ±Î½ÎµÎ¯":4561,"ĠÏĢÎ±Î¹ÏĩÎ½":4562,"ĠÎĳÏĢÎ»Î¬":4563,"ĠÎ´Î¹Î¬ÏĨÎ¿ÏģÎ±":4564,"ĠÏĢÎµÏģÎ¹ÏĥÏĥÏĮÏĦÎµÏģÎ¿":4565,"ĠÏĥÏĦÏģÎ±ÏĦÎ¹Ïİ":4566,"ĠÎĽÎ¬ÏģÎ½Î±ÎºÎ±":4567,"ĠÎºÏħÎ²ÎŃÏģÎ½Î·ÏĥÎ·":4568,"il":4569,"Î¬Î¿Ïħ":4570,"Î¼Î¯Î±":4571,"ÏĩÎ±Î¹":4572,"ĠÎ³Î¹Î¿":4573,"ĠÎľÎ·Î½":4574,"ĠÎłÎ±ÏĢ":4575,"ĠÏĨÎ±Î¹Î½":4576,"ĠÎ±ÏĢÎ¿Î³":4577,"ĠÏĩÏģÎ¹ÏĥÏĦÎ¹Î±Î½":4578,"ĠÎ»ÏįÏĥÎ·":4579,"Î¼ÎŃÎ½Î·ÏĤ":4580,"ĠÎ§Îĳ":4581,"ÏĥÎµÎ¹Î·":4582,"ĠÎ¼Î±ÎºÎ±":4583,"Î¿ÏĢÎ¬":4584,"ĠÎµÎºÏĨÏģÎ±":4585,"ĠÏĥÏħÎ½Î±Î½":4586,"ĠÎĪÏĩÏī":4587,"Î¿ÏĩÎ±":4588,"Î¿ÎºÎ¿Î¼":4589,"Î»Î¿Î³Î±":4590,"ĠÎŃÎºÎ´Î¿ÏĥÎ·":4591,"ĠÏĦÎ·Î»ÎµÏĨÏīÎ½":4592,"ĠÎ¹Î´ÎŃÎ±":4593,"ĠÎºÎ¬Î½Î¿ÏħÎ½":4594,"1945":4595,"ĠÎľÎ¹ÏĩÎ±Î·Î»Î¯Î´Î·ÏĤ":4596,"ĠÏĥÎ¯Î³Î¿Ïħ":4597,"ĠÎ¤Î¡ÎĳÎłÎķ":4598,"58":4599,"nd":4600,"Î±ÏĢÎ¿":4601,"Î»Î¹ÎºÎ¬":4602,"Î»Î¿ÏħÎ¼Îµ":4603,"Î¼Ïį":4604,"Î¼Î¹Î¬":4605,"ĠÎ¼Î±Î½Î±":4606,"Î®ÏĨ":4607,"Î´Î¯Î´":4608,"Î¡ÎŁÎĶ":4609,"ĠÏĦÎ¿ÏħÎ¿":4610,"Î¬Î½Î½Î·ÏĤ":4611,"ÏģÎ¯Î´Î·":4612,"ÏĦÏģÎ¿Î½":4613,"ÏĥÏĦÎ·ÎºÎ±":4614,"Î³Î¬ÏģÎ¹":4615,"ÏħÎ½Î±Î¹":4616,"ĠÏĦÏĮÏĢÎ¿":4617,"Î¤ÎķÎ¡ÎĻÎĿÎĳ":4618,"ĠÏĩÎ±ÏģÎµÎ¯ÏĤ":4619,"ĠÏĥÏħÎ¼ÏĨÏīÎ½":4620,"ĠÎ³Î¹Î½ÎµÎ¯":4621,"ĠÏĥÏħÎ¶Î®ÏĦÎ·ÏĥÎ·":4622,"ĠÎ£ÏĦÎµÏĨÎ±Î½Î®":4623,"ĠÏĥÎºÎŃÏĪÎ·":4624,"Î¿Î½Î´Î¯Î½Î¿":4625,"ÏģÎ¯Î½":4626,"Î»ÎµÏħ":4627,"ĠÏĢÏĮÏĥÎ¿Î½":4628,"ÏīÎ½Î±":4629,"ĠÎºÏį":4630,"ĠÏĦÎ¿ÏħÏģÎº":4631,"ĠÎµÎ½Î½Î±":4632,"ĠÎ²Î¿Î»":4633,"ÏİÎ½ÏħÎ¼":4634,"ÎµÏģÏįÎ½ÎµÎ¹":4635,"ĠÎ®Î²ÏģÎ±":4636,"ÏĢÏģÏī":4637,"ÏĦÎ¯ÎµÏĤ":4638,"ĠÏĥÎºÎ¬Î½Î´":4639,"ĠÎ¹Î·":4640,"ĠÎŃÏĩÎ¿ÏħÎ¼ÎµÎ½":4641,"Î¿ÎºÏģÎ±":4642,"Î²Î±ÏĥÎ·":4643,"ĠÏĢÏĮÎ´Î¹Î±":4644,"ĠÎ±ÏĨÎ¿Ïħ":4645,"ĠÏĢÏģÎ¿ÏĥÏĦÎ±":4646,"ĠÏĢÎ¿Î¹Î¿Î½":4647,"ĠÎ¡Ïī":4648,"ĠÎºÎ±ÏĨÎµÎ½":4649,"ĠÏħÏĢÏĮÎ¸ÎµÏĥÎ·":4650,"ĠÎ±Î½Î¸ÏģÏİÏĢÎ¿ÏħÏĤ":4651,"Î´ÏģÏħÎ¼Î±":4652,"ÎµÎ²Î±Î¯":4653,"29":4654,"Î½Î¿ÏĤ":4655,"ĠÎºÎ·":4656,"ĠÎºÎ»Î·":4657,"Î³ÏīÎ½":4658,"Î³ÎŃÏĤ":4659,"ĠÎķÏħÏģÏİ":4660,"ĠÎŃÏĢÎ±Î¹":4661,"Î¼Î±Îº":4662,"ĠÎľÏĢÎ±":4663,"ĠÏĩÎ±Î¹":4664,"ĠÎ§Î¬":4665,"ĠÎ¾Î±ÏĨÎ½Î¹ÎºÎ¬":4666,"ĠÎĻÎµÏģ":4667,"ĠÏħÏĢÏĮÏĥ":4668,"ÏįÏĢÏģÎ¿ÏĤ":4669,"ĠÏİÏĥÏĦÎµ":4670,"ÏĢÎ¿ÏįÎ´Î±":4671,"ĠÎ©ÏĤ":4672,"ĠÎĳÎ³Î¯Î¿Ïħ":4673,"ĠÎ»ÎµÏĢÏĦÏĮ":4674,"all":4675,"ĠÎ£Î¬Î²Î²Î±":4676,"ĠÎ¦Î¿Î¯Î²Î¿ÏĤ":4677,"ĠÏĩÏģÎµÎ¹Î¬Î¶ÎµÏĦÎ±Î¹":4678,"ÏģÎ¹Î¬ÎºÎ¿ÏĤ":4679,"ad":4680,"ĠÏĦÎµÎº":4681,"ÏīÏĥÎµ":4682,"ĠÎµÎ¹Î½Î±Î¹":4683,"ÏĩÎŃ":4684,"ÏĨÏį":4685,"ÎµÎ½Î¿":4686,"ĠÎ³Î»Î®":4687,"ÏĦÎ·ÏĦÎ±ÏĤ":4688,"ÏĦÎµÏģÏĮ":4689,"ĠÎŃÎ¾Î¹":4690,"ĠÎĳÎ»Î¯":4691,"ĠÎĳÎ¼Î¼Î¿ÏĩÏİÏĥÏĦÎ¿Ïħ":4692,"ĠÎłÎ®":4693,"ĠÎłÏģÎ¹Î½":4694,"ĠÏĨÎµÏħÎ³ÎµÎ¹":4695,"ÎļÏħ":4696,"ĠÎĵÎ¹Ïī":4697,"ÎŃÏģÎµÏĤ":4698,"ĠÏĢÎ¿ÏĦÎ±":4699,"ÎĻÎ©ÎĿÎĻÎĳ":4700,"ĠÎĪÎº":4701,"ĠÎĻÎ½":4702,"ĠÏĪÏħ":4703,"ÎĺÎµ":4704,"ĠÎļÏįÏĢÏģÎ¿Î½":4705,"ĠÎ´ÏħÏĥÏĦÏħÏĩ":4706,"ĠÏĢÎ±Î½ÏĦÎ¿Ïį":4707,"Ġ25":4708,"ĠÎ±ÏĢÎ¿Î¸Î®ÎºÎ·":4709,"ĠÏĦÎ¬ÏĩÎ±":4710,"ĠÎºÎ±ÏĦÎ±Î»Î¬Î²ÎµÎ¹ÏĤ":4711,"ĠÎ³Î¿Î½ÎµÎ¯ÏĤ":4712,"ĠÎ¾ÎµÏĩÏī":4713,"ĠÎĵÎµÏīÏģÎ³":4714,"ĠÎºÎ±Î¸Î·Î¼ÎµÏģÎ¹Î½":4715,"ÎŁÎĵÎ¡ÎĳÎ¦ÎĻÎĳ":4716,"ĠÎ¦Î»Î¿ÏħÏģÎµÎ½ÏĦÎ¶Î¿Ïį":4717,"Ġe":4718,"Î½Î·Î¼":4719,"ÏĢÎ¿Ïģ":4720,"ĠÎ¼Î¬Î½":4721,"ĠÎºÏįÎº":4722,"ÎŃÎ´":4723,"ĠÎµÏģ":4724,"ĠÎķÎļ":4725,"ĠÎłÎ¬Î½":4726,"ĠÎ¤ÏĥÎ¬":4727,"ĠÏĩÎ¬Î½":4728,"ÏĥÏĦÏĮÏĤ":4729,"ÎºÎ±ÏĦÏī":4730,"ÎĽÎĳÎĿÎŁ":4731,"ÏİÎ½ÎµÏĤ":4732,"ĠÎĽÎŁ":4733,"ÏīÏĥÎµÏĤ":4734,"ĠÎµÏĢÎ¹ÏĩÎµÎ¹":4735,"ĠÎļÎ±ÏĦÎ±":4736,"ĠÎµÏħÏĩÎ±":4737,"ĠÎ¬Î½Îµ":4738,"ĠÎ¿Î¼ÏĢÏģÏĮÏĤ":4739,"ĠÏĢÎ»Î±Î¯":4740,"ĠÎ³Î¬Î¼Î¿Ïħ":4741,"Î¾ÎµÏģÏī":4742,"ĠÎºÎ¿Î»Î»ÎŃÎ³Î¹Î¿":4743,"ĠÎ´Î¬ÎºÏģÏħÎ±":4744,"Î±Ïħ":4745,"ÏĨÏĮ":4746,"ÏįÏģÎ±":4747,"ÏĦÎ·ÏĥÎµÎ½":4748,"ĠÎķÎĿÎĳ":4749,"ĠÎĳÏĤ":4750,"ĠÎĳÎ¦":4751,"Î¯Î½Î½ÎµÎ¹":4752,"ĠÎºÎ±ÏĦÎ±Î½":4753,"ÏĮÎ½Î·":4754,"Î¿Î»Î¬Î²":4755,"ĠÏĢÎ±ÎµÎ¹ÏĤ":4756,"ÎºÎ±Î¼Î±":4757,"Î»Î·ÏĪÎ·":4758,"ĠÏĢÎ¬Î¼ÎµÎ½":4759,"ÎĶÎµ":4760,"ĠÎ®ÏĦÎ±Î½Î·":4761,"ĠÎĻÎ¿ÏħÎ»Î¯Î¿Ïħ":4762,"ĠÎ¿ÏįÎ»Î»Î¿Î½":4763,"ĠÎ²Î¬Î»ÎµÎ¹":4764,"ĠÎŃÏģÎ³Î±":4765,"ĠÎ»Î»Î¯Î¿":4766,"ĠÏĩÏģÎ¿Î½ÏİÎ½":4767,"ĠÎĽÎĳÎľÎłÎĹÎ£":4768,"ĠÏĥÎ¿Î²Î±ÏģÏĮ":4769,"ĠÎŃÏĢÏģÎµÏĢÎµÎ½":4770,"ĠÎļÏīÎ½ÏĥÏĦÎ±Î½ÏĦÎ¹Î½":4771,"ĠÎ´ÏįÎ½Î±Î¼Î·":4772,"ĠÎľÎĻÎ§ÎĳÎĹ":4773,"ĠÎºÎ¿ÏħÎ´Î¿ÏįÎ½Î¹":4774,"ĠÎłÎķÎĸÎŁÎĵÎ¡ÎĳÎ¦ÎĻÎĳ":4775,"ÏĢÎ½Î¿":4776,"ĠÎºÎ¿Î»":4777,"ĠÎºÎŃÏģ":4778,"ĠÏĥÎ¯":4779,"ĠÏĥÏĥÎ¹":4780,"ĠÎµÎ¼Î±":4781,"ÎŁÎ¤ÎĹÎ£":4782,"ĠÎ±ÏĦ":4783,"Î¸Î¿ÏħÎ½":4784,"ÏĩÎ¿ÏħÏĤ":4785,"Î»Î»ÎµÎ¹":4786,"ĠÎļÎ»ÎµÎ¹":4787,"ĠÎłÎ»Î·":4788,"ĠÎłÏİÏĤ":4789,"ĠÎµÎ½Î±Î½ÏĦÎ¯Î¿Î½":4790,"ĠÎ¿Î»Î¿Îº":4791,"ÏģÎ¬ÎºÎ¹":4792,"ĠÏĩÎ±Î»":4793,"ÎŃÎ½Î½Î·ÏĥÎ·":4794,"ĠÎµÏĢÎ¬":4795,"Î¹ÏĥÎ¼ÎŃÎ½Î±":4796,"Î¼ÎµÎ½Î¿ÏĤ":4797,"Î§Î©":4798,"ĠÏħÏĢÎµ":4799,"Î¹ÎºÎ®Î½":4800,"Î¤ÎĳÎ£":4801,"ĠÎ±ÏħÏģÎ¹Î¿":4802,"ÏĮÎ¼Î±ÏĥÏĦÎµ":4803,"ÎľÎķÎ£ÎĹ":4804,"ĠÏĩÎ¬ÏģÎ·":4805,"ĠÎ»ÎµÏī":4806,"ĠÏĦÎ·Î»ÎµÏĨÏīÎ½Î¿":4807,"ĠÎ£ÎĳÎĴÎĴÎŁÎ¥ÎĽÎĳ":4808,"ĠÎ§ÏģÎ¹ÏĥÏĦÎ¯Î½Î±":4809,"ĠÎ½ÏĮÎ·Î¼Î±":4810,"ĠÎĳÎ½ÏĦÎ¶Î¿ÏħÎ»Î®":4811,"ĠÎĶÎ©ÎľÎĳÎ¤ÎĻÎŁ":4812,"ĠÎ³ÏħÏģÎ½Î¬":4813,"ĠÏĢÎ±ÏģÎ¿ÏħÏĥÎ¯Î±":4814,"ĠÏĥÏįÎ³ÏĩÏģÎ¿Î½":4815,"ut":4816,"Î½ÎŃ":4817,"ĠÏĦÎµÏĦ":4818,"ĠÏĦÎŃÎ»ÎµÎ¹Î±":4819,"ĠÏĦÎ¿ÏĢÎ¿Î¸Îµ":4820,"ÏĮÎ»Î·":4821,"ÏĮÎ´Î¿Ïħ":4822,"ÏĨÎ±Î¹":4823,"Î¹ÎºÎ¿Î½":4824,"ĠÏĦÎ¿ÏħÎ½":4825,"ĠÎ´Î¹Ïĥ":4826,"ÎŁÎĴ":4827,"ĠÎ¼ÎµÏĦÎ±Î½":4828,"ÏĦÎ¹ÏĥÎ¼Î¿Ïį":4829,"ĠÏĨÎŃ":4830,"ĠÎºÎ±ÏĦÎ·":4831,"Î¬Î½Î¹Î±":4832,"Î¥Î¡ÎŁÎ£":4833,"ĠÎ¦Î±":4834,"ĠÎ·ÏģÎµ":4835,"ĠÎºÎ±Î»ÏĮÏĤ":4836,"ĠÏĦÎ¿ÏįÏĦÎ·Î½":4837,"ĠÎ±ÏħÏĦÎ®Î½":4838,"Î¤ÎĳÎĻ":4839,"Î¹Î±ÎºÏĮ":4840,"ÏĮÎ»Î¿Î³":4841,"ĠÏĥÎ·Îº":4842,"Î»Î¿Î³Î®":4843,"ÏĥÏĦÎ®Î¼Î¹Î¿":4844,"ĠÏĢÎ»Î·Î¸Ïħ":4845,"ĠÎºÎ¬ÏĢÎ¿Î¹Î¿":4846,"ĠÎ»ÎŃÎ¾Î·":4847,"ĠÎŃÏģÎ³Î¿Ïħ":4848,"ĠÎ½ÎµÏģÏĮÎ½":4849,"ĠÎĶÎ·Î¼Î®":4850,"ĠÎµÎ»Î¬Î»ÎµÎ½":4851,"ĠÎºÎ±ÎºÏĮÎ½":4852,"ĠÎľÎ¹ÏĩÎ±Î·Î»Î¯Î´Î·":4853,"ATION":4854,"back":4855,"ĠÏĦÏħÏĩ":4856,"Î·Î¼ÎŃÎ½Î·":4857,"Î¬ÏĥÎ¹":4858,"ĠÏĢÎ¯Î½ÎµÎ¹":4859,"ĠÏĥÏĦÎµÎ¯":4860,"Î®Î¼Î±ÏĦÎ¿ÏĤ":4861,"Î®Î¼Î±ÏĦÎ¬":4862,"Î´ÎŃÏĩ":4863,"Î¿ÏįÏĢÎ¿Î»":4864,"Î¤Î¡":4865,"ÎķÎº":4866,"ĠÎ´Î¹Ïİ":4867,"ĠÎŃÏīÏĤ":4868,"Î»Î»Î®Î½":4869,"ĠÎºÎ±Î¹Î½Î¿Ïį":4870,"ĠÏĮÎ½":4871,"ĠÏĮÎ»Î·":4872,"ĠÏĢÎ¿Î´Î¬":4873,"ĠÏĢÎ¬Ïģ":4874,"ÏģÎµÏĨ":4875,"ĠÎ¼ÎŃÏĥ":4876,"ĠÏĥÏħÎ½Î¬":4877,"ĠÎ®ÏĦÎ±Î½Îµ":4878,"Î¿Î´Î¿Ïĩ":4879,"ĠÏħÏĢÎŃÏģ":4880,"ÎĺÎĳ":4881,"ÏĦÎµÏģÎµÏĤ":4882,"Î±Î±Î±":4883,"ĠÎ½Î¿Î¼Î¯Î¶ÎµÎ¹ÏĤ":4884,"ĠÎµÎºÎµÎ¯Î½Î·":4885,"ÎµÎ²ÏģÎ¿Ïħ":4886,"ÎłÎ±ÏĢÎ¿ÏįÏĦÏĥÎ¹Î½":4887,"ĠÎ£ÏħÎ³Î½ÏİÎ¼Î·":4888,"LOCATION":4889,"ĠÎ¬ÏģÎºÎµ":4890,"ĠÎļÏįÏģÎ¹Îµ":4891,")-":4892,"Î±Î¼Îµ":4893,"ÏģÎ¿Î¹":4894,"ÏĥÎµÏģ":4895,"Î±Î½Î¿":4896,"Î¸Î¬Î½":4897,"Î¸ÏħÎ½":4898,"ĠÎ³Î±Î¯":4899,"ĠÎķÎºÎ±ÏĦÎ¬":4900,"ĠÎłÎĳÎ¡":4901,"ĠÎµÎ½Î¸Î¿ÏħÏĥÎ¹Î±":4902,"ĠÎ¿Î½ÎµÎ¹":4903,"ĠÎºÎ±ÏĦÎŃ":4904,"ÏģÎ¯Î½Î±":4905,"ĠÎµÎ¯ÏĥÎ±":4906,"ĠÎµÎ¯Î´ÎµÎ½":4907,"ÎŃÎ»Î¹Î±":4908,"ÏģÎºÎ¿ÏĤ":4909,"ĠÏĦÎ¹Î¼":4910,"ÏĥÎºÎ¿":4911,"ĠÎļÎĳÎ¤ÎķÎ¡ÎĻÎĿÎĳ":4912,"ÏĦÎ¿ÏįÎ¼Îµ":4913,"Î»Î¿Î³Î¿":4914,"ĠÎŃÎºÎ±Î¼Îµ":4915,"ĠÎļÎ¬Î¸Îµ":4916,"ÏģÏĮÎ½Î¹Î±":4917,"ĠÎµÏĢÎ¯ÏĥÎ·":4918,"ĠÎ±Î´ÎµÏģ":4919,"ĠFlash":4920,"ĠÏĥÎ¯Î¿ÏħÏģÎ±":4921,"ĠÎĳÎ½Î½ÎŃÏĦÏĦÎ±":4922,"ĠÎ¬Î½Î¸ÏģÏīÏĢÎ¿Î¹":4923,"ĠÎķÎ»Î»Î¬Î´Î±":4924,"ĠÎĽÎ¿Î³Î¿ÏĦÎµÏĩÎ½":4925,"ĠÎ§Î¡ÎĹÎ£Î¤ÎŁÎ£":4926,"Î¨":4927,"Î±Î¼ÎµÎ½":4928,"ÏĮÏĩ":4929,"ĠÎºÎ®":4930,"Î³ÏģÎ±":4931,"Î³Î½Ïī":4932,"ĠÎ±Î¸ÏģÏİ":4933,"ÏİÏĦÎ±":4934,"ÏĨÏħÎ³":4935,"Î¤Î·Î½":4936,"ĠÎ´ÏĮ":4937,"ĠÎ³ÏħÎ½Î±Î¹":4938,"Î»Î»Î¯":4939,"Î²Îµ":4940,"ĠÎĳÎ¡Î§":4941,"ÎµÎ¯Î»Î·":4942,"Î¾Î¬":4943,"ĠÎ£Î·":4944,"ĠÎ£ÏĦÎŃ":4945,"Î¬Î½ÏĦÎ¹Î±":4946,"ĠÎ²Î¹Î±":4947,"ĠÎĵÎ¡ÎĳÎ¦":4948,"ĠÎºÎ¬Ïģ":4949,"Î»Î±Î¼ÏĢ":4950,"Î»Î·Î¼Î±":4951,"ÎĶÎµÎ½":4952,"Î¦ÎŁ":4953,"ÎĻÎļÎĽÎĹÎ£":4954,"ĠÎĴÎ±Ïģ":4955,"ÎºÎ¬Ïģ":4956,"ĠÎµÏĥÎŃÎ½Î±":4957,"ÏģÎ¹ÏĥÎ¼ÎŃÎ½Î·":4958,"ĠÎ±Î½Î¬ÏĥÎ±":4959,"Î¤ÎķÎ¡ÎĹ":4960,"ĠÎµÏĢÎ®ÎµÎ½":4961,"ÏĮÎ¼ÎµÎ½Î¿":4962,"Î´Î¿Î¾":4963,"ĠÎļÎĳÎ¡ÎĳÎĵÎĻÎ©Î¡ÎļÎĹ":4964,"orge":4965,"ĠÎ±Î»Î®Î¸ÎµÎ¹Î±":4966,"ÎĨÎ½":4967,"ĠÏĦÏģÎŃÏĩÎµÎ¹":4968,"ĠÏĦÎ¿ÏįÏĦÎ·Î·":4969,"ĠÎ¼Î¿ÏģÏĨÎ®":4970,"ĠÏĥÏĦÏģÎ±ÏĦÎ¹Ïī":4971,"ĠÏĢÏģÎ¿ÏĩÏīÏģÎ¬":4972,"ĠÎķÎ»ÎµÎ³Îº":4973,"ĠÎŃÎ½Î½Î¿Î¹Î±Î½":4974,"56":4975,"eorge":4976,"ra":4977,"Î½Î¿Î´":4978,"Î»Î®Î½":4979,"ĠÎµÏĥÏīÏĦÎµÏģ":4980,"ÏħÏģÎ¬":4981,"ĠÎ½Ïį":4982,"Î¡ÎŁÎĺ":4983,"Î¡ÎļÎĳÎ£":4984,"ÎķÎĿÎĳ":4985,"ĠÎ³Îº":4986,"ĠÎķÏĢÎ¯":4987,"ĠÎľÎ¿Î½":4988,"ĠÎ¿ÏĢÎ¿Î¹":4989,"ĠÎ¿ÏģÎ¸":4990,"ĠÎ¸ÎºÎ¹Î±":4991,"ÎļÏįÏĢÏģÎ¿Ïħ":4992,"ÏĥÏĦÎ®ÏĤ":4993,"Î¹ÏĥÏĦÎ·":4994,"ÏģÎºÎµÎ¹Î±":4995,"ĠÏĢÎ¬Î³ÎºÎ¿":4996,"ÏĥÎºÎ±Î»":4997,"ÏĢÎ¬ÏĥÎ¼Î±ÏĦÎ±":4998,"ÏģÎ®Î³Î¿Ïģ":4999,"ÎĻÎĿÎķÎĻ":5000,"ĠÎĺÎµÎ¿Ïį":5001,"ĠÎľÎĳÎ¡ÎļÎŁÎ£":5002,"ĠÎ±ÎºÎ¿ÏįÏĥÎµÎ¹":5003,"ĠÎ¸ÏīÏģÎµÎ¯":5004,"ÎµÎµÎµ":5005,"ĠÎ³Î»ÏīÏĥÏĥ":5006,"ĠÎ¦ÏģÏĮÏĥÏīÏĤ":5007,"Î¹ÎµÏĢÎ¹Ïĥ":5008,"ÏĢÎ¿ÏįÏĤ":5009,"Î±Î¹Î½ÎµÎ¹":5010,"ĠÎµÎ¶":5011,"ĠÎµÎ»ÎµÏį":5012,"Î®Î³Î·":5013,"ĠÎ´ÏħÎ½Î¬":5014,"ĠÎ³ÎŃÎ½":5015,"ĠÎķÏĩÎµÎ¹":5016,"ÎŁÎĹ":5017,"ĠÎŃÎ¼":5018,"ĠÎŃÏĥÏĦÏī":5019,"ĠÎļÏİÏĥÏĦÎ±ÏĤ":5020,"ĠÎłÏģÏİ":5021,"ĠÏĮÎ»ÎµÏĤ":5022,"ĠÏĮÎ»Î¿ÏħÏĤ":5023,"ÎŁÎ¥ÎĴ":5024,"ĠÎĵÎ¹ÏīÏģÎº":5025,"ĠÎ±Î½Î¿Î¹Îº":5026,"ĠÎ±ÏĢÏĮÏĨÎ±ÏĥÎ·":5027,"ĠÎ¦ÏģÎ±Î³Îº":5028,"ÏĥÎºÎ¬":5029,"ĠÎ´Î¹Î±ÏĢ":5030,"ÏĢÎµÎ¹ÏĦÎ±":5031,"ĠÎĻÎ£":5032,"ÏĮÎ»Î¹Î±":5033,"ĠÎķÎ¯ÏĢÎ±":5034,"ĠÎ»ÎŃÎ¾ÎµÎ¹ÏĤ":5035,"ĠÎ±ÎºÎ¿ÏįÏī":5036,"Î¹Î²Î±Î½":5037,"ĠÏĢÎµÏģÎ½":5038,"ĠÏĨÎ¯Î»Î¿ÏĤ":5039,"ĠÏĦÎ·Î»ÎµÏĮÏģÎ±":5040,"ĠÎ³Î¹Î±ÏĦÏģÎŃ":5041,"ĠÎ£ÏĦÎ±Ïħ":5042,"ĠÎ±Î½Î¸ÏģÏİÏĢÏīÎ½":5043,"Î»Î¹Î¿Î¸Î®ÎºÎ·":5044,"ÏĨÏģÎ±ÏĥÎ·":5045,"ĠÎ¼Î®Î½Î±":5046,"ĠÎ¼ÎµÎ¯Î½Ïī":5047,"ĠÎľÏĢÎ±Î¯Î½ÎµÎ¹Î·":5048,"Î¿Î»Î¿ÏĨÎ¿Î½":5049,"st":5050,"ÏģÎŃÏĤ":5051,"ĠÎ±ÏģÎµ":5052,"ÏģÎ±Î¯":5053,"ĠÎľÎ¿ÏħÏĥ":5054,"ĠÏĨÏĦÏīÏĩ":5055,"Î¥Î¡":5056,"ÏģÎ¯Î±Î½":5057,"ÎĵÎµ":5058,"ÎµÏħÏĦÎŃÏģ":5059,"Î¹ÏĥÏĦÎµÎ¯":5060,"Î¼ÎµÎ½Îµ":5061,"ĠÎ§ÎĳÎľÎłÎĹÎ£":5062,"ĠÎ¼Î±ÏģÏĦ":5063,"ĠÏĢÎ¿ÏĦÎ¶":5064,"ÏĥÎºÎµ":5065,"Î»ÎŃÎ³ÎµÏĦÎ±Î¹":5066,"ĠÎ±Î³ÏīÎ½Î¯Î±":5067,"ĠÎ¶Î®ÏĦÎ·":5068,"ĠÏħÏĢÎ¿ÏĪ":5069,"ĠÎµÏĢÎ¹Î²":5070,"ĠÎµÏĢÎ¹ÏĩÎµÎ¯":5071,"ĠÏĢÎ±ÏģÎ¬Î´ÎµÎ¹Î³Î¼Î±":5072,"ĠÎ´Î±Îº":5073,"ĠÎ¸ÎŃÎ¼Î±ÏĦÎ±":5074,"Î¼Î¿Î½Î®":5075,"Î·ÏĥÎµÏĤ":5076,"ĠÎ»ÎŃÏī":5077,"189":5078,"Ġ189":5079,"Î»Î±Î²Îµ":5080,"ĠÎ¿Î¹ÎºÎ¿Î³ÎµÎ½":5081,"ÎºÎºÎ¹Î½":5082,"ĠÎľÎłÎŁÎ¥":5083,"ĠÎµÏĨÎ·Î¼ÎµÏģÎ¯":5084,"Î¡ÎŁÎĺÎķ":5085,"ÏĦÏĦÎ±":5086,"Î½Î¹Î¬":5087,"Î·Î¸":5088,"ÏĥÏĥÎµÎ¹":5089,"Î¼Î¯Î½":5090,"ÏĢÎ¯Î¶Ïī":5091,"ĠÏĢÎ½ÎµÏħ":5092,"ĠÎ¼Ïį":5093,"ĠÏĥÎ²":5094,"ĠÏĥÏĢÎ¬":5095,"ĠÎµÎ¼Îµ":5096,"Î³Î¿Î½ÏĦÎ±Î¹":5097,"ĠÎ½Î¬Îº":5098,"ÏĩÏīÏģ":5099,"Î¹ÎºÎ±Î½":5100,"ĠÎ³Î½Ïİ":5101,"Î»Î»Î±Î½":5102,"Î²Î±ÏĤ":5103,"ĠÎļÏĮ":5104,"ĠÎłÏģÎµ":5105,"ÏĦÎ¬ÎºÎ¹":5106,"ÏĥÏĦÎ¹ÎºÎŃÏĤ":5107,"ĠÏĥÏħÎ½ÎµÎ¹":5108,"Î¡ÎŁÎ£ÎŁÎ¥":5109,"ĠÎ¼Î±ÏĩÎ±":5110,"ĠÏĢÎ¬ÏģÎµÎ¹ÏĤ":5111,"Î¼Î¬ÏĦÎ±":5112,"ĠÎ¶Î®":5113,"ĠÎ¹Î¾":5114,"Î¿ÏĨÏį":5115,"ĠÎŃÎ½Î½Î¿Î¹Î±":5116,"ĠÏĢÎ»Î¬Î½Î¿":5117,"ÎĳÎ§ÎĳÎ¡ÎĻÎĳÎ£":5118,"ĠÎĳÎ»Î¯ÎºÎ·":5119,"im":5120,"yp":5121,"Î¬ÏģÎ¹":5122,"Î¼Î¿Ïĥ":5123,"Î¼Î¬Î½Î¹":5124,"ĠÏĥÏīÏĥÏĦÎ¬":5125,"ÏħÎ»":5126,"Î³ÏģÎ¬":5127,"ÏĨÎ¹Î±":5128,"ĠÎ´Î¿Ïį":5129,"ĠÎ³Î·ÏĤ":5130,"Î¾Î·Î½":5131,"ĠÏĢÎ±ÏĢÎ¿Ïį":5132,"ĠÎĵÎµÎ¹Î±":5133,"ĠÎŁÎº":5134,"ĠÎĿÎ¯ÎºÎ¿ÏĤ":5135,"ĠÎķÎ½Î½Î¬":5136,"ĠÎľÎķÎ¡":5137,"Î±ÏģÎ¯Î±":5138,"ĠÎĴÎĳÎĽ":5139,"Î²Î±ÏģÎ¬":5140,"Î´Î¹Î¿Ïį":5141,"ĠÏħÏĢÎ½Î¿Î´":5142,"ĠÎºÏĮÎ¼Î¼Î±":5143,"ÏĦÎµÏģÎ·ÏĤ":5144,"ĠÎºÏħÎ²ÎµÏģ":5145,"ÎŁÎĽÎŁ":5146,"Î»ÎµÎ¯Î¿Ïħ":5147,"Î¹Î»Î¹Î¬":5148,"ĠÎķÎ¹ÏĢÎ±":5149,"ĠÎ´ÏİÏĥÎµÎ¹":5150,"187":5151,"ĠÏĥÏĩÎ¿Î»ÎµÎ¯Î¿":5152,"ĠÎłÎ¿Î»Î»Î¬":5153,"Î¿ÎµÎ¼Î²ÏģÎ¯Î¿Ïħ":5154,"ĠÎĻÏĥÏĦÎ¿ÏģÎ¯Î±":5155,"ĠÏĢÏģÎ¿ÏĥÏĢÎ¬Î¸ÎµÎ¹Î±":5156,"ĠÎ¹Î´Î¹Î±Î¯ÏĦÎµÏģÎ±":5157,".).":5158,"28":5159,"ter":5160,"ÏĥÎ¼ÎŃÎ½Î¿":5161,"ÏĮÏĢÎ¿Ïħ":5162,"ĠÏĥÎµÏģ":5163,"ĠÎµÏĪ":5164,"ĠÎ½ÎµÏħ":5165,"Î¸Î¸ÎµÎ½":5166,"Î´Î¹ÎºÎ®":5167,"Î´ÎµÏĩ":5168,"Î¤ÎŁÎ¥":5169,"ÏĦÎ·ÎºÎµÎ½":5170,"ĠÏĦÎ±Î¾Î¹":5171,"Î¹ÏĥÏĥÎ±":5172,"ÏĢÏģÏĮ":5173,"ĠÎ·Î¼ÎŃÏģÎ±":5174,"ÎĶÎĻÎĳ":5175,"ĠÏĥÎºÎ»Î·":5176,"Î»Î¹ÎµÏĤ":5177,"ĠÏĢÏģÎ¿Î²":5178,"ĠÎ¥Î£":5179,"ĠÏĦÏģÎ¿Î¼":5180,"ĠÎ¼Î¿Î½Î±Ïĩ":5181,"ĠÏĨÏīÎ½Î¬Î¶ÎµÎ¹":5182,"ĠÎ±ÏģÎºÎŃÏĪ":5183,"ĠÏĢÎ¿Î»Î¹ÏĦÎ¹ÎºÎ®":5184,"Ġ1963":5185,"ĠÎĳÏģÏĩÎ¹ÎµÏĢÎ¯ÏĥÎº":5186,"ĠÎ²Î¹Î²Î»Î¯Î±":5187,"ĠÎ¼Î¹Î»Î®ÏĥÏī":5188,"ĠÎ³ÏģÎ±Î¼Î¼Î±":5189,"Î»ÎµÎ½Î±":5190,"ĠÏĦÎ¿ÏįÎ½ÏĦÎ¿":5191,"ÎµÏħÎ¸ÏħÎ½":5192,"ĠÎºÎ»Î¯Î¼Î±":5193,"ĠÎ³Î»Î®Î¿ÏģÎ±":5194,"Ġy":5195,"ĠÏĦÎµÏģÎ¬":5196,"Î¼Î¹Î½":5197,"ÏİÏĥÏĦÎ±":5198,"ÏĦÎµÏĥÎ±Î¹":5199,"Î»Î»Î®":5200,"ĠÎµÎ½Î¹":5201,"ĠÎ²Î¿ÏħÎ½Î¬":5202,"ĠÏĢÎ±Î³":5203,"ĠÎºÎ¬ÏĢÏīÏĤ":5204,"ĠÎ±Î½Î½Î¿Î¯":5205,"ĠÎµÎ¯Î´Î¿ÏĤ":5206,"Ġ11":5207,"Î»ÎŃÎº":5208,"ÏĥÏĦÎ·ÏĤ":5209,"ĠÎ¼Î¬Î¸Ïī":5210,"ÎĳÎ¡Î¤ÎķÎ¡":5211,"ÏĢÎµÎ´Î¿":5212,"ĠÎµÏĥÏħÎ½":5213,"ĠÏĦÏģÎ±ÏĢÎµ":5214,"ĠÏĩÏīÏģÎ¹Î¬":5215,"ĠÎļÎ¬ÏĦÏĥÎµ":5216,"Î¸ÏģÏīÏĢÎ¿":5217,"Ġ34":5218,"ĠÏĥÏħÎ¼Î²Î±Î¯Î½ÎµÎ¹":5219,"ĠÏĢÎ¿Î»Î»Î¿Î¯":5220,"ĠÏĨÏīÎ½ÎŃÏĤ":5221,"ĠÎľÎ¬Î»Î¹ÏĥÏĦÎ±":5222,"ÏĥÏĦÎ¬ÏĥÎµÎ¹ÏĤ":5223,"ĠÏĢÎ®ÏģÎµ":5224,"Î±Î½ÎµÏĢÎ¹":5225,"ĠÎ¤Î¿ÏħÏģÎº":5226,"ĠÏĨÏīÏĦÎ¿Î³ÏģÎ±ÏĨÎ¯ÎµÏĤ":5227,"ĠÎ±Î¯ÏĥÎ¸Î·":5228,"ÏĮÏĨÏħÏĦ":5229,"ĠÏĥÏĢÎ¿ÏħÎ´":5230,"ĠÎ¬ÎºÏģÎ·":5231,"iv":5232,"la":5233,"ÎµÏĥÏħ":5234,"ÏģÎ®ÏĤ":5235,"Î¼Î¿ÏįÏĤ":5236,"ĠÏĢÏĢÎŃ":5237,"ÎķÏĢÎ¹":5238,"ÎĽÎĻÎ£Îĺ":5239,"ĠÎ³ÎµÎ»":5240,"ÏĦÎ¬ÏģÎ¹":5241,"Î¬Î½Î½Î¿Ïħ":5242,"ÎºÎ±ÏĦÎµ":5243,"ĠÎ¬ÏģÎ±":5244,"ÏİÎ½Î½ÎµÎ¹":5245,"ĠÎ±ÏĢÏĮÏĦÎ¿Î¼Î±":5246,"ĠÏĥÏĦÎŃ":5247,"ĠÎ±Î³ÏīÎ½":5248,"ÏīÏĥÎ±Î½":5249,"ĠÎ¼ÏĢÎ¿ÏģÎ¿ÏįÎ¼Îµ":5250,"ĠÎĳÎ½ÏĦÏģÎ¿ÏįÎ»Î»Î±":5251,"ÏĦÎ¿ÏįÏĥÎµ":5252,"ĠÏĥÎ·ÎºÏī":5253,"ĠÏĨÏįÎ»Î»Î±":5254,"ĠÎºÏħÏĢÏģÎ¹Î±ÎºÏĮ":5255,"Î´ÏħÏĥÏĥ":5256,"ĠÎ¹Î´ÎŃ":5257,"ĠÎ½ÏįÏĩÏĦÎ±Î½":5258,"Î¤ÎĳÎĽÎ¥":5259,"ĠÎ¼Î®ÏĦÎµ":5260,"ĠÎ³Î±Î»Î»":5261,"ĠÎ±Î¸Î¸ÏħÎ¼":5262,"ĠÏĥÏħÎ³Î³ÎµÎ½":5263,"ĠÎĳÎĵÎĵÎĽ":5264,"ĠÎºÎµÎ¯Î¼ÎµÎ½Î±":5265,"ĠÏĦÎŃÏĥÏĥÎµÏģÎ¹ÏĤ":5266,"ĠÎĵÎµÏģÎ¼Î±Î½":5267,"54":5268,"ĠâĢķ":5269,"ĠÏĦÏģÎ¿":5270,"ÎºÏĮÏĤ":5271,"ÏħÎ¼Î¬":5272,"ĠÎ±ÎµÏģ":5273,"ĠÎķÎ¸Î½":5274,"ĠÎŃÎ³Îº":5275,"Î²Î±Ïģ":5276,"Î¼Î±ÏĦÎ¹ÎºÎ¬":5277,"ÏĦÎ¿Î¼Î¿":5278,"ÏĥÏĦÏģÎ¿":5279,"Î¥ÎĿ":5280,"ÏĥÎ±Î³ÏīÎ³Î®":5281,"ÎľÎŁÎ£":5282,"ĠÎµÎ¯ÏĥÎ¹ÎµÎ½":5283,"ĠÏħÏĢÎ¬":5284,"ĠÎ¼ÎŃÏĥÎ·":5285,"ĠÎ¼ÎŃÏĥÏī":5286,"Î·Î¼Î±Î½":5287,"Î¸Î·ÏĥÎµ":5288,"Î»Î¹Î¿Ïħ":5289,"ĠÎ¹ÏĥÏĩ":5290,"ÏģÎŃÏĨ":5291,"ĠÎºÎ¬Î¼Î¿ÏħÎ¼ÎµÎ½":5292,"ĠÎ±ÏĨÎ·Î³":5293,"ĠÏĦÏģÎ±Î²Î¬":5294,"ĠÎļÎ±Î»ÏİÏĤ":5295,"ĠÎºÎ±Î¸ÎŃÎ½Î±ÏĤ":5296,"ĠÎłÎ±Ïį":5297,"ĠÎ²Î¬Î¸Î¿ÏĤ":5298,"ĠÎ§ÏģÏħÏĥÏĮÏĥÏĦÎ¿Î¼Î¿Ïħ":5299,"ĠÏĦÎ¶ÎµÎ¯Î½Î¿":5300,"ĠÎ½ÎµÎ¿ÎµÎ»Î»Î·Î½":5301,"ĠÎ¯Î´Î¹Î¿Î½":5302,"Î¡ÎķÎĿÎ¤ÎĸÎŁ":5303,"ĠÏĥÎ¯Î¿ÏħÏģÎ·":5304,"Î²Î¬Î»Î»ÎµÎ¹":5305,"ÎŁÎļÎ¡ÎĳÎ¤ÎĻÎĳ":5306,"ĠÏĢÎ±ÏĦÏģÎ¯Î´Î±":5307,"ĠÎµÎ¯ÏĥÎ¿Î´Î¿":5308,"ĠFlashback":5309,"ĠÎłÏģÎµÏĢÎµÎ¹":5310,"ĠÎ¥Î£Î¤ÎķÎ¡ÎĹ":5311,"ĠÎĳÎĵÎĵÎĽÎŁÎļÎ¡ÎĳÎ¤ÎĻÎĳ":5312,"Î¿Î¼Î±":5313,"Î¹Î´":5314,"ĠÎºÎ¿ÏħÎ½":5315,"ĠÏĥÎŃÏģÎ¹Î½":5316,"ÎµÎ¹Î¬":5317,"ĠÎµÎ¸Ïİ":5318,"ÏħÎ½Î±":5319,"Î³Î½":5320,"ĠÎ±ÏĥÏĦÎµ":5321,"ÎĳÏĢÏĮ":5322,"Î¿ÏįÏĨ":5323,"ĠÎŃÎ¼ÏĢ":5324,"ĠÎĳÏģÎµ":5325,"ÎºÎ±Î¸":5326,"ĠÎ±ÏĢÏĮÎ»Ïħ":5327,"ÎľÎķÎĿ":5328,"ÎµÎ»Î¯":5329,"Î§Î±":5330,"ĠÎ·Î¾":5331,"ĠÎ¹ÎºÎ±Î½":5332,"ĠÎ¼ÏĢÏĮ":5333,"ÎĳÎ¡Î§":5334,"ĠÏĢÎ¬Î½ÏĦÏīÏĤ":5335,"ĠÎĻÏĥÏīÏĤ":5336,"ĠÎĨÎºÎ¿Ïħ":5337,"ÏĦÏĥÎ¿Ïħ":5338,"Î¸ÎµÏģÎ¿ÏĤ":5339,"ĠÎļÏħÏĢÏģÎ¹Î±ÎºÎ¬":5340,"ĠÎ±Î»Î»Î¿Ïį":5341,"ÎµÎ¸Î½":5342,"ĠÎ§Î±ÏĦÎ¶Î·":5343,"Ġcamera":5344,"ĠÎ»Î¿Î³Î¿ÏĦÎµÏĩÎ½Î¯Î±ÏĤ":5345,"ĠÎµÎ¹ÏĥÎ±Î¹":5346,"ĠÎ´ÎµÎºÎ±ÎµÏĦÎ¯Î±":5347,"ÎºÎ»Î¿ÏĨÎ¿Ïģ":5348,"Î§ÎĳÎ¡ÎĻÎļÎĽÎķÎĻÎĳ":5349,"ĠÏĦÎ¿Î¯ÏĩÎ¿":5350,"ĠÎ³ÏħÎ½Î±Î¯ÎºÎµÏĤ":5351,"ĠÎķÎ¡ÎĳÎ¤Î©":5352,"ĠÎĽÎŁÎ¡ÎķÎĿÎ¤ÎĸÎŁ":5353,"ir":5354,"Î¼Î®ÏĤ":5355,"ÎºÎ¿Î¼":5356,"ĠÏĢÎŃÏĨÏĦÎµÎ¹":5357,"ĠÎµÏĥÎ¹ÎµÎ¹ÏĤ":5358,"ĠÎµÎ¼Î¬ÏĤ":5359,"Î£ÎĳÎĽÎŁÎĿÎĻ":5360,"Î´ÏĮÏĥ":5361,"ÏĩÏħ":5362,"ĠÎķÎĻÎĿÎĳ":5363,"ĠÏĦÎ¶ÎµÎ¯Î½Î±":5364,"ĠÎłÎ¿Î¯Î·ÏĥÎ·":5365,"ĠÎ£Ïī":5366,"ĠÎ¬ÏĦÎ¿Î¼Î±":5367,"ĠÎŁÎ´ÏħÏĥÏĥ":5368,"ĠÎµÏĢÎŃÏģÎ±":5369,"ĠÎ¼Î±ÏģÎ±":5370,"ĠÏĢÎ¬ÏĦÎµ":5371,"Î»Î¬ÏĤ":5372,"ĠÎ¶Î¹Î²Î±Î½":5373,"ÏĦÎ®ÏģÎ¹Î¿":5374,"ĠÎ¼ÏĢÎµÎ¹":5375,"ĠÎµÏĢÎ¹ÏĥÏĦÏģÎŃ":5376,"Î¬ÏģÎºÎ±":5377,"ĠÏĦÏĮÏĢÎ¿ÏĤ":5378,"ĠÏĦÏĮÏĢÎ¿Î½":5379,"ĠÎ±ÏĢÎ¿Î¹Îº":5380,"Î³ÏģÎ±ÏĨÎ¿":5381,"Î¿ÏįÎ¼ÎµÎ½Î¿ÏĤ":5382,"Î¯Î½Î·ÎºÎµÎ½":5383,"ÏĮÎ¼ÎµÎ½Î±":5384,"ĠÏĢÎ±Î»Î¹":5385,"ĠÎ£ÎļÎĹÎĿ":5386,"ĠÎķÏĥÎ¿Ïį":5387,"ĠÏĥÏħÎ¶Î·":5388,"ĠÎ³ÏģÎ¬Î¼Î¼Î±ÏĦÎ±":5389,"ĠÎľÎŃÏĥÎ±":5390,"ÏĥÏĦÏģÎŃÏĨÎµÎ¹":5391,"ĠÎºÎ±Î»Î»ÏįÏĦÏĦÎµÏģÎ±":5392,"ĠÎ¼Î¹ÏĦÏĥÎ¹Î¬":5393,"ĠÏĢÎµÎ»Î»Î¬ÏģÎµÏĤ":5394,"ĠÎĳÎ¸Î·Î½ÏİÎ½":5395,"ÎºÎµÏģ":5396,"ÎŃÏĥÎµÎ¹":5397,"ÎĳÎ¸Î®Î½Î±":5398,"ĠÎ½ÏħÏĩ":5399,"Î¿ÏįÏģÎ±":5400,"ÏģÎ±Ïĩ":5401,"ĠÎ´ÎµÏĩ":5402,"ÏĦÎ·Î·":5403,"ÎµÎ¯ÏīÎ½":5404,"ÏĥÎ¹ÏĤ":5405,"ÏĥÎ¹ÎµÏĦÎµ":5406,"ÏĦÏģÎŃÏĢ":5407,"ĠÏĥÏĦÏģÎ±ÏĨ":5408,"ĠÎŃÎ½Î¹Ïī":5409,"ĠÎĪÎ½Î±ÏĤ":5410,"Î³Î¬Î¶ÎµÎ¹":5411,"ÎŀÎĳÎĵ":5412,"ĠÎ´Î¹Î¬ÏģÎºÎµÎ¹Î±":5413,"ĠÎ´Î¯ÏĩÎ±":5414,"ÏĮÎ»Î±ÏĤ":5415,"ĠÏĨÎ±Î³Î·":5416,"ĠÎµÎ¯ÏĢÎ±Î½":5417,"ĠÎłÎ¿Î»Î¹ÏĦÎ¹":5418,"ĠÏĦÏĥÎ¬":5419,"ĠÏĢÏģÎ¿ÏĥÏĢÎ±Î¸":5420,"Î¡ÎĻÎŁÎ£":5421,"ĠÏĦÏģÏĮÏĢÎ¿Î½":5422,"ÎĮÎ¹":5423,"ĠÎ±ÏģÏĨÎ®":5424,"ĠÎ±ÎºÎ¿Î»Î¿ÏħÎ¸ÎµÎ¯":5425,"ĠÏĩÏīÏģÎºÏĮÎ½":5426,"ĠÎļÏħÏĢÏģÎ¹Î±ÎºÎ®ÏĤ":5427,"ĠÎĳÎ»Î®Î¸ÎºÎµÎ¹Î±":5428,"ĠÏĢÎ±Î¹ÏĩÎ½Î¯":5429,"ÏĢÎ¿ÏįÎ´Î±ÏĥÎµ":5430,"ĠÎºÎ±ÏĦÎ·Î³Î¿Ïģ":5431,";.":5432,"oc":5433,"Ġg":5434,"Î¿Î¸Îµ":5435,"ÎµÏĥÎ·":5436,"Î¯ÏĥÏĦÎ·ÎºÎµ":5437,"ĠÎµÎ²Î¬":5438,"ĠÎ±Î¸ÏģÏīÏĢÎ¿ÏĤ":5439,"ÏİÎ¼Î±":5440,"ĠÎķÏĢÎ±":5441,"ĠÎķÏħÏĦÏħÏĩ":5442,"ĠÎ¿ÏĨ":5443,"ĠÎ¤ÎŁÎĿ":5444,"ĠÎ£Î¿Ïħ":5445,"ÎļÎ¹":5446,"Î¿ÏħÎ½Î¯Î¿Ïħ":5447,"ĠÎ²ÏģÏī":5448,"ĠÎ²Î±Î»Î¯":5449,"ÎľÎ¬":5450,"ÎľÎĳÎ¡":5451,"ĠÎ§ÏģÎ¿Î½":5452,"ĠÎķÎ½Ïİ":5453,"ÏĥÎµÎ¿":5454,"ĠÎľÎķÎĽÎĹÎ£":5455,"Î¼ÏĢÏĮ":5456,"Î±ÏģÏĦÎ·":5457,"ĠÎ¼Î¬Î½Î±ÏĤ":5458,"ĠÎµÎ³ÎºÎ±ÏĦÎ±":5459,"ÏĦÎ¶Î¹Î±":5460,"ĠÏĥÏĦÎ±ÏħÏģ":5461,"Î¯Î¶Î¿Î¼Î±Î¹":5462,"ĠÎºÎ¿ÏħÎ¼ÏĢ":5463,"ĠÎºÎ±Î½Î¿Î½Î¯":5464,"ĠÎ±ÏħÏĦÎ¿":5465,"ĠÏĦÎ¯ÏĦ":5466,"Î¿Î»Î¿Î³Î¹ÎºÎ¬":5467,"ĠÎ±ÏģÏĩÎ±Î¹":5468,"ĠÎ£Î±Î²Î²":5469,"ÏĥÏĥÎ±Î»":5470,"ĠÏĢÏģÏĮÏĦÎ±ÏĥÎ·":5471,"ĠÏĨÎ¯Î»Î¿Î¹":5472,"ĠÏĢÎ»Î¬ÏĦÎ·":5473,"ĠÎ¿ÏįÎ»Î»ÎµÏĤ":5474,"ĠÎºÎ¿ÏħÎ¶Î¯Î½Î±ÏĤ":5475,"ĠÏĢÎ±ÏģÎµÎ»":5476,"ÏĮÏĦÎ·ÏĦÎµÏĤ":5477,"ĠÎĶÎ©Î¡ÎŁÎĺÎķ":5478,"ĠÏĮÎ½ÎµÎ¹ÏģÎ¿":5479,"ĠÎ±Î³Î¬ÏĢÎ·ÏĤ":5480,"Î¡ÎĻÎ£ÎľÎĳ":5481,"ĠÏħÏĢÎ·ÏģÎµ":5482,"ĠÎłÎ±Î¯ÏģÎ½ÎµÎ¹":5483,"ÎĶÎµÎºÎµÎ¼Î²ÏģÎ¯Î¿Ïħ":5484,"ĠÎľÎĻÎ§ÎĳÎĹÎĽÎĳÎ£":5485,"ĠÏĦÏģÎ±ÏĢÎµÎ¶Î¹":5486,"ĠÎķÎĻÎĿÎĳÎĻ":5487,"ÎŀÎĳÎĵÎŁÎ¡ÎĳÎ£":5488,"./":5489,"ÎµÏĦÎ±":5490,"Î¯Î¿ÏĤ":5491,"ĠÎºÏģÎŃ":5492,"ĠÎºÎºÎµ":5493,"ÏĨÎŃÏĤ":5494,"ÏĨÎŃÏģÏī":5495,"ĠÎ³ÏģÎ®Î³Î¿Ïģ":5496,"ÏĦÎµÎ¼Î²ÏģÎ¯Î¿Ïħ":5497,"Î¼Î±ÏĥÏĦÎ±Î½":5498,"ĠÏĢÎ¿ÏħÎ·":5499,"ÏĦÎ¹ÏĥÎ¼ÏĮ":5500,"ĠÎµÎ½ÎµÎ¹":5501,"ĠÎµÎ½Î¬Î½ÏĦÎ¹Î±":5502,"ĠÏĨÎ±Î¯":5503,"ĠÎ¸Ïį":5504,"ĠÎ£ÏĦÏģÎ±":5505,"ĠÎµÎ¯Î´ÎµÏĤ":5506,"ĠÎ¶Ïİ":5507,"ĠÏĤÏĤ":5508,"ÎĺÎķÎĻ":5509,"ÏĥÎ¼ÏĮÎ½":5510,"ĠÎµÏħÎ¸":5511,"ÎµÏĢÏĦÎµÎ¼Î²ÏģÎ¯Î¿Ïħ":5512,"ĠÏĢÎ±ÏģÎ¬Î´Î¿ÏĥÎ·":5513,"ÏģÎ¹ÏĥÎ¼ÎŃÎ½Î¿ÏĤ":5514,"Î¯Î´Î¿Ïħ":5515,"Î¿ÏįÎ¼ÎµÎ½Î¿":5516,"ĠÎŃÎ²Î»Îµ":5517,"ĠÏĢÎ»Î¬ÏĥÎ¼Î±Î½":5518,"ĠÎ±Î½ÏĦÎ¯Î¸Îµ":5519,"ÎĳÎĻÎĶÎ¡Îĳ":5520,"ĠÎ¼Î¹Î»Î®ÏĥÎµÎ¹":5521,"Î´ÎµÎ¯ÏĩÎ½ÎµÎ¹":5522,"ĠÏĦÏģÏİÎµÎ¹":5523,"ÏĥÏĮÎ´Î¹Î¿":5524,"Î£ÎĳÎĴÎĴÎŁÎ¥ÎĽÎĳ":5525,"ÎĽÎĻÎ£ÎĺÎķÎĿÎĹ":5526,"50":5527,"ak":5528,"ÏģÏĮÏĥ":5529,"ĠÏĦÏģÎ¹Î±Î½":5530,"ÎŃÎ»Î»Î±":5531,"ÎĳÎļÎĹÎ£":5532,"Î¯Î½Î´ÏħÎ½":5533,"ĠÎ¸ÎµÎ¯":5534,"ĠÏĩÏģÏī":5535,"ÎºÎ±ÏģÎ¯Î¿Ïħ":5536,"ĠÎ±Î½ÏĦÏģÎ±":5537,"ÎľÎķÎ¤":5538,"ĠÎ®ÏĦÎ¿Î½":5539,"ĠÏĢÎ¿Î¹Îº":5540,"Î±ÏģÏĦÎ¯Î¿Ïħ":5541,"ÏģÏĮÏĦ":5542,"Î¸Î·Î¼Î±":5543,"Î¹ÎºÏĮÏĦÎ·ÏĦÎ±":5544,"ĠÏĥÏħÎ½Î¿Î´":5545,"Î´Î¹ÏİÎ½":5546,"ĠÎĻÏĥ":5547,"ĠÎĻÎ¿ÏħÎ»":5548,"ÏģÎ¹Î½Î¬":5549,"ÏĢÎ¯Î¶ÎµÎ¹":5550,"ĠÎºÏħÏģÎ¹":5551,"ĠÎļÎ±Î»Î·ÏĥÏĢÎŃÏģÎ±":5552,"ĠÎ²Î¬ÏĥÎ·":5553,"Î¿Î»Î¿Î³Î¹ÎºÎ®":5554,"ĠÎ´Î¹Î¬Î¸ÎµÏĥÎ·":5555,"ĠÎłÎĳÎĻÎ©ÎĿÎĻÎĳ":5556,"ĠÎ±Î½ÏĦÎ¹Î»Î±Î¼Î²Î¬Î½":5557,"ĠÎ´ÏİÎºÏī":5558,"ĠÎłÎ¬Î¼Îµ":5559,"ĠÏĢÎ¹Î¬ÏĥÎµÎ¹":5560,"ĠÎµÏĩÎ¬":5561,"ĠÎ»ÎµÎµÎ¹":5562,"Î¹ÏĥÎ¼Î¿ÏįÏĤ":5563,"ĠÎľÏĢÏģÎ¬Î²Î¿":5564,"ÏĨÎµÏģÎµ":5565,"ĠÎ®ÏģÏĦÎµÏĤ":5566,"ĠÎ®Î¸ÎµÎ»Îµ":5567,"ĠÎ±Î½Î¿Î¹Ïĩ":5568,"ĠÎ±Î¹ÏĥÎ¸Î·":5569,"ĠÎºÎ»Î±Î¯ÎµÎ¹":5570,"ĠÎ·Î»Î¹ÎºÎ¯Î±":5571,"ÎĽÎµÎ¼ÎµÏĥ":5572,"ĠÎķÏįÎ·":5573,"ĠÎĴÎĳÎĽÎķÎĿÎ¤":5574,"PROP":5575,"ps":5576,"Î¹Î¼Î¬":5577,"ĠÏĢÎµÎ»Î¬":5578,"ÏīÎ¼Î¬ÏĦÎ¹Î¿":5579,"ĠÎºÎ¿Î¯ÏĦÎ±":5580,"ÎŃÎ¼Î²":5581,"ĠÎ½Î®":5582,"Î¡Î©":5583,"ÏģÎ±Î¼Î¼Î±":5584,"ĠÎ´ÏĮÎ½":5585,"ÏįÏģ":5586,"ĠÎ¼Î¿ÏħÏĩÏĦÎ¬":5587,"ĠÎ¤Îĳ":5588,"ÎļÎŁ":5589,"ĠÏĢÏģÎ¿Î´":5590,"ÎĵÎ¹Ïİ":5591,"ĠÎºÎ¬Î¼Î±":5592,"ĠÎ±Î½Î·":5593,"ĠÎ¬ÏĨ":5594,"Î¿ÏĥÎ¯":5595,"Î»Î¹ÏĥÎ±":5596,"Î¼ÎŃÏĥÎ±":5597,"ĠÏĦÎ¿ÏįÏĦÎ¿Î¹":5598,"ĠÎ±ÏħÏĦÎ®ÏĤ":5599,"ĠÏĪÎµÏħ":5600,"ĠÎ¼ÏĢÎ¿ÏģÎ¿ÏįÎ½":5601,"ĠÎ¡Î¿Î´":5602,"ĠÎ¸ÎµÎ¬":5603,"ĠÎķÎ¯ÏĩÎ±":5604,"ĠÎ±Î½ÏĦÎ¹Î¼Îµ":5605,"ĠÎ±ÏĥÎ¸ÎµÎ½":5606,"ĠÎ²ÏģÎ¯ÏĥÎºÎµÎ¹":5607,"Î´Î¿ÏĥÎ·ÏĤ":5608,"ĠÎºÎ¿Î¹Î½ÏīÎ½Î¯Î±":5609,"ĠÎ¿Î¼Î¿ÏģÏĨ":5610,"ÎłÎ±ÏįÏĥÎ·":5611,"ĠÎ³Î¬Î¼Î¿":5612,"Î¾ÎµÏģÎµÎ½":5613,"ĠÏĢÏģÎ±Î³Î¼Î±ÏĦÎ¹ÎºÏĮÏĦÎ·ÏĦÎ±":5614,"ĠÏĦÎµÎ»ÎµÎ¹ÏİÏĥÎµÎ¹":5615,"ĠÏĪÎ·Î»Î¬":5616,"ĠÎ´Î¹Î¬ÏĨÎ¿ÏģÎµÏĤ":5617,"ĠÎ²Î¿Î·Î¸Î®ÏĥÎµÎ¹":5618,"ĠÎ¼Î¿ÏħÏĥÎ¹ÎºÎ®":5619,"ĠÏĪÎ¬ÏĩÎ½ÎµÎ¹":5620,"ĠÎĵÎµÏİÏģÎ³":5621,"ĠÏĥÏħÎ¼ÏĢÎµÎ¸Î¸ÎµÏģÎ¬":5622,"ĠÎ¬Î´ÎµÎ¹Î±":5623,"ĠÎ´ÎµÎ¾Î¹Î¬":5624,"ĠÎ§ÏģÏħÏĥÎ¿ÏĥÏĦÎ¿Î¼Î¿ÏĤ":5625,"ĠÎ¦Î±Î¯Î´ÏģÎ±":5626,"ĠÏĦÎŃÏĩ":5627,"ÏĥÎ±ÏĤ":5628,"Î¯ÏĥÎµÎ¹ÏĤ":5629,"ÎºÏĮÎ½":5630,"ĠÏĢÏį":5631,"ÏīÎ¸ÎµÎ¯":5632,"ÎµÎ¹ÏģÏīÎ½":5633,"ĠÎ±Ïĩ":5634,"Î¤Î¿Ïħ":5635,"ĠÎ³ÏīÎ½":5636,"ĠÎķÎ´Ïİ":5637,"ĠÎ¼Î¿ÏħÏģ":5638,"ĠÎµÎ½Î¿Ïĩ":5639,"ĠÎ¸ÎºÎ¹":5640,"ĠÎ±ÏĢÎ¿Ïį":5641,"ĠÏĦÎ±ÏģÎ¬":5642,"ĠÎ»ÏħÏģ":5643,"ĠÏĢÏģÎ¿Î»Î¬Î²":5644,"ĠÎ±Î½ÏĦ":5645,"ĠÏģÏħÎ¸":5646,"ÏĢÎ¬ÏĤ":5647,"ĠÎ¹Î´Îµ":5648,"ĠÎ¹ÏĦÎ±Î»":5649,"ĠÏĥÏħÎ½ÏĦÎ±":5650,"ĠÎµÎ¹Î»Î¹Îº":5651,"ĠÏĢÎ±ÏģÎ±ÎºÎ¿Î»Î¿Ïħ":5652,"Î¤ÎķÎ£":5653,"ÏĢÎ¿Î¹Î·":5654,"ĠÎĨÎ³Î³ÎµÎ»":5655,"ĠÏĩÎ±Î¼":5656,"ĠÎ¿ÏĢÎ¿Î¯ÎµÏĤ":5657,"Î±ÏĥÎ¯Î±":5658,"Î¾ÎµÏĦÎµ":5659,"Î·ÏĥÎ¿Î½":5660,"ÎµÎ´Ïģ":5661,"ÏĥÎ¹Î±ÏĥÏĦÎ¹ÎºÎ¬":5662,"Î¿Î·ÏĦÎµÏħ":5663,"ĠÏĥÏĦÏģÎ±ÏĦÏĮ":5664,"ĠÎľÏĢÎ¿Ïģ":5665,"ĠÎ±ÏĢÎ¿ÏĨÎ±ÏĥÎ¯":5666,"ĠÎĽÎ¿ÏħÎ¶Î¹Î½":5667,"ĠÎ¼Î¹ÏĥÏĮ":5668,"ĠÎ´ÏħÎ½Î±ÏĦÏĮ":5669,"Î¸ÎºÎ¹Î¬Î½":5670,"ĠÎ±ÏģÎ³ÏĮÏĦÎµÏģÎ±":5671,"ĠÎ¾ÎµÎºÎ¹Î½":5672,"ĠÎ±Î¯Î¼Î±":5673,"ÏĦÎµÎ»ÏİÏĤ":5674,"ĠÏĢÎ±Î½ÏĦÏģÎµÏħ":5675,"ĠÎľÏĢÎ±Î¯Î½ÎµÎ¹Î¿":5676,"ĠÎŃÎ¼ÎµÎ¹Î½ÎµÎ½":5677,"ĠÏĢÎ·Î³Î±":5678,"ĠÎµÎ¯Î½ÏĦÎ±Î¼":5679,"ĠÎļÏħÏĢÏģÎ¹Î±Î½":5680,"ĠÎ¸Î¬Î½Î±ÏĦÎ¿":5681,"ĠÎķÎ¼ÎµÎ¯ÏĤ":5682,"ÏĮÎ¼Î¹Î¶Î±":5683,"ĠÎ±ÏģÎ¹ÏĥÏĦÎµÏģÎ¬":5684,"ĠÎ¿Î¹ÎºÎ¿Î³ÎµÎ½ÎµÎ¹Î±":5685,"ĠW":5686,"Î¹Î¿Î½":5687,"ÏģÏĦÏħ":5688,"Î¬ÏĥÏĦÎ·ÎºÎµ":5689,"ĠÎºÎµÎ¹":5690,"ĠÎ±ÏģÏī":5691,"Î´ÏģÎ¬":5692,"Î´ÎµÏģ":5693,"Î´Î¹ÎºÎ¬":5694,"ĠÎ³Ïī":5695,"ÏĦÎ·Ïģ":5696,"ĠÎľÏĮÎ½Î¿":5697,"ĠÎ¸Î±Î½Î¬":5698,"ĠÎ²Î¿Ïį":5699,"ÎłÎŁ":5700,"ĠÏĥÏħÏģ":5701,"Î¹ÏĥÏĦÎ±":5702,"ĠÎĽÎķÎ¥":5703,"ĠÏĥÎºÎ¯":5704,"Î»Î¹ÎŃÏĤ":5705,"ĠÎ¹Î½":5706,"ÏĩÎ±Î¼Î¿Î³":5707,"ÏĦÎ¶Î¹Î½":5708,"ÏħÎ½Î·":5709,"Î¤ÎķÎĽÎĻ":5710,"ĠÎ±ÏĨÎ·":5711,"ĠÎ¼ÏĢÎ¿ÏģÎµÎ¹":5712,"ÎŁÎ¥Î£Îĳ":5713,"ĠÎĨÎ¼Î±Î½":5714,"Î¼Î¹ÏĥÎ·":5715,"ĠÎºÎ¿Î¹ÏĦÎ¬Î¶Î¿ÏħÎ½":5716,"ĠÎ±ÏģÏĩÎŃÏĤ":5717,"ĠÏĥÎ·ÎºÏİÎ½":5718,"ĠÎľÎµÎ³Î¬":5719,"ÏĩÏīÏĥÏĦÎ¿ÏĤ":5720,"ĠÎ´Î¹ÎºÎ±":5721,"ĠÏĥÏįÎ¼":5722,"ĠÎ£Î¤ÎĹÎĿ":5723,"Ġ188":5724,"ĠÏĦÎµÎ»ÎµÏħÏĦÎ±Î¯Î¿":5725,"Î¥Î§ÎĻÎĳ":5726,"ĠÎĳÎºÏĮÎ¼Î±":5727,"ĠÎ²Î±Î¸Î¹Î¬":5728,"ĠÏĢÎ±ÏģÎŃÎ±":5729,"ĠÎĶÎ¡ÎŁÎľÎŁÎ£":5730,"ĠÎ±ÏĢÎ»ÏİÏĤ":5731,"ĠÎ¤ÏĮÏĦÎµ":5732,"ĠÎľÎĳÎ¡ÎĻÎĵÎ©":5733,"ĠÎµÎ»ÏĢÎ¯Î´Î±":5734,"ĠÎĳÎ»ÎµÎ¾Î¬Î½Î´ÏģÎ±":5735,"Î»Î»Î®Î½ÏīÎ½":5736,"ĠÏĦÎ·Î»ÎµÏĮÏģÎ±ÏĥÎ·":5737,"ĠÎľÎłÎŁÎ¥Î¡Î§ÎĳÎĿ":5738,"ĠÏĢÎ±ÏģÎµÎ»Î¸ÏĮÎ½":5739,"09":5740,"53":5741,"FF":5742,"ht":5743,"ĠR":5744,"ĠÎ¼ÎŃÎ½":5745,"ÎŃÏĢÎ·":5746,"Î±Î½ÏĦÎ¬":5747,"Î¸Î¿ÏħÎ¼Îµ":5748,"ĠÎĳÎĻ":5749,"ĠÏĢÎ¿ÏħÎ¼Îµ":5750,"ÎļÎĽÎĹÎ£":5751,"ĠÎ²ÏģÏį":5752,"ĠÎ²Î¬ÏģÎ¿ÏĤ":5753,"ĠÎ±Î½ÏĦÎ¬":5754,"ÎłÎ¿Î»":5755,"ĠÎµÏĢÏģÎ¿Ïĥ":5756,"ÎľÎĻÎĳ":5757,"ĠÏģÎ¿Î»":5758,"ĠÏģÎ¿Î¼Î±Î½":5759,"ÏĥÎµÎ·":5760,"ÎĻÎ£ÎĹ":5761,"ÏģÎ·Î¼Î±":5762,"ĠÎµÎ¾Î¿ÏħÏĥÎ¯Î±":5763,"Î»Î®ÏĥÎµÎ¹":5764,"ĠÏĢÎ±ÏģÎ±ÎºÎ¿Î»Î¿ÏħÎ¸ÎµÎ¯":5765,"ÎµÏįÎµÏĦÎ±Î¹":5766,"ĠÎ±ÏĨÎ¿Ïģ":5767,"ĠÎ±ÏħÎ»Î®":5768,"ĠÎ²Î¬Î»ÎµÎ¹ÏĤ":5769,"ÏĦÎ¿ÏįÏĦÎ¿":5770,"ĠÏĢÏģÏİÏĦÎ¿ÏĤ":5771,"ĠÏĢÎ¿Î¹Î·ÏĦÎŃÏĤ":5772,"188":5773,"ĠÎµÏĩÎ¸":5774,"ĠÎ§ÏģÎ¹ÏĥÏĦÎ¿Ïį":5775,"ĠÎ±Î¼ÏĨ":5776,"ĠÎŃÏģÎºÎµÏĦÎ±Î¹":5777,"ÎĵÎ¹Î±ÏĦÎ¯":5778,"ĠÏĥÎµÎ¹ÏģÎ¬":5779,"ĠÎ²Î±ÏĥÎ¹Î»Î¹Î¬ÏĤ":5780,"ĠÏĪÎŃÎ¼Î±ÏĦÎ±":5781,"ĠÎķÏĢÎµÎ¹Î´Î®":5782,"ĠÏĦÎŃÏĦÎ¿Î¹Î±":5783,"Î¥ÎĽÎĽÎŁÎ¥":5784,"MÎ±":5785,"Ġv":5786,"Î¼Î¼ÎµÏģÎ±":5787,"ĠÏĥÎºÎ±":5788,"Î³ÎŃÎ½":5789,"Î£ÏħÎ½":5790,"Î¶Î¿Ïį":5791,"ĠÎ½ÏīÏģÎ¯ÏĤ":5792,"ÏĩÏīÏĤ":5793,"ÎĹÎĿÎĳ":5794,"ĠÎĳÎ»":5795,"ĠÎĳÎĿÎĳ":5796,"ÏģÎ¹Ïĩ":5797,"ĠÎľÎ¹ÏĩÎ¬":5798,"ĠÎłÎ±Î½ÎµÏĢÎ¹":5799,"Î¿Î¹Î¿":5800,"ĠÎ¿Î´":5801,"ĠÎ±Î½ÎŃ":5802,"ĠÎ¦ÎĳÎĻÎĶÎ¡Îĳ":5803,"Î±ÏģÎºÎ±":5804,"ĠÏĥÎºÎµ":5805,"ÎºÎ¬Î»Îµ":5806,"ÎĳÎ¡ÎĻÎĿÎ¤":5807,"ĠÎµÎ¾Î±Î½Î±":5808,"ĠÎµÏĥÏĥÎµÎ¹":5809,"ĠÎµÏĥÎŃÎ½Î±Î½":5810,"ÎµÏĨÎ±Î»":5811,"ĠÎ¥ÏĢÎ·ÏģÎµ":5812,"Ġ24":5813,"ÏģÎ¹ÏĥÏĦÎ¿":5814,"ÏħÏĢÏģÎ¯ÏīÎ½":5815,"ĠÎłÎ¿Î»Î¯":5816,"Î´ÎµÎ¹Î¾Î·":5817,"ĠÎľÎ¹Î±Î½":5818,"ĠÎŃÎ³Î¹Î½":5819,"ĠÎĨÎ½ÏĦÏģÎ¿ÏĤ":5820,"ĠÎ£ÎºÎŃÏĨ":5821,"ÎĻÎ¡ÎĹ":5822,"ĠÎµÎºÎºÎ»Î·ÏĥÎ¯Î±":5823,"ĠÎĽÎµÎ¼ÎµÏĥÎ¿Ïį":5824,"ĠÎ²Î¿Î·Î¸Î®ÏĥÏī":5825,"ĠÎķÎłÎķÎĻÎ£ÎŁÎĶÎĻÎŁÎ¥":5826,"ĠÎµÎ¾ÏīÏĦÎµÏģ":5827,"ĠÎºÏģÎ¹ÏĦÎ¹ÎºÎ®":5828,"ĠÏĥÏħÎ³ÏĩÏīÏģ":5829,"ĠÏĦÎ¶ÏįÏģÎ·ÏĤ":5830,"ĠÎķÏħÎŃÎ»Î¸ÏīÎ½ÏĦÎ±":5831,"ĠÏĨÎ¿Î¬ÏĥÎ±Î¹":5832,"ÎµÎ²ÏģÎ¿ÏħÎ±ÏģÎ¯Î¿Ïħ":5833,"Î¤ÎķÎĽÎĻÎķ":5834,"],":5835,"ow":5836,"ÎºÎºÎ¬":5837,"ÎºÏģÎ±Î½":5838,"ÎĳÎľÎķÎ£ÎĹ":5839,"Î¶ÏħÎ³":5840,"Î¿ÏįÎ¹":5841,"ÎµÎ½Î±":5842,"ÏģÎ±Î»Î±Î¼ÏĢ":5843,"ĠÎ³Ïį":5844,"ĠÎ³Î½ÏİÏģÎ¹":5845,"ĠÎķÎ³Î³":5846,"ĠÎŃÎ¸ÎµÎ»ÎµÎ½":5847,"ĠÎĳÎ¼ÎµÏģ":5848,"ĠÎ¿Î»":5849,"ĠÏĨÏģÎ¬":5850,"ĠÏĩÎ¹Î»Î¹Î¬":5851,"ĠÏĦÎ¶Î±Î¹ÏģÏĮ":5852,"ĠÎ²ÏģÎµÎ¹":5853,"ĠÏĢÎ±ÏĦÎŃÏģÎ±ÏĤ":5854,"ĠÎ¬Î´ÎµÎ¹":5855,"ÎµÏģÎ³Î±":5856,"ĠÎ®ÏĥÏħÏĩ":5857,"ÏĥÏĦÎµÏħ":5858,"Î»Î¹Î¬Î½":5859,"Î®Î½Î·":5860,"Î»Î®Î¼Î±ÏĦÎ±":5861,"ĠÏĪÏī":5862,"Î¸ÎµÎ¯ÏĦÎµ":5863,"ĠÎļÎ±ÏĦÎµ":5864,"ĠÎµÏħÎ³ÎµÎ½":5865,"ĠÎ¥ÏĢÎ¬ÏģÏĩ":5866,"ĠÎ£Î±Î²Î¹Î±":5867,"ĠÎľÎµÏĥ":5868,"Î¸Î±Î¯Î½ÎµÎ¹":5869,"ÎľÎĳÎĻÎ¡ÎĹ":5870,"ÏĥÏĦÎ®ÏģÎ¹Î¿":5871,"ĠÎ¾ÎŃÏģÎ¿ÏħÎ½":5872,"ĠÏĦÎ¶ÎµÎ¯Î½Î·Î½":5873,"ĠÎŃÏĨÏħÎ³":5874,"ĠÎĳÏĨÏģÎ¿":5875,"ĠÎ¹ÏĥÏĦÎ¿ÏģÎ¯ÎµÏĤ":5876,"ĠÎĳÎ½Î±ÏĦÎ¿Î»":5877,"ĠÏĩÏİÎ¼Î±":5878,"ĠÎ®Î½ÏĦÎ±Î¼":5879,"ĠÎ³ÏģÎ¬Î¼Î¼Î±":5880,"ÏģÎµÏħÎ½ÏİÎ½":5881,"ĠÏĥÏĦÎ¬ÏĥÎ·":5882,"ĠGeorge":5883,"ĠÏĩÎ±ÏģÎ±ÎºÏĦÎ®":5884,"ĠÎķÎ¯Î½ÏĦÎ±Î¼":5885,"ĠÏĢÎ»ÎµÏħÏģÎ¬":5886,"ĠÎŃÎºÎ±Î¼Î½ÎµÎ½":5887,"ĠÏģÎ¹Î¬Î»Î»Î¹Î±":5888,"ĠÎºÏħÏģÎ¹Î±ÏģÏĩ":5889,"ĠÏĢÎ»Î±Î¯ÏĥÎ¹Î¿":5890,"Î¹ÎµÏĢÎ¹ÏĥÎºÏĮÏĢÎ¿Ïħ":5891,"ĠÏĢÎ±ÏĢÎ¿ÏįÏĦÏĥÎ¹Î±":5892,"GE":5893,"RGE":5894,"ĠY":5895,"Î¹ÏĥÏĦÎ¿Ïģ":5896,"Î¼Î½Î±":5897,"Î¼ÎµÎ¹ÏĤ":5898,"ĠÎ¼Î±Î½Î¬":5899,"ÏħÎ»Î¯":5900,"ĠÎ½Î¬":5901,"ÎķÎĻÎĳ":5902,"ĠÎŃÏĢÎµ":5903,"ÎĿÎĹ":5904,"ĠÎ¿Î½Î¿Î¼Î±":5905,"ĠÎ¤Î¿ÏħÏĤ":5906,"ĠÎ¸Î»Î¹":5907,"ĠÎ£Î¿Î»":5908,"ĠÎ²Î®Î¼Î±ÏĦÎ±":5909,"ĠÏĢÏģÎ¿Î³":5910,"ĠÎ±Î½ÎµÎ¾":5911,"ĠÎ¬Î¸ÏģÏīÏĢÎ¿ÏĤ":5912,"ÏĢÎ±Î¯Î´":5913,"ĠÎ§ÎĳÎ¡":5914,"ĠÏģÎ®Î³":5915,"ĠÎ¼Î±Ïħ":5916,"ĠÎ¼ÎŃÏĦÏģÎ±":5917,"ÏĥÏĦÎµÏģ":5918,"ĠÎµÎ³Îº":5919,"ĠÎĴÎĳÎ¡ÎĴ":5920,"ÏĦÎ¶Î¿Î¹":5921,"ĠÎĪÎ»Î»Î·Î½ÎµÏĤ":5922,"ĠÏĦÎ¿ÏįÏĦÎµÏĤ":5923,"ĠÎ¸ÎŃÎ»ÎµÏĦÎµ":5924,"ÏĥÎµÎ½Î¿":5925,"ĠÎĵÎ¹Î±ÏĦÎ¹":5926,"ÎºÎ±Î»Î±":5927,"Î¬ÏģÎ¹Î±":5928,"ĠÎµÏħÏĩÎ±ÏģÎ¹ÏĥÏĦÏİ":5929,"ĠÏĢÎ±Î½ÏĦÏīÎ½":5930,"ÏĦÎ¿ÏįÏĥÎ±Î½":5931,"ĠÏĢÎ±Î¹Î¸ÎºÎ¹Î¬":5932,"ĠÏĥÎ¹ÎŃÏģÎºÎ±":5933,"ÏĩÎ½Î¿ÏħÎ½":5934,"ĠÏĨÏħÎ»Î¬":5935,"ĠÏīÏģÎ±Î¯Î¿":5936,"ĠÏĦÎ¶Î¹Î±Î¼ÎŃ":5937,"ĠÎµÎ»ÎµÏħÎ¸ÎµÏģ":5938,"Î³Î³ÎµÎ»Î¼Î±":5939,"Î³ÏģÎ¬ÏĨÎµÎ¹":5940,"ÎĻÎ¤ÎĹ":5941,"ĠÎĿÎµÏĮÏĨÏħÏĦ":5942,"Ġfor":5943,"Î¡ÎŁÎĿÎĻÎļÎĹ":5944,"ĠÏĪÎ·ÏĨ":5945,"ĠÎ±ÎºÎ¿Î»Î¿ÏħÎ¸Î®":5946,"ĠÎ½Î·ÏĥÎ¹Î¿Ïį":5947,"ĠÎļÏħÏĢÏģÎ¹Î±ÎºÎ®":5948,"ĠÎ¨Î¥Î§ÎĻÎĳ":5949,"ĠÏĢÎ¹ÏĥÏĦÎµÏįÎºÏī":5950,"ĠÎŃÏĦÎ¿Î¹Î¼Î¿ÏĤ":5951,"ĠÎ£Î®Î¼ÎµÏģÎ±":5952,"ĠÎ¿Î¼Î¬Î´Î±":5953,"EORGE":5954,"ÏĦÏįÏĢÏīÏĥÎ·":5955,"ĠÎ¼ÏħÎ±Î»ÏĮ":5956,"ĠÎŃÏģÎµÏħÎ½Î±":5957,"ĠÏĥÎµÎ»Î¯Î´Î±":5958,"ÏģÎµÎ¹Î±":5959,"ĠÏĦÎ±Î¹":5960,"Î·ÏĦ":5961,"ÏĥÏĥÎ¹":5962,"Î¯ÏģÎ·":5963,"ĠÏĥÏĢ":5964,"ĠÏĥÏĢÎ¿ÏįÎ´Î±ÏĥÎµ":5965,"ĠÎµÏģÏĩ":5966,"ĠÎ½ÏĦÏħ":5967,"ÏĩÏĦÎ±":5968,"ÏĩÎ¿Î¼Î±Î¹":5969,"ĠÎ´Î¿":5970,"ĠÎķÏĢÎµ":5971,"Î»Î»Ïī":5972,"ĠÎĳÎ¸":5973,"ÎĿÎ±Î¹":5974,"ÎĿÎ¹ÎºÎ¿Î»":5975,"ÏĦÎ¹ÏĥÏĥÎ±":5976,"Î¯Î½Î¿ÏĤ":5977,"Î¼ÎµÏĦÎ¬":5978,"ĠÎ¦ÏħÏĥ":5979,"ÎľÎĹ":5980,"Î»Î·ÏĥÎµ":5981,"ÏģÎµÎ¼Î±":5982,"Î»ÎµÏĨ":5983,"ÏģÎ¿Î²Î¿Î»":5984,"ÏĦÎ¶ÎµÏĤ":5985,"Î¿ÏĨÏĮ":5986,"Î»Î®ÏģÏī":5987,"ĠÏĢÏĮÏĥÎ±":5988,"Î¼Î·ÏĥÎµ":5989,"ĠÎľÎ±ÏĩÎ±Î¹":5990,"Î¸Î®ÎºÎ±Î½":5991,"ÏĥÎ¼Î¯Î±":5992,"ĠÎļÎĳÎ¦":5993,"ÏĦÏĥÎ¿Ïį":5994,"ĠÎ¶ÏīÎ³ÏģÎ±ÏĨ":5995,"ĠÎłÎ±Î³Îº":5996,"ĠÎ³Î¹Î¿Ïħ":5997,"ĠÎĺÎµÎ¿":5998,"ĠKÏħ":5999,"ĠÎ¼Î¿Î½Î¬ÏĩÎ±":6000,"ĠÎµÎ»Î±Î»":6001,"Î¸ÎºÎ¹Î¿Ïį":6002,"ÎĻÎ£ÎŁÎĶÎŁÎ£":6003,"ĠÎµÎºÎ¬Î¼Î±":6004,"ĠÎ¼ÎµÎ¯Î½ÎµÎ¹ÏĤ":6005,"ĠÎ´Î¹Î±Î²Î±ÏĦÎ®ÏģÎ¹Î±":6006,"ĠÎĽÎ±Î»ÎµÎ¯ÏĤ":6007,"ĠÎ¾ÎµÎ½Î¿Î´Î¿Ïĩ":6008,"ĠÎµÎ¹ÎºÏĮÎ½ÏīÎ½":6009,"ĠÎĴÎ¹Î²Î»Î¹Î¿Î¸Î®ÎºÎ·":6010,"ĠÏĥÏĦÏģÎ±ÏĦÎ¹ÏİÏĦÎµÏĤ":6011,"ĠÎĳÎ¦Î¡ÎŁÎĶ":6012,"ĠÎ¦Î±Î¯Î½ÎµÏĦÎ±Î¹":6013,"ĠÏĢÎ¿ÏĦÎ¶ÎµÎ¯":6014,"ĠJ":6015,"ĠÏĦÎµÎ¯":6016,"Î¬ÏĥÎµÎ¹":6017,"Î¼ÏĢÎ±Î¯Î½ÎµÎ¹":6018,"ĠÏĢÎ¿ÏįÎ¼ÎµÎ½":6019,"ĠÎ¼Î¹Î¬":6020,"ÎŃÏĥÎ±Î¹":6021,"ĠÎµÏħÏĩ":6022,"Î£ÏĦÎ·Î½":6023,"Î±Î½Î¿Ïį":6024,"ÎĻÎĽ":6025,"Î´ÏīÏģ":6026,"ÎķÎļ":6027,"ĠÎŃÎ´ÎµÎ¹":6028,"ĠÎľÎµÏĦ":6029,"ĠÏĨÎ¿Î¹":6030,"ÏĥÏĦÎ¹Î±":6031,"ÏĥÎ¹Ïİ":6032,"ĠÏĢÏģÎ¿ÏĩÏīÏģ":6033,"ĠÎ¬ÏģÎµ":6034,"ÏĦÏģÏĮ":6035,"ÎµÎ»Îµ":6036,"ĠÎ¾ÎµÏĨ":6037,"ĠÏģÎ¿":6038,"ĠÎ¼ÎŃÎ»Î»Î¿Î½":6039,"ĠÎµÎ³Î³":6040,"ĠÎ¹Î¿":6041,"ĠÎĴÎ¬":6042,"ĠÎ¬Î»Î»Î¿Ïħ":6043,"ÎĳÎĽÎĻÎļÎĹ":6044,"ÏĦÎ¿ÏħÏģÎº":6045,"ĠÏĢÏĮÎ¸ÎºÎ¹Î±":6046,"ĠÏħÏĢÎ¿Ïĩ":6047,"ÏĥÎµÎ½Î·":6048,"ĠÏĢÎµÏģÎ¹Î¿ÏĩÎ®":6049,"ĠÎ¼ÏĢÎ¿ÏģÎ¿ÏįÏĥÎµ":6050,"ĠÎ¡ÎķÎĿÎĳ":6051,"ĠÏĦÏģÎ±Î²":6052,"ÏĦÏİÏĥÎµÎ¹ÏĤ":6053,"ĠÎ³Î¹Î¿Ïģ":6054,"Î¿ÏħÎ»Î¿Ïį":6055,"ĠÎºÎ¿ÏģÎ¯":6056,"ÏĢÎ±Î¹Î´ÎµÏħ":6057,"ĠÏĢÎ¿Î¯Î·ÏĥÎ·ÏĤ":6058,"Î¿ÏħÏĥÎ¯Î±ÏĤ":6059,"ĠÎ´Î±Î¼ÎŃÏĥÎ±":6060,"ÏĦÏįÏĢÎ·":6061,"est":6062,"ĠÎºÎ¿ÏħÎ²ÎŃÎ½ÏĦÎµÏĤ":6063,"ĠÏĢÎ±ÏĢÏĢÎ¿ÏįÏĤ":6064,"ĠÎľÎµÎ»Î®ÏĤ":6065,"Î®Î³Î·ÏĥÎ·":6066,"ĠÎĳÎ½Î´ÏģÎŃÎ±":6067,"ÎŁÎ¡Î¤Îĳ":6068,"ĠÎ±Î³Î±ÏĢÎ¬ÏĤ":6069,"ĠÎºÎ±ÏģÎºÎ¹Î¬":6070,"ĠÎĳÎ¼Î¼ÏĮÏĩÏīÏĥÏĦÎ¿":6071,"ĠÏĥÏĢÎ¹ÏĦÎ¹Î¿Ïį":6072,"ĠÏħÏĢÎ®Ïģ":6073,"ĠÏĦÎ±Î¾Î¯Î´Î¹":6074,"ÎµÎ²Î±Î¯ÏīÏĤ":6075,"ĠÎ³Î±Î¯Î¼Î±Î½":6076,"ĠÎĴÎĳÎĽÎķÎĿÎ¤ÎĻÎĿÎĳ":6077,"ÎĻÎ£ÎĹÎ¦ÎŁ":6078,"55":6079,"ay":6080,"ru":6081,"Î±Î»Î»Î¬":6082,"ÏĥÏĥÏī":6083,"Î¬Î»Î»Î¿Ïħ":6084,"Î¯Î´Î±":6085,"Î¼ÎµÎ¯":6086,"ĠÎ¼Î½Î·Î¼":6087,"Î³ÎµÏĤ":6088,"Î®ÏĥÎ¿ÏħÎ¼Îµ":6089,"ĠÎ½Î¹":6090,"Î¸ÎŃÎ½":6091,"ÏĨÎµÏģÎ±":6092,"ÎķÎ¯Î½Î±Î¹":6093,"ĠÎ´ÏģÎ¿Ïĥ":6094,"Î¼Î±Î³":6095,"ĠÎĳÎ¤ÎķÎĽÎĻÎķ":6096,"ÎŁÎ¥Îļ":6097,"ĠÎĵÏħ":6098,"Î¿ÏĥÎ¿ÏĨ":6099,"ÏĢÎ±Î¯":6100,"ĠÎ¦ÎĳÎ¡ÎĻÎĿÎ¤":6101,"ÏĦÏģÏĮÏĤ":6102,"ĠÎĶÎµÎ¯":6103,"ĠÎĽÎ¿Î½Î´Î¯Î½Î¿":6104,"ÎĳÎĴÎ¡ÎĻ":6105,"ÏĥÎºÎ¿ÏħÎ½":6106,"ĠÎµÎºÎµÎ¹":6107,"ĠÎĺÎµÎ¯Î±":6108,"ĠÎ¼Î¬Î¸ÎºÎ¹Î±":6109,"ĠÏĥÏħÎ½Î®Î¸ÏīÏĤ":6110,"Î¯Î¶Î¿Î½ÏĦÎ±Î¹":6111,"Î±Î¯Ïģ":6112,"ÏĦÏħÏĢÎ·":6113,"ÎķÎĽÎĽÎŁÎ¥":6114,"ĠÎļÎĳÎ£":6115,"ĠÎĳÎĿÎ¤Î¡ÎŁÎ¥ÎĽÎĽÎĳ":6116,"ĠÎ¥ÏĢ":6117,"ĠÎ´Î¯ÏĩÏīÏĤ":6118,"ÏĦÎ¹Î½ÏĮ":6119,"ĠÎµÎ¼ÏĢÎ¹ÏĥÏĦ":6120,"ĠÏĥÎºÎ·Î½Î·":6121,"ĠÏĥÏħÎ¼ÏĨÎŃÏģÎ¿Î½":6122,"ÏĮÎ¼ÎµÎ½Î·":6123,"ĠÏĥÏĦÎ¹Î³Î¼Î®Î½":6124,"ĠÏĮÏĥÎ¿ÏħÏĤ":6125,"ĠÎµÎ»Î»Î·Î½Î¹ÎºÎ®":6126,"ĠÎµÎ»Î»Î·Î½Î¹ÎºÎ®ÏĤ":6127,"ĠÎºÎ±Î»Î»Î¹":6128,"ĠÎłÎ±Î½Î¯Îº":6129,"ĠÏĢÎ±Î½ÏĦÏģÎµ":6130,"ĠÎ¬ÎºÎ¿ÏħÏĥÎ±":6131,"ĠÎºÎ±Î¸Î·Î³Î·":6132,"ĠÎ´ÎŃÎ½ÏĦÏģÎ±":6133,"ĠÎ¼Î¹Î»Î¿ÏįÎ½":6134,"ĠÎ²Î¿Î®Î¸ÎµÎ¹Î±":6135,"ÎºÎ½Ïį":6136,"ĠÎ±ÏĢÎ¿ÏĦÎµÎ»ÎµÎ¯":6137,"ĠÏĥÏħÎ¼ÏĢÎŃÎ¸Î¸ÎµÏģÎµ":6138,"ĠÎ¤Î¡ÎĳÎłÎķÎĸÎĻ":6139,"ÏĦÎµÏģÏĮÎ»ÎµÏĢ":6140,"ĠÎłÎ¬Î½ÏĦÏīÏĤ":6141,"ĠÎĵÎ¡ÎĳÎ¦ÎķÎĻÎŁ":6142,"ES":6143,"ur":6144,"Î»Î¯Î±ÏĤ":6145,"Î¯ÏĦÎµÏĤ":6146,"Î¼Ïħ":6147,"ÎºÏīÎ½":6148,"Î³Î®ÏĤ":6149,"Î³Î¹Î¿":6150,"ĠÎ±Î»Î»Î·":6151,"ĠÎ´Î¿ÏįÎ¼ÎµÎ½":6152,"ĠÎķÎ»Î¹ÏĥÎ±":6153,"Î²ÎŃÎ½":6154,"ĠÎ¼ÎµÏĥÎ·":6155,"ĠÏĨÎ¿Ïį":6156,"ĠÏĩÎ±Î»Î¬":6157,"ĠÎĵÏħÎ¼":6158,"ĠÎĵÎĳÎĴÎ¡ÎĻ":6159,"ÎłÎĻÎļ":6160,"ÏĮÏĥÎ¹Î±":6161,"ÏĦÎ¯ÏĥÎµÎ¹":6162,"ĠÎ·Î¼Îµ":6163,"ĠÏĢÎ¬ÏĦÏīÎ¼Î±":6164,"ÎĶÎ¹Î±":6165,"ÎĶÎĻ":6166,"ÏģÏīÏĢÎ±Î¹":6167,"ĠÎµÎ³Î¹Î½Îµ":6168,"ĠÏĢÏģÎ¿ÏĥÎŃÏĩ":6169,"ĠÎļÎ±Î»Î»":6170,"Î¼Î¿Î¹Î±":6171,"Ġ28":6172,"ĠÎ¬Î½ÏĦÏģÎµÏĤ":6173,"ĠÏĢÎ±ÏģÎ¬ÏĢÎ¿Î½":6174,"ĠÎłÎµÎ¶":6175,"ĠÎ±ÏģÎ½Î·":6176,"ÏįÏĢÏģÎ¹Î¿ÏĤ":6177,"ÏĨÎ±Î½Î·":6178,"ÏģÏĦÎ¿ÏħÎ½":6179,"ÏģÎ¯Î¶ÎµÎ¹ÏĤ":6180,"ĠÏĨÏħÎ»Î±Îº":6181,"ĠÏĩÎ±ÏģÏĦÎ¯":6182,"ĠÏĥÏĦÎ¹Î³Î¼ÎŃÏĤ":6183,"ĠÏĮÏĥÎ¿Î¹":6184,"ĠÏĨÎ¬ÏĥÎ·":6185,"ĠÎŃÏģÏĦÏī":6186,"ĠÏĨÎŃÏģÎ½ÎµÎ¹":6187,"ĠÎµÎºÎµÎ¯Î½Î¿":6188,"ĠÏĨÏĦÎ¬Î½ÎµÎ¹":6189,"ĠÎºÎ»ÏĢ":6190,"ĠÎ½Î¿ÏĥÎ¿ÎºÎ¿Î¼":6191,"ĠÎ´ÎµÏħÏĦÎµÏģÏĮÎ»ÎµÏĢ":6192,"Î¼Î¹ÎºÏģÎ®":6193,"ĠÏĮÎ½Î¿Î¼Î±Î½":6194,"ĠÎİÏĥÏĦÎµÏģÎ±":6195,"ĠÎ¿Î»Î¿ÎºÎ»Î·":6196,"ĠÎĳÎ¡Î§ÎŁÎĿÎ¤ÎĻÎļÎŁ":6197,"ÎĻÎ£ÎĹÎ¦ÎŁÎ¡ÎŁÎ£":6198,"';":6199,"ig":6200,"Ġis":6201,"Î½Î·Î½":6202,"Î»Î¬Î½Î¿":6203,"Î¬ÏĥÎµÎ¹ÏĤ":6204,"Î¯Î´Î·":6205,"ÏīÏĥÎ±":6206,"ÏĮÏĦÏī":6207,"ĠÎ±ÏįÏģÎ¹Î¿":6208,"Î£ÏĦÎ¿":6209,"Î¶Î¿Ïħ":6210,"Î±Î½ÏĦÎµ":6211,"ÏĩÎ¿Î½":6212,"Î¿ÏįÎ¸ÎºÎ¹Î±":6213,"ÏģÎ±Î³Î¼Î±":6214,"ĠÎ´Î¿ÏħÎ¼Îµ":6215,"ÎĹÎ¡ÎļÎĳÎ£":6216,"Î²ÎµÏĦ":6217,"Î¼Î±ÏĤ":6218,"ÎµÎ¯Î´Î·":6219,"Î¯Î½Î¹":6220,"ĠÏĨÏĮÎ½":6221,"ĠÏĨÎºÎ±":6222,"ĠÎ£Î±ÏĤ":6223,"Î¼ÎµÏĦÏģÎ¿":6224,"ĠÎºÎ±Î¸Î®":6225,"ÎŃÎ½Îµ":6226,"Î¬Î½Î¿ÏĤ":6227,"ÏĥÎ¹Î¼Î¿":6228,"ĠÏĢÏģÎ¿ÏĢ":6229,"ĠÏĢÎ±ÏģÏĮÎ½":6230,"ÎĵÎķÎĻ":6231,"ĠÎŁÏĩÎ¹":6232,"ÏĦÏģÏī":6233,"ĠÎĶÎ¯":6234,"ĠÎķÎ½Î·":6235,"ĠÎ·Î»ÎµÎº":6236,"ĠÏĥÎºÎ±Î»":6237,"Î»Î¹ÏİÎ½":6238,"ĠÎ¼ÏĢÎ±Î»":6239,"ÎµÎ¯Î½Î·":6240,"ÎµÏįÎ³ÎµÎ¹":6241,"ĠÎ¼Î¹Î»Ïİ":6242,"ĠÏĩÏģÎ®":6243,"ĠÏĩÏģÎ®Î¼Î±ÏĦÎ±":6244,"ÏĥÏĦÎ±ÏĥÎ·ÏĤ":6245,"ĠÎļÎ±ÏĦÎ¬":6246,"Î©ÎĿÎ£Î¤":6247,"ÎµÏĦÎ¯Î±ÏĤ":6248,"ĠÎĳÎ½ÏĦÏģÎ¿Î½Î¯ÎºÎ·":6249,"ĠÏįÏĥÏĦÎµ":6250,"ĠÏĢÎµÏģÎ¯ÏĦÎ¿Ïħ":6251,"ĠÎļÏģÎ¯ÏĥÏĦÎ·ÏĤ":6252,"Î¸ÏħÎ¼Î·":6253,"ĠÎºÎ¿ÏģÎ¿Ïį":6254,"ĠÎµÎ²ÏģÎŃ":6255,"ĠÎµÎ½ÏİÎ·":6256,"ĠÏĨÎ¯Î»Î¿ÏħÏĤ":6257,"ĠÏĦÏĥÎŃÏĢÎ·":6258,"ĠÎ£ÏħÎ½ÎµÏĩ":6259,"Î£Î©Î¤ÎĹÎ¡ÎļÎĳÎ£":6260,"ĠÏĥÏĩÎ¿Î»ÎµÎ¯Î¿Î½":6261,"ĠÏĢÏģÏĮÏĥÏīÏĢÎ±":6262,"ĠÎ¼Î¹Î»Î®ÏĥÎ¿ÏħÎ¼Îµ":6263,"ĠÏĥÎ¯Î¿ÏħÏģÎ¿ÏĤ":6264,"Î¿Î³ÏģÎ¬ÏĨÎ¿ÏĤ":6265,"ĠÏĥÎ¹ÏīÏĢÎ·":6266,"ÎĺÎķÎŁÎ¤ÎĹÎ£":6267,"ĠÎłÎ¿Î»ÏħÎ´ÎµÏįÎºÎ·ÏĤ":6268,"ĠÎĳÎļÎķÎĽ":6269,"ĠÏĢÎºÎ¹Î¿Î½":6270,"ĠÎķÏħÏĦÏħÏĩÏİÏĤ":6271,"ĠÎºÎºÎµÎ»Î»":6272,"Î©ÎĿÎ£Î¤ÎĳÎĿÎ¤":6273,"ch":6274,"ul":6275,"Î½ÎµÏį":6276,"ÏĥÏĦÎ¿Î¹":6277,"ÏĥÎ¼ÎŃÎ½Î¿Î¹":6278,"ÎºÎºÎ±":6279,"ĠÎµÎ¼Î¬":6280,"Î¸Î±Ïģ":6281,"ĠÎ´ÎŃÏĩ":6282,"ÏĦÎ·ÏģÎ·":6283,"ĠÎŃÏģÏĦÎµÎ¹ÏĤ":6284,"Î¯Î½Î¿Î½ÏĦÎ±ÏĤ":6285,"ĠÏĨÎºÎ¹":6286,"ÎļÎŁÎ¥ÎĽÎĽÎĹÎ£":6287,"ÏĥÎ¹Î¿ÏĤ":6288,"ĠÎ²Î±Î»":6289,"ĠÎ¬Î¼Î±":6290,"ĠÎ¾Î¹":6291,"ĠÏĢÎµÏĦÎ±":6292,"ĠÏħÎ¹Î¿":6293,"Î¼ÏĢÎ®":6294,"Î¿ÏįÎ½Îµ":6295,"ĠÎĪÏĥÎ¹ÎµÎ¹":6296,"ĠÎ´Î¹Î±Î´Î¹Îº":6297,"ĠÎµÎ¾ÎŃ":6298,"Î´Î±Îº":6299,"ĠÏĢÎµÏģÎ¹ÏĢ":6300,"ÎŁÎĿÎ¤ÎĳÎĻ":6301,"ÏĦÏĥÏīÎ½":6302,"ĠÎµÏĨÏį":6303,"ĠÎĳÎ½ÏĦÏģÎŃÎ±":6304,"ĠÎ¥ÎĳÎļÎĻÎĿÎĺÎŁÎ£":6305,"ĠÏĢÎ¿Î¹Î·ÏĦÎ¹ÎºÏĮ":6306,"ĠÎŃÎ²ÏģÎµÎ¹":6307,"Î¹ÏĥÏĦÏĮÏģÎ·":6308,"ĠÏĢÎ±Î»Î±Î¹":6309,"Î¶ÏīÎ³ÏģÎ¬ÏĨ":6310,"ĠÎ¿ÏħÎ»Î»Î±":6311,"ĠÏĨÎ¯Î»Î·":6312,"ĠÎ±Î»Î»Î¿":6313,"ĠÏĥÏİÎ¼Î±":6314,"ĠÏĨÏīÏĦÎ¿Î³ÏģÎ±ÏĨÎ¹ÏİÎ½":6315,"ÏĦÎŃÎ»Î¿ÏħÏĤ":6316,"ÎľÎĻÎĽÎĻÎĳ":6317,"ĠÎ»Î¿Î³Î¿ÏĦÎµÏĩÎ½Î¯Î±":6318,"Î´ÎµÏįÎµÎ¹":6319,"ĠÎ³Î±Î¼ÏĢÏģ":6320,"ĠÎ»ÏħÏĢÎ·":6321,"ĠÎŃÏģÏīÏĦÎ±ÏĤ":6322,"ĠÎ¼Î±ÏįÏģÎ±":6323,"ĠÎ¿ÏģÎ³Î±Î½":6324,"ĠÎŃÏĨÏħÎµÎ½":6325,"ĠÎºÎ¬Î¼ÏĢÎ¿Ïĥ":6326,"ĠÎļÏģÎ±ÏĦÎ¬ÎµÎ¹":6327,"ĠÎľÎ±ÏģÎ¹Î³":6328,"ĠÎºÏīÎ¼":6329,"ĠÏĩÎ±Î¼ÏĮÎ³":6330,"ĠÏĥÎºÎ¯ÏĦÏĥÏīÎ½":6331,"'s":6332,"KÏħ":6333,"KÏįÏĢÏģÎ¿Ïħ":6334,"ĠÏĦÏĮÏĥÎµÏĤ":6335,"Î»ÎŃÏĤ":6336,"ÎºÏģÎ±":6337,"ÎºÎºÎ¹":6338,"ĠÎ¼Î¿Î»":6339,"ÏĮÏĢ":6340,"ÏħÏĢÎ¿":6341,"Î£ÏĦÎ±":6342,"Î¶Î·ÏĤ":6343,"Î®ÏĥÎ±Î½":6344,"ÏĦÎ±Ïģ":6345,"ĠÏĦÎ¿ÏħÎ±Î»":6346,"ÏįÎ³Î¿Ïħ":6347,"ĠÎļÎ¥":6348,"ÏĥÏĦÏĮÎ½":6349,"Î¬Î½ÏĦÎ·ÏĥÎ·":6350,"ÏİÎ½ÎµÎ¹ÏĤ":6351,"Î¹Î¬Î¶ÎµÎ¹":6352,"ÏĢÎ±Î¸ÎµÎ¯":6353,"ĠÎµÎ¯Î¼Î±ÏĥÏĦÎµÎ½":6354,"Î¹ÏĥÎµÎ½":6355,"ĠÎĽÎµÏħÏĦÎŃÏģ":6356,"Î¼Î¬ÏĦÎ¹Î±":6357,"Î¿ÏįÎ½ÏĦÎ±Î½":6358,"ĠÎµÎ³ÏįÏģÎ¹":6359,"ĠÎĪÎ²":6360,"Î´Î¹Î¿Î½":6361,"ĠÏĢÎ¿Î»ÎµÎ¼":6362,"Î¸Î®ÎºÎµÏĤ":6363,"ÎµÎºÎ»ÎŃÎ³ÎµÏĦÎ±Î¹":6364,"ÎķÎĽÎĻÎļÎĹ":6365,"ĠÎ´ÎµÏĥ":6366,"ant":6367,"ĠÎŃÎ²ÏģÏī":6368,"ĠÎ´ÏİÎºÎµÎ¹":6369,"ĠÎĳÏĨÎ¿Ïħ":6370,"ĠÏĨÏīÏĦÎ¹Î¬":6371,"Î»Î»Î¿Î³Î®":6372,"ĠÎºÏģÎµÎ²":6373,"ĠÎºÎµÏĨÎ±Î»":6374,"ĠÎ´ÏģÏĮÎ¼Î¿ÏħÏĤ":6375,"ĠÏĦÎ¶Î¹Î±Î¯":6376,"ĠÎºÎ±ÏĦÎµÏħÎ¸":6377,"ĠÎ£ÎłÎ¥Î¡ÎŁÎ£":6378,"ĠÎ½ÎŃÎ¿":6379,"ĠÎ±Î¾Î¯Î±":6380,"ĠÎ¾ÎµÎºÎ¹Î½Î¬":6381,"ĠÎ¼ÏĢÎ±Î¯Î½Î¿ÏħÎ½":6382,"ĠÎĿÎµÎ¿ÎµÎ»Î»Î·Î½":6383,"ĠÎ¸ÎµÎ»ÎµÎ¹ÏĤ":6384,"ĠÎ±ÏĢÎ¿Î´ÎµÎ¯":6385,"ĠÎ£Î¬Î²Î¹Î±":6386,"ĠGEORGE":6387,"ĠÎ¼ÎµÎ³Î±Î»Ïį":6388,"ĠÎ´Î¹ÎºÎ·Î³ÏĮ":6389,"ĠÏģÏĮÎ»Î¿":6390,"ĠÏĢÎ»Î·ÏģÎ¿ÏĨÎ¿ÏģÎ¯ÎµÏĤ":6391,"ĠÎĵÎ¥ÎĿÎĳ":6392,"ÎĽÎķÎ¦Î©ÎĿÎĻÎļÎĹ":6393,"Î¤Î¡ÎķÎĻÎŁ":6394,"ĠÎ´Î¹Î±ÏĢÎ»Î¿Îº":6395,"ÎµÎ¹ÏģÏīÎ½Î¹ÎºÎ¬":6396,"ĠÎ¸Î±Î½Î¬ÏĦÎ¿Ïħ":6397,"ĠÎļÎĳÎ£ÎĳÎĿÎ¤":6398,"Î½ÎµÏĦÎ±Î¹":6399,"ÏĢÎ»Î¿":6400,"ĠÏĢÏĮÎ½Î¿":6401,"ĠÏĥÎ±ÏĨ":6402,"ĠÎµÎ½Î±ÏĤ":6403,"Î¿Î½ÏĮ":6404,"ĠÎķÎĿ":6405,"ĠÎķÎ¹Ïĥ":6406,"ĠÎķÏĥÎ¹ÎµÎ¹ÏĤ":6407,"ĠÎŃÏĢÎ¹":6408,"Î»Î»Î¯Î½":6409,"ĠÎĳÏĥ":6410,"ĠÏĢÎ¿ÏħÎ»Î¹Î¬":6411,"ÏĦÎ¿Î¼Î±Î¹":6412,"ĠÎļÎµÏģÏįÎ½ÎµÎ¹":6413,"ĠÎľÎľÎķ":6414,"ĠÎ¿Î½":6415,"Î±Î»ÎµÏĤ":6416,"ĠÎ¸ÎºÎµÎ¹":6417,"ĠÎ±ÏĢÎŃ":6418,"ÏĥÎ¹ÎŃÏĤ":6419,"ĠÏĢÎ±ÏģÏĮ":6420,"ĠÎŁÎ¸ÏīÎ¼Î±Î½":6421,"ÎłÎ¿Î¹":6422,"ĠÎĿÎ¹ÎºÏĮ":6423,"ÏĦÎ¯Î¶ÎµÏĦÎ±Î¹":6424,"ĠÏĦÎ¹Î¼Î®":6425,"Î¹Î¿Î¯":6426,"Î»Î¹ÏĤ":6427,"Î¯Î¶Î¿ÏħÎ¼Îµ":6428,"ĠÏĪÏħÏĥ":6429,"ĠÏīÏĥÏĦÏĮÏĥÎ¿":6430,"ÎĺÎ±":6431,"ĠÎ¶ÏīÎ·":6432,"ĠÎ¤Î¹ÏĤ":6433,"ĠÎ£Î±Î²Î¿ÏħÎ»Î»":6434,"ÏĨÎ¿ÏģÎ¿ÏĤ":6435,"ÏĥÏĥÎ¹Î±":6436,"ĠÎ´Î¿ÏħÎ»ÎµÎ¹Î±":6437,"ÏĢÏĮÏĦÎµ":6438,"ĠÎ¼ÎµÎ³Î¬Î»Î¿ÏĤ":6439,"ÏĮÎ¼ÎµÎ½Î¿ÏĤ":6440,"ÏĦÎ¿ÎºÏģÎ±ÏĦ":6441,"ĠÎłÎ¬ÏĨÎ¿":6442,"ĠÏĢÎ¹Î¬ÏĦÎ¿":6443,"ÏĨÏħÎ»Î»Î¿":6444,"Ġpro":6445,"ĠÏĥÏħÎ¶Î·ÏĦÎ®":6446,"ĠÎ´Î·Î¼Î¹Î¿ÏħÏģÎ³Î¯Î±":6447,"ĠÎĿÎµÎ¿Îº":6448,"ĠÎłÏĮÏĦÎµ":6449,"ĠÏĥÎ¿Î²Î±ÏģÎ¬":6450,"ĠÎ³Î»ÏħÎº":6451,"ĠÎµÎ¾Î±ÎºÎ¿Î»Î¿ÏħÎ¸ÎµÎ¯":6452,"ĠÎ¦Î¿Î¯Î²Î¿":6453,"ĠÏĢÏĮÏģÏĦÎ±Î½":6454,"Î¼Î±ÏĥÏĦÎ¹Î½":6455,"ĠÎ¿Î¹ÎºÎ¿Î³ÎŃÎ½ÎµÎ¹Î±ÏĤ":6456,"Î§Î©Î¡ÎŁÎ£":6457,"ĠÏħÏĢÎ½Î¿Î´ÏīÎ¼Î¬ÏĦÎ¹Î¿":6458,"ĠÏĥÏįÎ¼ÏĨÏīÎ½Î±":6459,"ĠÎĳÎĻÎľÎĻÎĽÎĻÎĳ":6460,"ĠÎĵÎĳÎĴÎ¡ÎĻÎĽÎĹÎ£":6461,".-":6462,"Î¼ÏĮÏĥ":6463,"ÏīÏģÎ±":6464,"ÏīÏģÎ·":6465,"ÏīÎ¼ÎŃÎ½Î±":6466,"Î³ÎµÏģ":6467,"ÎĳÏģÏĩ":6468,"Î£Îµ":6469,"Î£ÏħÎ¼":6470,"ĠÎ½Î¿Î¹":6471,"Î±Î½ÏĦÎ¹":6472,"ÏĩÏĦÎ·":6473,"ÏĩÏīÎ½":6474,"ĠÎ´Î¿ÏħÎ½":6475,"ĠÎ³Î¯Î½Î¿ÏħÎ½":6476,"ÏĦÎ·Î¼ÎŃÎ½Î·":6477,"ĠÎķÏģÎµÏħÎ½ÏİÎ½":6478,"ĠÎĳÏģÎº":6479,"ĠÎľÎ¥Î¡":6480,"ĠÎ¸Îº":6481,"Î¥ÎĳÎł":6482,"ĠÎ²ÏģÎ®":6483,"ĠÎ²Î±ÏĥÎ¯":6484,"ĠÏĢÎ±Î¼Îµ":6485,"ÎłÎ±Ïģ":6486,"ĠÎ±ÏĢÏĮÎ³":6487,"Î¹ÏĥÎ±Î½":6488,"ĠÏģÎ¹":6489,"ÏĥÎµÏīÏĤ":6490,"ÏĦÎ¯Î½Î±":6491,"ĠÏĢÎ¿ÏĦÎ¶Î¹":6492,"ÏģÎ³Î¿":6493,"Î¼ÏĢÎ¿ÏģÎµÎ¯":6494,"ĠÎ¼ÎŃÏĦÏī":6495,"ĠÎ±Î³Î½Î¿":6496,"ĠÏĥÏħÎ½Î´ÎŃ":6497,"Î¿ÏĨÎ¿Ïģ":6498,"ĠÎµÎ¾ÎµÎº":6499,"ÎĳÎĽÎĽÎĹ":6500,"ÏĦÏħÏĢÎ¿":6501,"ĠÎ¼ÏĮÎ½Î¿Î¹":6502,"ĠÏĦÏĮÏĦÎµÏĤ":6503,"ĠÎºÎ±Î¸Î±Ïģ":6504,"ĠÎ¥ÏĢÎ¿ÏħÏģÎ³":6505,"ÎľÎĳÎ¤ÎŁÎĽ":6506,"ÏĥÏĥÎµÏĦÎ±Î¹":6507,"Ġ32":6508,"ĠÎµÎ¼ÏĢÏĮ":6509,"ĠÏĢÎ¿Î»Î»Î¿ÏįÏĤ":6510,"ĠÎ±ÏģÎºÎµ":6511,"ĠÎºÎ¿Î»Î»Î·":6512,"ĠÏĨÎ¹Î»Î¿":6513,"ĠÎ±ÏĢÎ¿ÏĨÎ±ÏĥÎ¹":6514,"ÎŃÎ²Î·":6515,"ĠÎ±ÏĢÎ±Î½ÏĦÎ¬":6516,"ĠÎµÏģÏīÏĦÎµÏħ":6517,"Î¹ÎµÏģÎ¯Î´Î·ÏĤ":6518,"ĠÏĥÎºÎŃÏĨÏĦÎ¿ÏħÎ¼Î±Î¹":6519,"ĠÏĢÎµÎ¶Î¿Î³ÏģÎ±ÏĨÎ¯Î±":6520,"ĠÎľÎ±ÏģÎ¯Î±":6521,"ĠÎµÏĢÎ±ÏģÎ±":6522,"ĠÎĽÎ±Î¼ÏĢ":6523,"ĠÎĵÎ¹Î±Î½Î½Î·":6524,"ĠÏĥÏĦÎ®ÏģÎ¹":6525,"Î¿Î³ÏģÎ¬ÏĨÎ¿Ïħ":6526,"ÎķÎŀÎ©Î¤ÎķÎ¡ÎĻÎļÎŁ":6527,"Î±Î½Î¿ÏħÎ±ÏģÎ¯Î¿Ïħ":6528,"ĠÎŃÏĢÏĢÎµ":6529,"ĠÏĥÎºÎ¬Î½Î´Î±Î»Î¿":6530,"ÎŁÎ¥ÎĴÎĹ":6531,"ĠÎ³ÏģÎ®Î³Î¿ÏģÎ±":6532,"70":6533,"ÎµÎ·":6534,"ÎºÏĦÎ¬ÏĤ":6535,"ÏĮÎ»Î±":6536,"ÎŃÏĦÎ¿":6537,"ĠÎµÏģÏİÏĦÎ·":6538,"ÎŁÎ¤":6539,"Î¸Î·ÏĤ":6540,"ÏİÏĥÎ¿ÏħÎ½":6541,"Î¹ÎºÎ¿ÏĤ":6542,"ÏįÏĤ":6543,"ĠÎŃÏģÏĩ":6544,"ĠÎļÏĮÏģÎ·":6545,"ĠÎľÎłÎĳ":6546,"ÎļÏİÏĥÏĦÎ±ÏĤ":6547,"ÎŁÎ¥Î¡ÎĻÎĳ":6548,"Î¿ÏħÎ½ÏĦÎ±Î½":6549,"ĠÎºÎ¬ÏĦÏĥÎµ":6550,"ĠÎ±Î½ÏĦÏģÎ¿ÏĢÎ®":6551,"ĠÎ¦Î¿":6552,"ĠÎĿÎŁÎ£":6553,"ÎľÎŁÎ¥Î§Î¤ÎĳÎ¡ÎĹÎ£":6554,"ĠÏģÎŃ":6555,"ÏĦÎ¯Î¸ÎµÏĦÎ±Î¹":6556,"ĠÎµÎºÏĦÎ¹":6557,"ĠÎ¼Î¬Î¸ÎµÎ¹ÏĤ":6558,"ĠÎ¹Î´Î¹Î¿":6559,"ÎĳÎĿÎ¤ÎĸÎŁÎ¥ÎĽÎĹÎ£":6560,"ĠÏĪÎ±":6561,"ĠÎ±Î»Î»Î¬Î¾ÎµÎ¹":6562,"ĠÏĢÎ¿Î»Îµ":6563,"Î´Î®Î»ÏīÏĥÎ·":6564,"ĠÏĦÏĮÏĢÎ¿Ïħ":6565,"ĠÏĥÎ·Î¼ÎµÏģÎ¹Î½":6566,"ĠÏĢÏģÏİÏĦÎµÏĤ":6567,"ÏĨÎ¿ÏģÎŃÏĤ":6568,"ÏģÎ¿Î½Î¿Î¼":6569,"ÏįÏĢÏĦÎµÎ¹":6570,"ĠÏĨÏįÏĥÎ·":6571,"ĠÎµÎ¼Î¯":6572,"ĠÎĺÎµÏĥÏĥÎ±Î»":6573,"ĠÏĢÏģÏĮÎµÎ´ÏģÎ¿ÏĤ":6574,"Î¸ÏħÎ¼Î¬ÏĥÎ±Î¹":6575,"ĠÎºÎ±ÏģÏĦÎµÏģ":6576,"Î»ÏİÏĥÎµÎ¹ÏĤ":6577,"ĠÎ½ÎµÎ±Ïģ":6578,"ĠÏĨÎ¬ÎµÎ¹":6579,"ĠÏĨÎ¬Î¼Îµ":6580,"ĠÎ¼Î±Î½Î¹ÏĩÎ¬":6581,"ĠÎ±Î¾Î¯Î¶ÎµÎ¹":6582,"ÎºÎ¿Î¹ÏĦÎ¬Î¶ÎµÎ¹":6583,"ĠÎ³Î¿Î½Î¹":6584,"ĠÎ»Î±Î¹Î¼ÏĮ":6585,"1974":6586,"ĠÎķÏĢÎ¹Î¼ÎŃÎ»ÎµÎ¹Î±":6587,"ĠÎ²ÏģÎµÏĦÎ±Î½":6588,"ÏĦÎµÎ½ÎºÏĦÎ¬ÏĤ":6589,"ÏĦÎ±Î»Î³":6590,"ĠÎĪÎ½Î½ÎµÎ½":6591,"ĠÎ±Î½Î¿Î¯Î¾ÎµÎ¹":6592,"ĠÎ¶ÎµÏħÎ³Î¬ÏģÎ¹":6593,"ĠÎ£Î¤ÎĳÎĺ":6594,"ĠÎ´Î®Î¸ÎµÎ½":6595,"ĠÎķÏģÎ±ÏĥÎ¼Î¯Î±":6596,"ĠÎ¬ÏĢÎ¿ÏĪÎ·":6597,"ĠÎĵÎµÏīÏģÎ³Î¯Î¿Ïħ":6598,"ĠÎ¤ÏĥÎ¬ÏĢÏĢÎ±":6599,"ĠÎľÎ¿ÏħÏĥÎµÎ¯Î¿":6600,"ĠÎ½Î¬ÎºÎºÎ¿Î½":6601,"ĠÏĢÏģÎ¿Î²Î»Î®Î¼Î±ÏĦÎ±":6602,"ĠÎĳÎ¦Î¡ÎŁÎĶÎĻÎ¤ÎĹ":6603,"ĠÎ¦ÎĳÎ¡ÎĻÎĿÎ¤Îĳ":6604,"AÏĢ":6605,"UES":6606,"Ġon":6607,"Î½Î¿ÏħÎ¼ÎµÎ½":6608,"ĠÏĦÎ¿Ïĥ":6609,"Î¬ÎºÎ·":6610,"ĠÏĢÏĢ":6611,"ĠÏĢá½":6612,"ĠÎ¼Î¯Î±Î½":6613,"ÏĨÎºÎ¹Î±":6614,"ĠÎ³ÎµÎ¹Î±":6615,"ĠÎŃÏĩÎ±":6616,"ĠÎĳÎ¡ÎĻÎ£Î¤":6617,"ĠÎľÏī":6618,"ĠÎµÎ½ÏĦÎµÎ»ÏİÏĤ":6619,"ĠÏĨÏģÎ¿Ïħ":6620,"ÏĦÎ¬ÏĥÎµÎ¹ÏĤ":6621,"ĠÏĮÏģÎ³":6622,"ÎļÎĻÎĳ":6623,"ÎļÎŁÎ¥ÎĽÎĳ":6624,"ĠÎ»Î·":6625,"Î¿Î»Î¬":6626,"ÏĥÎ±ÏĦÎµ":6627,"ĠÎµÏĢÎ¿Î¯":6628,"ĠÏĥÎµÎ²Î±":6629,"ÏģÎºÎ·":6630,"ÏģÎºÎ¿Ïħ":6631,"ĠÎľÎķÎ¤":6632,"ĠÎµÎºÎ»Î¿Î³ÎŃÏĤ":6633,"ÏģÎ¿Îº":6634,"Î¹ÏİÎ¸Ïī":6635,"ÏĦÎ¶Îµ":6636,"ĠÎĪÏĩ":6637,"Î¼ÎŃÏģÎ¹":6638,"ÎķÎ¤Îķ":6639,"Î¿Î´Î¿ÏĤ":6640,"ĠÏĢÎ¿Î»ÎŃÎ¼Î¿Ïħ":6641,"ÎĺÎŁÎ¥Î£Îĳ":6642,"ÏĦÏĥÎ¿":6643,"ĠÎĳÎĿÎ¤Î¡":6644,"ĠÎµÏĨÏĦÎ¿Î¼Î¬":6645,"ĠÏĢÎ±ÏģÎ¬Î»Î»Î·Î»Î±":6646,"ĠÎľÎµÏĦÎ±":6647,"ĠÎłÎĳÎ¡Îĳ":6648,"ĠÎŀÎ±ÏĨÎ½Î¹ÎºÎ¬":6649,"ĠÎ¼ÎŃÏģÎ±Î½":6650,"ĠÎµÎ¼ÏĢÎ®":6651,"ĠÎŃÏĨÏĦÎ±":6652,"ĠÎ±ÎºÎ¿ÏįÎµÎ¹ÏĤ":6653,"ĠÏĢÎ¿Î»Î»Î®":6654,"ĠÏĦÎŃÎ»Î·":6655,"ĠÏĨÎ¹Î»ÎµÎ½":6656,"ĠÎ´ÏģÏĮÎ¼Î¿ÏĤ":6657,"ĠÎ£ÎĳÎĴÎĴÎŁÎ¥ÎĽÎĽÎĳ":6658,"ĠÏĥÏħÎ»Î»Î¿Î³ÎŃÏĤ":6659,"ation":6660,"ÎĻÎ¤ÎĸÎĻ":6661,"ĠÎ³ÏģÎ¬ÏĪÏī":6662,"ĠÎłÎķÎ¡":6663,"ĠÎµÏĢÎ¹ÏĥÎº":6664,"ĠÏĥÎºÎŃÏĪÎµÎ¹ÏĤ":6665,"ĠÎ´Î¬ÏĩÏĦÏħ":6666,"ĠÏĮÎ½ÎµÎ¹ÏģÎ±":6667,"ĠÎĳÏħÏĦÎ®":6668,"ĠÏĢÎµÏģÏĢÎ±ÏĦÎ¬":6669,"ĠÏĢÎ±ÏģÎµÎ¾":6670,"ĠÎµÎ³Î¯Î½Î·Î½":6671,"Î¡ÎĵÎĳ":6672,"ĠÏĦÎµÏĩÎ½":6673,"ĠÏĩÎ±ÏģÎ±ÎºÏĦÎ·ÏģÎ¹ÏĥÏĦ":6674,"ĠÎ¼Î¬Î½Î±Î½":6675,"ĠÏĥÏħÎ½ÎµÎ¹Î´Î·":6676,"ĠÎĽÎ¿ÏħÎ¶Î¹Î½Î¹Î¬Î½":6677,"ĠÎĳÏĨÏģÎ¿Î´Î¯":6678,"Î©ÎĿÎ£Î¤ÎĳÎĿÎ¤ÎĳÎ£":6679,"UEST":6680,"Î±ÏģÎ¹":6681,"ÎºÏĦÎ·":6682,"ÏĢÏį":6683,"ÎŃÎ¹":6684,"Î³Î¿Î½ÏĦÎ±ÏĤ":6685,"Î¶ÎµÏĤ":6686,"ĠÎ½ÎµÏģÎ¬":6687,"ĠÎºÎ±Î¹ÏģÏĮÏĤ":6688,"ĠÏĢÎ¿ÏħÎºÎ¬":6689,"ÏģÎ¹Ïİ":6690,"ÏģÎ¹ÏĥÏĦÎµÎ¯":6691,"ĠÎļÏī":6692,"ĠÎľÎĳ":6693,"ĠÎľÎ¬Ïģ":6694,"ĠÎłÏĮÏĥÎ¿":6695,"Î¯Î½Î½Ïī":6696,"ĠÏĨÎ±Ïģ":6697,"ÏīÎ½Îµ":6698,"ĠÏĩÏħÎ¼":6699,"ÏĥÏĦÎ¹ÎºÏĮÏĤ":6700,"ÏĮÎ½ÏĦÏīÎ½":6701,"ÏģÎ¯ÏĦÎ·":6702,"ĠÎµÏĢÎµ":6703,"ĠÎ®Î¾ÎµÏģÎ±":6704,"ÎĴÎŁÎ¥ÎĴÎĹ":6705,"ĠÏģÏİ":6706,"ÏģÎºÎ¿ÏįÎ¼Î±Î¹":6707,"Î¿ÏįÎ½ÏĦÎ±":6708,"ĠÎ¶Î·Î¼":6709,"ÎĳÎ¡ÎŁÎ¥":6710,"Î»Î¯ÎµÏĤ":6711,"ĠÎµÎ¾Ïħ":6712,"Î³ÎºÏģÎ±":6713,"ĠÎ®ÏĦÎ±Î½Î¿":6714,"ĠÎ±Î½Î±ÏĢ":6715,"ÏīÏģÏİ":6716,"ÏģÏİÏĥÎµÎ¹":6717,"Î¹Î±ÎºÎŃÏĤ":6718,"ÎķÎĻÎŁÎ¥":6719,"Î³Î±Î¼Îµ":6720,"ĠÎ³ÎµÎ½ÎŃÎ¸":6721,"ĠÎ´Î¹ÎºÎ±Î¯":6722,"ĠÏĦÎŃÎ¸Îº":6723,"ĠÏĢÎ¿Î»Î¹ÏĦÎ¹":6724,"ĠÎ½ÎµÏĮ":6725,"ĠÏĥÏĨÎ±Î¯":6726,"ĠÎ®ÏģÎ¸Îµ":6727,"ĠÎ»Î¯Î³Î±":6728,"ĠÏĦÎ¿ÏįÎ½ÏĦÎ·Î½":6729,"ĠÎ²ÏģÎ¬Î´Ïħ":6730,"Î²Î¬Î»Î»ÎµÏĦÎ±Î¹":6731,"ĠÎķÎŀÎ©Î¤ÎķÎ¡ÎĻÎļÎŁ":6732,"ÏįÎ¼ÏīÎ½":6733,"ĠÎ£Î¥Îľ":6734,"Î¿ÎºÏģÎ±ÏĦÎ¯Î±":6735,"ĠÏĢÎµÎ¸Î¬Î½ÎµÎ¹":6736,"ĠÏĦÏįÏĩÎ·":6737,"ĠÏĥÏĢÎ¿ÏħÎ´ÎŃÏĤ":6738,"ÎĳÎĽÎĽÎĹÎĽÎŁÎ£":6739,"ÏģÏĦÎµ":6740,"ĠÏĦÏħÏĢ":6741,"ĠÏĦÏįÏĢ":6742,"Î¬Î½Î±":6743,"ÎºÏĦÎ®":6744,"ÏīÏĦÎ¹ÎºÏĮ":6745,"ĠÎ¼Î±Î»Î±":6746,"ÏĮÎ»Î¿":6747,"ĠÎ±ÏĥÎº":6748,"ĠÎ½ÏĦÎµ":6749,"Î¸Î¿ÏħÏĤ":6750,"Î´ÏģÏį":6751,"ÏĦÎ±Î¾ÎµÎ¹":6752,"ÏĨÎ¿ÏħÏĤ":6753,"ĠÎ³Î¿ÏģÎ¬":6754,"ĠÎķÎ¯Î´ÎµÏĤ":6755,"ÏĦÎµÏĨ":6756,"ÎĹÎ§ÎŁÎ£":6757,"Î¾Î¹Î¬":6758,"ĠÎ¿Î¼Î¹":6759,"ÎĵÎķÎ¤ÎĳÎĻ":6760,"ÎºÎ±Î¯ÏģÎ¹":6761,"ÎŃÏģÎ³ÎµÎ¹Î±":6762,"ĠÎ¬ÏĦÎµ":6763,"ÏĢÎ±ÏģÎŃ":6764,"ĠÎ®Î»Î¹Î¿ÏĤ":6765,"ÎµÏħÏĩ":6766,"ĠÎĶÎ®":6767,"ĠÎ¾Ïħ":6768,"ÏģÎµÏĦÎµ":6769,"ĠÎĳÎ½ÏĦÎ¯":6770,"ĠÎĺÎµÎ»":6771,"ĠÎ¶Î¹":6772,"Î¸ÎµÏĥÎ·ÏĤ":6773,"Î¸Î·ÏĥÎ±Î½":6774,"Î¯Î¶ÎµÏĤ":6775,"ĠÏĢÏĮÎ¾Ïī":6776,"ÎĸÎĳÎ§ÎĳÎ¡ÎĻÎĳÎ£":6777,"ĠÎľÎ±Î¼Î¼Î±":6778,"Î½Î¬ÏĥÎ¹Î¿":6779,"ĠÎ´Î¹ÎµÏħÎ¸ÏħÎ½":6780,"ĠÎ²Î¬ÏĥÎ±Î½":6781,"Ġ26":6782,"ÏģÎ¹ÏĥÎµÏĤ":6783,"ÏįÏģÎ¹Î¿Î½":6784,"ĠÎľÎĳÎ¡ÎĺÎĳ":6785,"ĠÎŃÎºÏĢÎ»Î·Îº":6786,"ĠÏĥÏįÎ³Îº":6787,"Î¸ÎµÎ¹ÎµÏĤ":6788,"ĠÏĢÏģÏīÏĦÎ¿":6789,"ĠÏĥÎ®Î¼Î¼ÎµÏģÎ±":6790,"ĠÎ±Î»Î»Î¹ÏİÏĤ":6791,"ĠÎĸÎ±Ïĩ":6792,"ĠÎºÎ¿ÏħÎ²Î±Î»":6793,"ÏĥÏĦÎ¹ÏĦÎ¿ÏįÏĦÎ¿":6794,"ĠÎĨÎ½ÏĦÏģÎ¿":6795,"ĠÏĥÏīÏĥÏĦÏĮ":6796,"ĠÏĥÎºÎ¿ÏĦÎ¬":6797,"ĠÎµÏĢÎ¹ÎºÎ¿Î¹Î½":6798,"ÏįÎ¼ÏĨÏīÎ½Î±":6799,"ĠÎ´Î·Î¼Î¿ÏĥÎ¹ÎµÏį":6800,"ĠÎºÏģÎ¬ÏĦÎ¿ÏĤ":6801,"ĠÎ±Î½ÏĦÎ±ÏĢÎ¿":6802,"ĠÎ´Î¹Î±Î²Î±ÏĦÎ·":6803,"ÏħÏĢÏģÎ¹Î±ÎºÎ®ÏĤ":6804,"Î¿ÏĪÎ·ÏĨ":6805,"ĠÏħÏĢÎ®ÏģÏĩ":6806,"ĠÏĢÎŃÏģÎºÎ¹":6807,"Î¹ÏĢÎŃÏģ":6808,"ĠÏĩÎ¹Î»Î¹Î¬Î´ÎµÏĤ":6809,"ĠÏħÏĢÎ®ÏģÎ¾Îµ":6810,"ĠÎĿÎŁÎ£ÎŁÎļ":6811,"ĠÏĦÎŃÎ»ÎµÎ¹":6812,"Î»ÎµÏģ":6813,"Î¯ÏĦ":6814,"Î¼Î¿Î¯":6815,"ĠÏĢÎµÏĤ":6816,"ĠÏĢÎ±Î»Î¬":6817,"ĠÎ¼Î¿Î¯ÏģÎ±":6818,"ĠÎºÏİ":6819,"ĠÎºÏĦÎ¯":6820,"Î±Î¹Î¿":6821,"Î±Î¹ÏĦÎ¯Î±ÏĤ":6822,"ĠÎ±ÏĦÎµ":6823,"ĠÎ±Î¸Ïİ":6824,"ÎĳÎ½Î±":6825,"Î´Î¿Îº":6826,"ĠÏĦÎ¿Î»":6827,"ĠÎ³Î¿Ïħ":6828,"ĠÎķÎ³Îº":6829,"ĠÎłÎ¬Î½Ïī":6830,"ĠÏĨÎ¬Îº":6831,"ĠÏĩÎ¬Ïģ":6832,"ĠÏĩÎ±Î¹ÏģÎµ":6833,"ÏĥÏĦÏİÎ½":6834,"Î¿ÏģÎ¯Î±ÏĤ":6835,"ÏİÎ½Î¿Î½ÏĦÎ±Î¹":6836,"ÎłÎĳÎ¡":6837,"ÎłÎķÎ¤":6838,"ÎµÏģÎµ":6839,"ĠÎ±ÏĢÏĮÏĥ":6840,"ÎľÎĹÎ£":6841,"Î¹ÏĥÎ¼ÎŃÎ½Î¿":6842,"ĠÎĶÎ¹Î¬":6843,"Î¹Î½ÏĮ":6844,"ÎŁÎ¥ÎĽÎĻÎĳ":6845,"ĠÎĺÎĳ":6846,"ÏĦÎ¶Î¬":6847,"ĠÎ´Î¹Î±ÏģÎº":6848,"ĠÏĢÎ±ÏģÎ±Î¼Ïį":6849,"Î¯Î¶Î±Î½":6850,"Î¯Î¶Î¿Î½ÏĦÎ±ÏĤ":6851,"ĠÎºÎ¿ÏħÏģÎ±":6852,"ĠÎľÎ±Î¯ÏģÎ·":6853,"ĠÏīÏĥ":6854,"ĠÏĩÎ±Î¼Î±Î¯":6855,"ĠÎļÎ±ÏģÎ±":6856,"ĠÎĳÎĿÎ¤Î¡ÎŁÎĿÎĻÎļÎĹ":6857,"ĠÎµÏĨÏĦÎ¬":6858,"ĠÏĢÏģÎ¿ÏĦÎ¹":6859,"Î¼Î®Î¼Î±":6860,"ĠÎ¸ÎµÎ±ÏĦÏģ":6861,"Î¿ÏįÎ¼ÎµÎ½Î±":6862,"ÏĩÏīÏģÎ¯ÏĤ":6863,"ĠÎ´ÏİÏĥÏī":6864,"Î¿Î³ÏģÎ±ÏĨÎ¹ÎºÏĮ":6865,"ĠÏĥÏĩÎŃÎ´Î¹Î¿":6866,"ĠÎŃÎ³ÏģÎ±":6867,"ÏģÎ±ÎºÎ·Î½":6868,"ĠÎ¤Î¿ÏħÏģÎºÎ¿Îº":6869,"ĠÎºÎ¿Î¼Î¼Î¬ÏĦÎ¹":6870,"ĠÎ±ÏģÏĨÏĮÏĤ":6871,"ĠÏĢÏģÎ±Î³Î¼Î±ÏĦÎ¹ÎºÎ¬":6872,"ĠÎ¯Î½ÏĦÎ±Î¼ÏĢÎ¿Ïħ":6873,"ÏĢÎ»Î·Î¾Î·":6874,"ĠÎ·Î¼ÎŃÏģÎµÏĤ":6875,"ĠÏĢÏħÏģÎ¿Î²Î¿Î»":6876,"ĠÎ³ÎµÎ³Î¿Î½ÏĮÏĦÎ±":6877,"ĠÏĢÎµÎ¯ÏĦÎµ":6878,"ĠÏĮÎ¼Î¿ÏģÏĨÎ·":6879,"ĠÎ¬ÏģÏĩÎ¹ÏĥÎµ":6880,"ĠÎ¶Î¹Î²Î±Î½Î¯Î±":6881,"ĠÎ²Î±Î»Î¯ÏĦÏĥÎ±":6882,"ĠÏĢÎ¿Î¹ÎºÎ¯":6883,";'.":6884,"AN":6885,"KÏįÏĢÏģÎ¿":6886,"boo":6887,"Î¹ÏĩÎ±":6888,"ÎºÎŃÏĤ":6889,"ÎºÎ¿ÏĥÎ¹":6890,"ÏĢÎ·ÏĤ":6891,"ĠÏĥÏĢÏģÏİ":6892,"Î£ÎĻÎĿÎĹ":6893,"Î´ÎµÎ»":6894,"ÏĩÎ½Î·":6895,"ÎµÎ¯ÎµÏĤ":6896,"ĠÎ¼ÎµÏĦÏģ":6897,"ĠÎļÎŃÎ½ÏĦÏģÎ¿":6898,"Î¿Î¹Î¿Î½":6899,"ĠÎ¿Î¸ÏīÎ¼Î±Î½":6900,"ĠÎ¸ÎµÏģ":6901,"ĠÏĮÏģÎ¸":6902,"ĠÏĮÏĢÎ¿Î¹Î¿ÏĤ":6903,"ĠÏĩÎ¹":6904,"ÏĥÎ¹Î¿Ïħ":6905,"ÏĥÎ¹Î³Î¬":6906,"ÎĵÎŁÎ¥":6907,"ÎłÎµ":6908,"ÎµÎ»ÎµÏį":6909,"ĠÏģÎ·":6910,"ĠÎ·Î³":6911,"Î¦Î©Î¤ÎĹÎ£":6912,"Î¦Î¡ÎŁÎ£ÎŁÎ¥":6913,"Î¦ÎµÎ²ÏģÎ¿ÏħÎ±ÏģÎ¯Î¿Ïħ":6914,"ÏĥÎºÎ·Î½":6915,"ÏĦÎ¶Î¹Î¬":6916,"ĠÎµÎ¾Î¿ÏħÏĥÎ¯Î±ÏĤ":6917,"Î¼Î·ÏĥÎ·":6918,"ĠÎºÎ±ÏĦÎ±Î»Î±Î²":6919,"ĠÎºÎ¿ÏħÏģ":6920,"ĠÏħÏĢÎ¿ÏĨ":6921,"ĠÏħÏĢÎ¿Î½Î¿":6922,"ĠÏĩÏģÏĮÎ½Î¿Î½":6923,"Ġ23":6924,"Ġ29":6925,"ĠÎ¬Î½Î½Î¿Î¹":6926,"ÎºÎµÎ¹Î¿":6927,"Î·ÏĥÎ®":6928,"ĠÎ´Î·Î¼Ïİ":6929,"ÏįÏĢÎ½Î·":6930,"ĠÏĢÎ»Î¿Î¯":6931,"Î»ÏĮÏĢÏīÏĤ":6932,"ĠÎµÎ¯ÏĢÎ±Î¼Îµ":6933,"ĠÏĥÏĦÏģÎ±ÏĦÎ·Î³":6934,"Î³Î¹Î¿ÏĤ":6935,"ÎłÎĳÎĿÎĳÎĵÎĻÎ©Î¤ÎĹÎ£":6936,"ĠÏĢÎ®Î±Î¹Î½Îµ":6937,"Î»Î±Î²ÎµÎ½":6938,"ĠÎķÎºÏĦÏĮÏĤ":6939,"ĠÎ±ÏĢÎ¿ÏĨÎ¬ÏĥÎ¹":6940,"Ġcon":6941,"ĠÎ´ÏħÎ½Î±ÏĦÎ¬":6942,"Î¦ÎĳÎĿÎŁÎ¥Î¡ÎĻÎĳ":6943,"ÎĻÎ¤Î£Îĳ":6944,"ĠCyp":6945,"ÎĶÎ¥ÎľÎĳÎ¤ÎŁÎĽ":6946,"ÎļÎŁÎ¥ÎľÎĹÎ£":6947,"ĠÏħÏĢÎµÏģÎ²Î¿Î»":6948,"ĠÎ¿ÏħÏģÎ±Î½ÏĮÏĤ":6949,"ĠÎķÏĢÎ®Î±":6950,"ĠÎľÏĮÎ½Î¿Î½":6951,"ĠÎŃÎ´ÏīÎºÎµÎ½":6952,"ÏĥÎºÎ±ÏĨÎŃÏĤ":6953,"ĠÎ¼Î¹ÏĦÏĥÎ®ÏĤ":6954,"ĠÏĥÏħÎ³Î³ÏģÎ±ÏĨÎŃÎ±ÏĤ":6955,"ĠÎºÎ¿ÏĢÎµÎ»Î»Î¿ÏįÎ¸ÎºÎ¹Î±":6956,"ĠÎłÏģÏĮÎºÎµÎ¹ÏĦÎ±Î¹":6957,"Î»ÎŃÎºÏĦÎ¿Ïħ":6958,"ĠÎ§ÎĳÎ¡ÎĻÎļÎĽÎķÎĻÎĳ":6959,"ĠÎķÎ»Î¹ÏĥÎ±Î²ÎµÏĦ":6960,"')":6961,"47":6962,"57":6963,"Î±Î¸":6964,"ÏĦÏģÎ¯":6965,"Î»ÏīÏģ":6966,"Î¯ÏĥÎ¿ÏħÎ½":6967,"Î¼Î¼ÎŃÎ½Î·":6968,"Î¶Î¯Î½":6969,"ÏĨÏĨ":6970,"ÏĨÎ¬Î½":6971,"Î¹ÎºÎ¿Ïħ":6972,"ĠÏĦÎ¿ÏħÏģÎºÎ¿Îº":6973,"ÎķÎł":6974,"ĠÎ³Î½":6975,"ĠÎķÎºÎ±":6976,"Î²Î±Î½":6977,"ĠÏĨÎ¿Î½":6978,"ĠÎ£ÏĩÎ¿Î»":6979,"ĠÏĮÏĢÎ¿ÏĦÎµ":6980,"ĠÏĩÏĦÏħÏĢ":6981,"ĠÎºÎ±Î¼Î±":6982,"ĠÎºÎ±ÏĦÎ¿":6983,"Î¿Î»Î¹":6984,"ĠÎĵÎ±Î²":6985,"ÏİÎ½Î¹Î±":6986,"ĠÎµÏĢÎ¹Î±":6987,"ĠÎĶÎĻ":6988,"ĠÎĶÎµÏħ":6989,"ÏĢÏģÏĮÏĥÏī":6990,"ĠÎ§ÏīÏģÎ¯ÏĤ":6991,"ĠÎĽÏħ":6992,"Î¿Î¼Î¬":6993,"ÏĥÎµÎ¹Î¿":6994,"ĠÎ¼Î±ÏĦÎ¹Î¬":6995,"ĠÎ¼Î±Î¸Î®Î¼Î±ÏĦÎ±":6996,"ĠÎ±Î³ÎºÎ¬":6997,"ĠÎ±ÎºÏģÎ¹Î²":6998,"ÏĦÎ®Î¼Î±ÏĦÎ±":6999,"ĠÎ¼Î¬Î¸Î·Î¼Î±":7000,"ĠÎµÎ¾ÎµÏĦÎ¬":7001,"ÎĽÎķÎ£":7002,"ĠÎºÎ¿ÏħÏĦÏĥ":7003,"Î±Î¯ÏģÎµ":7004,"ĠÎĵÎ¹Î±ÎºÎ¿Ïħ":7005,"Ġ22":7006,"Ġ27":7007,"ĠÎ¼ÎŃÏģÎ·":7008,"ÎľÎķÎ¡ÎĻ":7009,"ĠÎ»Î¿Î³Î¿Îº":7010,"ĠÎ¼Î¿Î½Î¿ÏĢÎ¬":7011,"ĠÎŃÎ²Î±Î»Î±":7012,"Î´ÎµÎºÎ±":7013,"ĠÎµÏĩÎ¿ÏħÎ½":7014,"ĠÎ»Î»Î¯ÎµÏĤ":7015,"ĠÎ³Î½ÏīÏģÎ¹":7016,"ĠÎµÎ»Î»Î·Î½Î¹ÎºÎ¬":7017,"ĠÎķÎĽÎĽÎŁÎ¥":7018,"ĠÎ»ÎµÏĢÏĦÎ¿Î¼":7019,"Î³ÏģÎ¬ÏĨÎµÏĦÎ±Î¹":7020,"ĠÎ´ÏħÎ½Î±ÏĦÏĮÎ½":7021,"ĠÎłÎ¿Î¹Î±":7022,"ĠÏĥÎºÎŃÏĨÏĦÎµÏĥÎ±Î¹":7023,"ĠÎµÎºÎ¬Î¼Î±Î½":7024,"ĠÎ¼Î¹Î»Î¬ÏĤ":7025,"ÎĿÎ©ÎĿÎĻÎĳ":7026,"ĠÎ´Î¬ÎºÏĦÏħ":7027,"ĠÎºÎ±Î»ÏįÏĦÎµÏģÎ±":7028,"ĠÎ´Î¿ÎºÎ¹Î¼Î±":7029,"ĠÎ´ÎµÏįÏĦÎµÏģÎ¿":7030,"ĠÎķÎłÎĻÎļÎŁÎĻ":7031,"ĠÏĢÏĮÎ»ÎµÎ¼Î¿":7032,"ĠÎ´Î¹ÎºÎ·Î³Î¿Ïģ":7033,"ĠÎºÎ±ÏĦÎ±Î»Î±Î²Î±Î¯Î½Ïī":7034,"Î¿ÏĥÏįÎ½Î·Î½":7035,"ĠÏĥÎºÏįÎ²ÎµÎ¹":7036,"ĠÎĻÎµÏģÎ¿Ïĥ":7037,"ĠÏĦÎµÏĦÏģÎ¬":7038,"ĠÎ¶Î®ÏĦÎ·Î¼Î±":7039,"ĠÎĳÏģÏĩÎ¹ÎµÏĢÎ¯ÏĥÎºÎ¿ÏĢÎ¿ÏĤ":7040,"ĠÏĨÎ±Î³Î·ÏĦÏĮ":7041,"ĠÎĻÎ¿ÏħÎ»Î¯Î±":7042,"ĠÎ¨Î¥Î§ÎĻÎĳÎ¤Î¡ÎķÎĻÎŁ":7043,"ĠÎºÏģÎµÎ²Î²Î¬ÏĦÎ¹":7044,"ĠÎľÎ¥Î¡Î£ÎĻÎĿÎĹ":7045,"07":7046,"69":7047,"TÎ¿ÏħÏģÎº":7048,"ap":7049,"ver":7050,"Î·ÏĥÎµÎ½":7051,"ĠÎºÏģ":7052,"ĠÎºÎ±Î½Î±":7053,"ÎŃÏĥÏĦÎ·":7054,"ÎŁÎ¤ÎĳÎ£":7055,"Î¶Î®ÏĤ":7056,"ĠÏĦÎ¿ÏħÏĦÎ±":7057,"ĠÎ³Î½ÏİÎ¼Î·":7058,"ÏģÎ¹ÏĥÎ¼ÏĮ":7059,"ĠÎļÎ¿ÏįÎ»Î±":7060,"ĠÎłÎµÎ½":7061,"ĠÎ¿ÏĢ":7062,"ĠÏĦÎ±Îº":7063,"ÏģÎ¯ÏĥÎ¹":7064,"ĠÎĵÎ±Î»Î»":7065,"ĠÎ¬ÏĦÎ¿Î¼Î¿":7066,"Î¿ÏĥÏĢÎ¬ÏĥÎ¼Î±ÏĦÎ±":7067,"ĠÎµÎ¯Î´Î¿ÏħÏĤ":7068,"ĠÏĦÎ¶Î¹Î·":7069,"ĠÎ§Î¬Ïģ":7070,"Î¿Î¼Î®":7071,"Î»Î»Î¬Î´Î±":7072,"ĠÎµÎºÏĢÎ±Î¹Î´ÎµÏħ":7073,"ĠÎ±Î³Î¿Ïģ":7074,"ĠÎĴÎ¿Ïħ":7075,"ÎºÎ¬Î»Î±":7076,"Î¿ÏĨÏĮÏģ":7077,"ĠÎ´Î¹Î±ÎºÏģ":7078,"ĠÎºÎ¿Î¹ÏĦÎ±":7079,"ĠÎ±ÏħÏĦÎ¿Ïį":7080,"Î¿Î´ÏģÏĮ":7081,"ĠÎ±ÏĨÎ¿ÏģÎ¬":7082,"ĠÎºÏĮÎ¼Î±":7083,"ĠÎºÏħÏĢÏģÎ¹Î±ÎºÎ¬":7084,"ĠÎĳÎ½ÏĦÏģÎ¿Ïħ":7085,"ÏĦÎ¿ÏįÎ¼ÎµÎ½":7086,"Î¿Î»Î¿Î³Î¹ÎºÏĮ":7087,"ĠÏĥÎ¹Î¿Ïħ":7088,"ÏĦÎµÎ¯ÏĦÎ±Î¹":7089,"ĠÎ´Î·Î¼ÏĮ":7090,"ÏĥÏĦÎ®ÏģÎ¹":7091,"ĠÎ¼Î¿Î½Î¿":7092,"Î¸ÎµÎ½ÏĮÏĢÎ·":7093,"ĠÎµÏĢÎ®ÏģÎµÎ½":7094,"ĠÏĢÎ¿Î»Î»ÏįÎ½":7095,"ĠÎ¿ÏħÏĥÎ¹Î±ÏĥÏĦÎ¹ÎºÎ¬":7096,"ĠÎµÎ²Î´Î¿Î¼":7097,"ĠÎ¤Î¿ÏįÏĦÎ¿ÏĤ":7098,"ĠÎłÎ¿Î¹Î¿":7099,"ist":7100,"ĠÏĦÎ·Î»ÎµÏĨÏİÎ½":7101,"ĠÎ¦Î±Î½Î¿ÏįÎ»Î±":7102,"ĠÎ±Î½Î¸ÏģÏİÏĢÎ¿Ïħ":7103,"ĠÎĶÎ·Î¼Î¿ÎºÏģÎ±ÏĦÎ¯Î±ÏĤ":7104,"ĠÎĳÏģÏĩÎ¹ÎµÏĢÎ¹ÏĥÎºÏĮÏĢÎ¿Ïħ":7105,"ĠÏĥÎºÎµÏĨÏĦÏİ":7106,"ĠÎ®ÏģÏĦÎµ":7107,"ĠÎ³ÏģÎ¬ÏĨÏī":7108,"ĠÎ¼Î®Î½ÏħÎ¼Î±":7109,"ĠÏĢÎ¿ÏģÎµÎ¯Î±":7110,"Î´ÏģÎ¿Î¼Î®":7111,"ĠÏĢÏģÏĮÏĥÏĨÎ±":7112,"ĠÏĢÏģÎ¿ÎºÎ±Î»":7113,"ĠÏĩÏģÎµÎ¹Î¬Î¶":7114,"ĠÎµÏĢÏĮÎ¼ÎµÎ½Î·":7115,"ĠÎ²Î»ÎŃÏĢÎµÎ¹ÏĤ":7116,"ĠÎ²Î»ÎŃÏĢÎ¿ÏħÎ½":7117,"ĠÏĦÎŃÏĥÏĥÎµÏģÎ±":7118,"ĠÏĢÏģÎ¿Î²Î»Î·Î¼Î±ÏĦÎ¹":7119,"ĠÎ¥Î¬ÎºÎ¹Î½Î¸Î¿ÏĤ":7120,"Ġyou":7121,"ĠÎłÎ±ÏįÎ»Î¿ÏĤ":7122,"Î´ÏĮÏĥÎµÎ¹ÏĤ":7123,"ĠÏĦÏģÎ¹Î±Î½ÏĦÎ¬":7124,"ĠÎ¼Î¿ÏħÏģÎ¼Î¿Ïħ":7125,"ÏĢÎ±Î¯Î´ÎµÏħÏĥÎ·":7126,"ĠÎ´ÎµÏħÏĦÎµÏģÏĮÎ»ÎµÏĢÏĦÎ±":7127,"OFF":7128,"her":7129,"op":7130,"Î±Î³Î³":7131,"ÏĦÎµÎ¹ÏĤ":7132,"ÏģÏĦÏī":7133,"ĠÏĦÏĮÏĥ":7134,"Î»ÏĮÏĤ":7135,"Î¬Î»":7136,"Î¼Î¿Ïģ":7137,"ÏĢÎŃÎ½ÏĦÎµ":7138,"ĠÎ¼ÏĢÎ¬":7139,"ĠÏĥÎŃÏģÎºÎ±":7140,"ĠÎµÎ¯Î½":7141,"ĠÎµÏĦÎŃÎ»ÎµÎ¹":7142,"Î³ÎºÎ±":7143,"Î£Ïħ":7144,"Î¿Î½Î±":7145,"Î´Î¿Ïį":7146,"Î´ÎŃÎ½":7147,"ÏģÎ±Î²":7148,"Î¤Î¿Î½":7149,"ÏĦÎ·ÏĥÎµÏĤ":7150,"ĠÎŃÏĥÏĦÎµÎ¹":7151,"ÏĦÎ¿Î»Î¿Î³":7152,"ÏģÎ¹Î¿Ïį":7153,"ĠÎļÎ¿Î½":7154,"ĠÎłÏģÏī":7155,"ĠÎłÎ¬Î½ÏĦÎ±":7156,"Î±Î»Î¹ÏĥÏĦ":7157,"ĠÎ¤ÏģÎ¬":7158,"ĠÎ¤ÎķÎĽÎŁÎ£":7159,"ĠÏĨÏģÎ¿Î½":7160,"ĠÎ¸Î·":7161,"ĠÎ¸ÏĮÏģÏħ":7162,"ĠÎ£Î±Î»Î±":7163,"ÎļÎ±Î»":7164,"ĠÎ»ÎŃÎ½Îµ":7165,"ÏĥÏĦÎ¿ÏįÎ½":7166,"ÏĮÎ½ÎµÏĤ":7167,"ĠÏĢÎ±ÏģÎ·":7168,"ÎĵÎµÎ½":7169,"ĠÎµÏĢÎµÎ½":7170,"Î¿ÏĥÏĦÎ¬":7171,"ĠÎ¦Î¥":7172,"ĠÎ§Î¡Î¥Î£Î¤ÎĳÎĽÎĽÎĳ":7173,"ÎŃÎ»Ïī":7174,"Î»Î»Î±Î³Î®":7175,"ĠÎµÎºÎ´":7176,"Î·Î¼ÎµÎ¯":7177,"ĠÎ±ÎºÏģÎ¿":7178,"ĠÎ±ÎºÎ¿Î¼Î±":7179,"ÏĦÎ®Î½":7180,"ĠÎ¼ÏĢÎ®":7181,"ĠÏĥÏħÎ½ÎµÏģÎ³Î¬":7182,"Î»Î¯Î±Î½":7183,"ĠÎ»Î±Î»Ïī":7184,"Î¸ÎµÎ¯Î·":7185,"ĠÎļÎ±Î¸ÏİÏĤ":7186,"ĠÎµÏĨÎºÎ®":7187,"ĠÏĦÏĮÏĥÎ·":7188,"ĠÏĦÏĮÏĥÎ·Î½":7189,"ĠÏĢÏģÎ¿ÎµÎ´Ïģ":7190,"ĠÎłÎ±ÏĥÎ¹Î±":7191,"ĠÎ´Î¹Î¬ÏĥÏĦÎ·Î¼Î±":7192,"ĠÏĥÎ·Î¼Î¬":7193,"ĠÏĥÏĢÎ¯ÏĦÎ¹Î±":7194,"ĠÎŀÎŃÏģ":7195,"ÏģÎ®ÏĥÎµÎ¹ÏĤ":7196,"ĠÎµÏĢÎ®ÎµÏĤ":7197,"ĠÏĢÏģÏīÏĦÏĮ":7198,"ĠÎłÎ¬Ïī":7199,"ĠÎ£ÎµÎ¼Î¹":7200,"ĠÎµÎºÎµÎ¯Î½Î·Î½":7201,"ĠÎ³ÎµÎ½Î±Î¯ÏĦÎ¶ÎµÏĤ":7202,"ĠÎļÎĳÎĽÎŁÎľÎŁÎĻÎ¡ÎĳÎ£":7203,"ĠÎºÏģÏħÏĨ":7204,"ĠÎµÏĦÎ¿Î¹Î¼Î±":7205,"Ġde":7206,"ÏĥÏĢÏģÎ±":7207,"Î´Î·Î¼Î¯Î±":7208,"ĠÎºÎµÎ¯Î¼ÎµÎ½Î¿":7209,"ĠÏĢÎ·Î±Î¯Î½":7210,"ĠÎ¾Î±ÏĢÎ»ÏİÎ½ÎµÎ¹":7211,"ĠÏĢÎ±ÏĦÏģÎ¯":7212,"ĠÎ±Î½Î·ÏĥÏħÏĩÎµÎ¯ÏĤ":7213,"ĠÏĥÏĦÎ¯ÏĩÎ¿ÏħÏĤ":7214,"ĠÎľÎĳÎ¡ÎĻÎĵÎŁÎ¥ÎĽÎĽÎĳ":7215,"ĠÎµÏħÏģÏīÏĢÎ±Î¹":7216,"ĠÎŃÎ¼Î±Î¸Î±":7217,"ĠÎ±ÏĥÏĦÏħÎ½Î¿Î¼Î¯Î±":7218,"ÎľÏĢÎ±Î¯Î½ÎµÎ¹Î¿":7219,"ĠÎ±ÏģÏĢÎ¬Î¶ÎµÎ¹":7220,"ĠÎľÏĢÎ±ÏģÎ¯ÏĤ":7221,"ĠÎ´ÏħÎ½Î¬Î¼ÎµÎ¹ÏĤ":7222,"ÏĦÏģÎŃÏĢÎµÏĦÎ±Î¹":7223,"ĠÎłÎ±Î½ÎµÏĢÎ¹ÏĥÏĦÎ®Î¼Î¹Î¿":7224,"ĠÎķÎ³Î³Î»ÎŃÎ¶":7225,"ĠÏĪÏīÎ¼Î¯":7226,"ĠÎ¦ÏħÏĥÎ¹ÎºÎ¬":7227,"ĠÎļÎĳÎ£ÎĳÎĿÎ¤Î¡Îĳ":7228,"ĠÎłÎ±ÏĥÎ¹Î±Ïģ":7229,"Î·Î¼Î¬ÏĦÏīÎ½":7230,"Î»Î±Î»":7231,"ĠÎ±ÏĩÎ¬":7232,"Î£Îł":7233,"Î¶Î¬":7234,"Î¶Î¿ÏħÎ¼Îµ":7235,"Î¸ÏĮ":7236,"Î¸Î¹Î±":7237,"Î´Î®ÏĤ":7238,"Î¤ÏĮ":7239,"ĠÎ´Î¿Î»Î¿ÏĨÎ¿Î½":7240,"ÏĦÎµÎ¯Î±ÏĤ":7241,"Î¼Î±ÎºÏģ":7242,"ĠÎĳÎ¡":7243,"ÏģÎ¹ÏĥÏĦÎ·":7244,"ĠÎľÎ¹Îº":7245,"ĠÎłÎĽÎĳÎĿÎŁ":7246,"Î¾Î¹ÎºÏĮ":7247,"Î¯Î½Î¿Ïħ":7248,"ĠÎ¸Î»Î¯":7249,"ĠÎ±ÏĢÎ¿Î¼":7250,"ĠÎ±ÏĢÎ¿Ïĩ":7251,"ÎļÎĳÎ¡Î¤ÎķÎ¡":7252,"ÏĥÏĦÏİÏĤ":7253,"ĠÎ²Î¬Ïģ":7254,"ĠÎ²Î®Î¼Î±":7255,"ĠÏĢÏģÏĮÎ³":7256,"ĠÏĥÎ¿ÏħÎ²":7257,"ĠÎµÏĢÎ¿":7258,"ĠÎµÏĢÎ¹Î¬":7259,"ÎµÏģÎ¿":7260,"ĠÎµÎ¯Î´Î·":7261,"Î¹ÏĥÎ¼ÎŃÎ½Î¿Î¹":7262,"ÏĦÎ±Î½Îµ":7263,"ĠÏģÎ±Î½ÏĦÎµ":7264,"ĠÎ¼Î±Î¶Î¹":7265,"ÎĶÎ¡ÎŁÎ£":7266,"ÎĻÎ©ÎĿ":7267,"ÏĦÎ®ÏĥÎ¿ÏħÎ½":7268,"ĠÎ¼ÏĢÎ»Îµ":7269,"ĠÏĥÏħÎ½Î·Î¸":7270,"ÏĥÎ±Î½Îµ":7271,"ĠÎ±ÏħÏĦÎ¿ÏįÏĤ":7272,"ĠÎºÎ¿ÏħÏĦÎ¯":7273,"ĠÎµÏĢÎ¹ÏĥÏĦÎ®":7274,"ĠÏĢÎµÏģÎ¹Î¿Ïģ":7275,"ÏĢÎ¿Î¹Î¿Î½":7276,"ÎĺÎķÎĿ":7277,"ĠÎ±ÏħÏĦÎ¿Î¯":7278,"ĠÎµÏħÎ±Î¹ÏĥÎ¸Î·":7279,"ĠÎ±ÏģÏĩÎ¹ÎºÎ¬":7280,"ĠÎºÏģÎ±ÏĥÎ¯":7281,"ĠÎłÎĳÎĿÎĳÎĵÎĻÎ©":7282,"ĠÎ±ÏģÏģÏİ":7283,"ÏįÏĢÏģÎ¹Î¿":7284,"ĠÏĦÏģÎ¿ÏĨ":7285,"ĠÎ´Î¹ÎºÏĮÎ½":7286,"ĠÎŃÎ²Î±Î»ÎµÎ½":7287,"ĠÎºÎ±ÏĨÎµ":7288,"ÎĪÎ½Ïī":7289,"ĠÎ³ÎµÎ¼":7290,"ÏĥÏħÎ³Îº":7291,"res":7292,"ĠÎĺÎŃÎ»ÎµÎ¹":7293,"ĠÎ»Î¹Î¼Î¬Î½Î¹":7294,"ĠÏģÏīÏĦÎ¬":7295,"ĠÎºÎ¬Î½Î¿ÏħÎ¼Îµ":7296,"ĠÎ¿ÏĢÎ¿Î¯Î¿Î¹":7297,"ĠÎµÎ¹ÏĥÎ²Î¿Î»Î®":7298,"ĠÎľÎµÎ»Î±ÏĤ":7299,"ĠÏĥÏĦÎµÏĦÎŃ":7300,"ĠÎķÎ»ÎŃÎ½Î·":7301,"Î»Î±Î¼Î²Î¬Î½ÎµÎ¹":7302,"ĠÏĥÏĢÎ¿ÏħÎ´Î±":7303,"ĠÏĥÏĦÎ®Î¸Î¿ÏĤ":7304,"ĠÏģÎ±ÏĦÏĥÎ¹":7305,"Î³ÏīÎ³Î®ÏĤ":7306,"ĠÎ¼ÎµÎ¹Î½Î¯":7307,"ĠÎ´Î¿ÎºÎ¹Î¼Î¬":7308,"ĠÎ£Î¹Î³Î¬":7309,"ĠÎĳÎ¼Î¼ÏĮÏĩÏīÏĥÏĦÎ¿ÏĤ":7310,"ĠÎ£Î¿ÏĨÎ¯Î±":7311,"Î¯ÎºÎ·ÏĥÎ·":7312,"ĠÏĪÏħÏĥÎ¹Î®":7313,"ĠÎĽÎ¿Î³Î¿ÏĦÎµÏĩÎ½Î¯Î±ÏĤ":7314,"ĠÎķÎ»ÎµÎ³ÎºÏĦÎ®":7315,"ĠÏĦÏĥÎ¬Î¹":7316,"ĠÎ±Î½ÏĦÎ¹Î»Î±Î¼Î²Î¬Î½ÎµÏĦÎ±Î¹":7317,"ĠÎ±Î½ÏĦÎ¹Î¼ÎµÏĦÏī":7318,"ĠÎłÎķÎ¡ÎĻÎļÎĽÎĹÎ£":7319,"ĠÏĥÎºÎ¿ÏĦÎ¬Î´Î¹":7320,"ĠÎĿÎŁÎ£ÎŁÎļÎŁÎľ":7321,"ĠÎ£ÎµÎ¼Î¹Î»ÎŃ":7322,"ce":7323,"tps":7324,"Î±ÏĥÎ¹Î½":7325,"ĠÏĢÏĮÏĥ":7326,"ÏīÏĥÏĦÎµ":7327,"ĠÎµÏģÏİ":7328,"ĠÎ±Î´Î¹Î¬":7329,"Î±Î½ÏĦÎ±":7330,"Î¹Î±Î¯":7331,"ÎĻÎĻ":7332,"Î¸Î¿Î½":7333,"Î¸Î¸Î±":7334,"Î´ÏģÎ¿ÏĤ":7335,"ÏĩÎµÎ½":7336,"Î¤Î¿Ïį":7337,"ÎķÎĽÎĳ":7338,"ÎķÎĻÎ£":7339,"ÏįÎ½Î±":7340,"ĠÎŃÎ»ÎµÎ¹":7341,"ĠÎ¼ÎµÎ»ÎŃ":7342,"ÏĦÎ¿Î¼Î¼":7343,"ĠÎļÎ©ÎĿÎ£Î¤ÎĳÎĿÎ¤ÎĳÎ£":7344,"Î¾Î¯Î±":7345,"ĠÎ±ÏĢÏİ":7346,"ĠÎ£Î±Î»":7347,"ĠÎ£ÏĦÎ¿Î½":7348,"ÏĥÎ·ÎºÏİ":7349,"ĠÎ»Î¿Î¹":7350,"ÎŃÏģÎ·":7351,"ĠÎ¬Î¾Î¹":7352,"ĠÎµÏĢÏģÏĮ":7353,"ĠÎµÏĢÎ±Î½Î±":7354,"ĠÏĥÏħÎ¼Î¼Î±":7355,"Î»Î·ÏĥÎ±":7356,"ĠÏĥÏĦÎ¿Ïħ":7357,"ĠÎµÎºÏĦÎµ":7358,"ĠÎ´Î¹Î±ÎºÏĮÏĢ":7359,"ĠÏĢÎ¬Î½Îµ":7360,"ÎµÎ¯Î½Î±Î¹":7361,"ĠÎºÎ±ÏĦÎ±ÏĥÏĦÏģÎ¿ÏĨ":7362,"ÏģÎ¹Î½Î®":7363,"ĠÎµÏĢÎ¹ÏĦÏħÏĩ":7364,"ĠÎµÏĢÎ¹Î»Î¿Î³Î®":7365,"ÏĦÏĥÎ¯":7366,"ÏĦÎµÏģÎ¿ÏħÏĤ":7367,"ĠÎ§ÏģÏħÏĥÏĦÎ¬":7368,"ÏģÎ¿ÏħÎ¼ÎµÎ½":7369,"ĠÏĩÏģÏĮÎ½Î¿Ïħ":7370,"ÏĦÏİÏĥÎµÎ¹":7371,"ĠÎ±ÏģÏĩÎ¹":7372,"ĠÎłÎĳÎĿÎĳÎĵÎĻÎ©Î¤ÎĹÎ£":7373,"ĠÎ³ÎµÎ½Î½Î®":7374,"ĠÏĨÏįÎµÎ¹ÏĤ":7375,"ĠÎļÎ¬Î¸ÎµÏĦÎ±Î¹":7376,"ĠAnd":7377,"ĠÎŃÎºÎ»ÎµÎ¹":7378,"ĠÎ¼ÎµÎ³Î¬Î»Î±":7379,"ĠÏĢÏģÏīÎ¯Î½":7380,"ĠÎļÏħÏģÎ¹Î¬ÎºÎ¿ÏĤ":7381,"Î´Î¬ÎºÎ¹":7382,"Î¡ÎĳÎĵÎĻÎ©Î¡ÎļÎĹÎ£":7383,"ĠÎ±ÏĨÎ®ÎºÏī":7384,"ĠÏĨÎ¬ÎµÎ¹ÏĤ":7385,"ĠÎµÎ»Î»Î·Î½Î¹ÎºÏĮ":7386,"ĠÏĨÎ±Î½ÏĦÎ¬":7387,"Î¿ÏįÏĥÎ±Î¼ÎµÎ½":7388,"Î¿Î¿Î¿":7389,"ĠÎĬÎ´ÏģÏħÎ¼Î±":7390,"ĠÎ£ÏħÎ¼ÏĢ":7391,"ÎŃÎ³ÎµÏģ":7392,"ĠÎºÎ¹Î½Î®ÏĥÎµÎ¹ÏĤ":7393,"ĠÏĦÏħÏĩÎ±":7394,"ĠÏĦÏģÎ¹Î¬Î½ÏĦÎ±":7395,"ĠÏĢÏģÎ¿Î·Î³Î¿ÏįÎ¼ÎµÎ½Î·":7396,"ĠÎłÎŃÏĦÏģÎ¿ÏĤ":7397,"ÎļÎĳÎ¡ÎĳÎĵÎĻÎ©Î¡ÎļÎĹÎ£":7398,"ĠÎĴÎµÎ½ÎµÏĦÎ¯Î±":7399,"ÎľÏĢÎ±Î¯Î½ÎµÎ¹Î·":7400,"ĠÎ·Î¼ÎŃÏģÎ±ÏĤ":7401,"ĠÎµÎ±ÏħÏĦÏĮÎ½":7402,"ĠÎļÏīÎ½ÏĥÏĦÎ±Î½ÏĦÎ¹Î½Î¿ÏįÏĢÎ¿Î»":7403,"ĠÎ¬ÏģÎºÎµÏĪÎµÎ½":7404,"ĠÏĦÎ¯ÏĦÎ»Î¿":7405,"ÎľÎķÎ¤ÎķÎ§":7406,"ĠÏģÎ¿Î»ÏĮÎ¹":7407,"ĠÏħÎ¹Î¿Î¸Îµ":7408,"ĠÎ±ÏĢÏĮÏĥÏĢÎ±ÏĥÎ¼Î±":7409,"AÏħÎ³Î¿ÏįÏĥÏĦÎ¿Ïħ":7410,"IÎ¿ÏħÎ»Î¯Î¿Ïħ":7411,"un":7412,"ÎµÏĩÎ±":7413,"ÎµÎ²Î¬":7414,"ÎºÎ¬Î½":7415,"Î±Î¹Ïĥ":7416,"ÎµÎ¹Î´":7417,"Î³ÏİÎ½":7418,"Î¶Î¿Î½":7419,"Î¶Î¹Î¬":7420,"ÏĩÎ¿Î¹":7421,"ĠÏĦÎ¿ÏħÏĦÎ¿ÏĤ":7422,"ÎĽÎĻÎĳÎ£":7423,"ĠÎķÏģ":7424,"ĠÎŃÏĥÎµÎ¹ÏĤ":7425,"ĠÎĳÎļÎŁÎ¥":7426,"ÎµÎ¯Î¼ÎµÎ½Î¿":7427,"ĠÎļÎ¿Ïį":7428,"ĠÎľÎŁÎ¥Î§Î¤ÎĳÎ¡ÎĹÎ£":7429,"ĠÎłÎ»Î¬":7430,"ĠÎłÎ±Î½Î±":7431,"ĠÏĨÏĮÏģ":7432,"ÎļÎŁÎ¥ÎĽÎĽÎĳ":7433,"ĠÎ²ÎµÏģÎ¬":7434,"ĠÎ²ÏħÎ¶Î±Î½ÏĦÎ¹Î½":7435,"ÏģÎ¯ÏĥÎµÎ¹ÏĤ":7436,"ÎºÎ±ÏĥÎ¹Î½":7437,"ĠÎ¬Î¸":7438,"ĠÎ®ÏĩÎ¿ÏĤ":7439,"Î¹ÏĥÎ®":7440,"ĠÎĹÎ§ÎŁÎ£":7441,"ĠÎĶÎ±":7442,"ÎµÎ»ÎµÏħÎ¸ÎµÏģ":7443,"Î¿Î¼Î·":7444,"ĠÎ·Î¼ÎµÏģ":7445,"ÎĶÎ©":7446,"ĠÏĥÎºÎ¹Î¬":7447,"ĠÎµÎºÎ¿Ïħ":7448,"ÏģÏĩÎ·":7449,"ĠÎĪÎ»ÎµÎ½Î±":7450,"ĠÎ´Î¹Î±Î¼ÎŃ":7451,"ĠÎµÎ¹ÏĢÎµÏĤ":7452,"ĠÏĢÎ±ÏģÎ±ÏĢÎ¿Î½":7453,"ÎºÎ¹Î¬Î½":7454,"ĠÎ±Î½Î±Î¶":7455,"ĠÎ±Î½Î±ÏĥÏĦÎ±":7456,"ĠÎ±ÏĨÎµÎ½":7457,"ĠÎľÎ±ÎºÎ¬ÏģÎ¹":7458,"ĠÎµÏĢÎ¹ÏĥÏĦÏģÎŃÏĨÎµÎ¹":7459,"Î½Î¬ÏĤ":7460,"ÏĦÎµÏģÎ¿Î¹":7461,"Î·Î³Î®Î¼Î±ÏĦÎ±":7462,"ĠÎºÎ±Î¸ÏģÎŃÏĨ":7463,"ĠÎĳÎ½ÏĦÏģÎŃÎ±ÏĤ":7464,"ĠÎ¬Î½ÏĦÎµ":7465,"ĠÏĥÎ·Î¼ÎµÏģÎ±":7466,"ÎľÎĳÎ¤Îĳ":7467,"ĠÎ´Î¿ÏħÎ»ÎµÏį":7468,"Î¼Î¿Î½Î¹ÎºÏİÎ½":7469,"ĠÏįÏĢÎ½":7470,"ĠÏĢÎµÏģÎ¯ÏĢÎ±":7471,"ĠÏĢÎ¿Î¹Î·ÏĦÎ¹ÎºÎ®ÏĤ":7472,"Î¸ÎµÏģÎ¿":7473,"ĠÏĥÏįÎ¶ÏħÎ³":7474,"ĠÏĥÏħÎ¼ÏĨÎµÏģ":7475,"ĠÎ£ÎĳÎĴÎŁÎ¥ÎĽÎĽÎĳÎ£":7476,"ĠÎ±Î´Î¹Îº":7477,"ĠÏĨÎ¯Î»Î¿":7478,"ĠÏĥÏĩÎŃÏĥÎµÎ¹ÏĤ":7479,"Î¿ÏįÏĥÎ±Î¼Îµ":7480,"ĠÏĥÎºÎ¿ÏĦÏī":7481,"ĠÏĥÎºÎŃÏĨÏĦÎµÏĦÎ±Î¹":7482,"ĠÎ½Î¹ÏİÎ¸ÎµÎ¹":7483,"ĠÎºÎ¿ÏħÎ²ÎŃÎ½ÏĦÎ±Î½":7484,"ĠÎĳÎºÏģÎ¹Î²ÏİÏĤ":7485,"ĠÏĢÎ±Î½ÏĦÏģÎµÏĨ":7486,"ĠÎ´Î¯ÎºÎ±Î¹Î¿Î½":7487,"ĠÎ¾Î±ÏĢÎ»Ïī":7488,"ÏĥÎºÎµÏħÎ®":7489,"ĠÏĥÏĩÎµÏĦÎ¹ÎºÎ¬":7490,"Î¿Î´ÏĮÏĥÎ·ÏĤ":7491,"ÎŁÎ¡ÎĳÎ£ÎĻÎĳ":7492,"ĠÎºÎ±Î¸ÎµÏĥÏĦÏİÏĤ":7493,"ÎļÎĳÎĽÎĽÎĻÎ£ÎĺÎķÎĿÎĹ":7494,"ĠÎķÏħÏģÏİÏĢÎ·":7495,"ĠÎ´ÏħÏĥÏĦÏħÏĩÏİÏĤ":7496,"ĠÎ±Î´ÎµÏģÏĨ":7497,"ĠÎ²ÏģÏįÏĥÎ·":7498,"ĠÏģÎ®Î³Î±ÏĤ":7499,"Î¹ÏĥÏĦÏĮÏģÎ·Î¼Î±":7500,"ĠÎ±ÏĢÏĮÎ³ÎµÏħÎ¼Î±":7501,"ĠÎķÎłÎĻÎļÎŁÎĻÎĿÎ©ÎĿÎĻÎĳ":7502,"36":7503,"Ġan":7504,"Î½ÏĮÏĤ":7505,"ÏģÎ¹ÎºÎ¬":7506,"ÎºÏĦÏģ":7507,"ÏĢÎ¿ÏħÎ½":7508,"ĠÏĢÎ±Î½Î±":7509,"ĠÏĢÎ»ÎµÎ¹":7510,"ĠÏĢÎ½Î¬":7511,"Î³Î¿ÏĤ":7512,"ÎĳÎ¡Îĳ":7513,"ĠÎ½ÏĦÎ¿Ïħ":7514,"ÎĻÎĽÎĻ":7515,"Î´Î¯Î±ÏĤ":7516,"ÏĩÎµÏĤ":7517,"ÎµÎ½Î½Î¿":7518,"ĠÎķÎ¼ÎŃÎ½Î±Î½":7519,"ĠÎŃÎ²Î±":7520,"Î²Ïİ":7521,"ĠÎĳÏģÎ³":7522,"ĠÎłÎŁÎ¥ÎĽ":7523,"Î±Î»Î±Ïĥ":7524,"ĠÎ¤ÎĻÎ¤":7525,"ĠÎ¸ÏģÎ·":7526,"ÎļÏįÏĢÏģÎ¿ÏĤ":7527,"Î¬Î½ÎµÎ¹ÏĤ":7528,"ĠÎ²Î¿ÏħÎ½":7529,"ĠÎ²ÎºÎ¬":7530,"Î¿Î»ÏįÎ¼ÏīÎ½":7531,"ĠÎ±Î½Ïİ":7532,"ĠÎĿÎŃÎ±":7533,"ÎľÎĹÎĿÎĹ":7534,"ĠÎ®ÏģÏī":7535,"ÏĮÏĥÏĢÎ±ÏĥÎ¼Î±":7536,"ĠÎ¾Î±ÏĨÎ½":7537,"ĠÏĢÎ¿ÏĦÎ®ÏģÎ¹Î±":7538,"ÎĶÎ¹":7539,"Î±ÏģÎŃ":7540,"ĠÏĥÎºÎ¿Ïģ":7541,"ĠÎ¼Î¬ÏĥÏĦ":7542,"ĠÎĴÎĳÎ£":7543,"ĠÎ´Î¹Î±Î²Î¬":7544,"ĠÎ±Î½Î±Î¼":7545,"ĠÎ±Î½Î±ÏĨÎŃÏģÎµÏĦÎ±Î¹":7546,"ĠÎºÎ±ÏĦÎ±Î»Î®":7547,"ĠÏĢÏģÎ¿ÏĥÎº":7548,"ĠÏĢÏģÎ¿ÏĥÎµÏĩ":7549,"ĠÎºÎ±Î½ÎµÎ¹":7550,"ĠÎºÏĮÏģÎ·ÏĤ":7551,"ÎŁÎĿÎĹÎ£":7552,"ĠÏĦÏģÎ±Î¿Ïį":7553,"ĠÎ´Î¹ÏĢÎ»Î±":7554,"ĠÏĢÏģÎ¬ÏĥÎ¹":7555,"ĠÎ²Î¬Î»Î¿ÏħÎ¼Îµ":7556,"ĠÏĢÏģÏİÏĦÎ·Î½":7557,"ĠÎīÏģÏĦÎµÎ½":7558,"ÎŃÏĪÎ¿ÏħÎ½":7559,"ĠÎŃÎºÎ¿ÏĪ":7560,"Î¿ÏĢÎ¿Î¹Î·":7561,"ĠÏĢÎµÏģÎ®":7562,"Î¹ÏĥÏĦÎ®ÏĤ":7563,"ĠÏĢÎ±Î»Î¹ÏĮ":7564,"ĠÏĥÏħÎ³ÎºÎ¹Î½Î·":7565,"Ġ50":7566,"ĠÏĦÏģÏĮÏĢÎ¿ÏĤ":7567,"ĠÎ¼ÏħÏģÏī":7568,"Î¡ÎĳÎ£ÎľÎĻÎĳ":7569,"ĠÎµÏģÎ³Î±":7570,"ÎľÎĻÎĽÎķ":7571,"ĠÎ¥ÎłÎĳÎĽÎĽÎĹÎĽÎŁÎ£":7572,"ĠÎ½ÏĮÎ¼Î¹":7573,"ĠÏĢÏģÎ±Î³Î¼Î±ÏĦÎ¹ÎºÏĮ":7574,"ĠÏĨÎ¿Î²Î¬":7575,"ĠÏĨÎ¿Î¿ÏįÎ¼Î±Î¹":7576,"ÎŃÎ»Î»ÎµÏĤ":7577,"ĠÎ±Î½Î±Î³ÎºÎ¬":7578,"ĠÎ±Î½Î±Î³Î½Ïī":7579,"Ġ1980":7580,"ĠÎŃÏĦÎ¿Î¹Î¼Î·":7581,"ĠÎĳÎ½Î±ÏĥÏĦÎ±ÏĥÎ¹Î¬Î´Î·ÏĤ":7582,"ĠÎ£ÎķÎľÎĻÎĽÎķ":7583,"ĠÎ´Î¹Î±ÏĨÎ¿ÏģÎµÏĦÎ¹ÎºÎ¬":7584,"ĠÎĴÎ»ÎŃÏĢÎ¿ÏħÎ¼Îµ":7585,"ĠÎ¤Î¿ÏįÏģÎºÎ¿ÏħÏĤ":7586,"ĠÎµÏĦÎ¿Î¹Î¼Î¬Î¶ÎµÏĦÎ±Î¹":7587,"ĠÏĦÎŃÏĦÎ¿Î¹Î¿":7588,"ĠÎ£Î¥ÎĿÎķÎ§":7589,"ĠÎķÏģÎ±ÏĦÏİ":7590,"ĠÎ·ÏĥÏħÏĩÎ¯Î±":7591,"ĠÎ±ÏģÎ¹Î¸Î¼ÏĮ":7592,"ĠÎ£ÏĦÏģÎ¬ÏĦÎ¿":7593,"ĠÎĴÎ±ÏĥÎ¯Î»Î·":7594,"ĠÎ±ÏĦÎ¼ÏĮÏĥ":7595,"ĠÏĮÎ½ÏĦÏīÏĤ":7596,"ĠÎĻÎ£ÎľÎĹÎĿÎĹ":7597,"ĠÎ¹Î´ÎŃÎµÏĤ":7598,"ĠÎŁÎ´ÏħÏĥÏĥÎŃÎ±ÏĤ":7599,"ĠÎ£Î¿Î»Ïī":7600,"ĠÏĦÎµÎ¯ÏĩÎ·":7601,"ĠÏĩÎ±Î¼ÏĮÎ³ÎµÎ»Î¿":7602,"ÎľÎķÎ¤ÎķÎ§ÎŁÎ¥ÎĿ":7603,"ĠÎ±ÏĦÎ¼ÏĮÏĥÏĨÎ±Î¹":7604,":-":7605,"ia":7606,"ĠU":7607,"Î±Î»Î»Î±":7608,"Î½ÏĮÎ½":7609,"ÏģÏĦÎµÏĤ":7610,"ĠÏĦÏĮÎ½Î¿":7611,"ÏĥÏħÎ¼":7612,"Î¬ÏĦÎµÏĤ":7613,"ĠÏĢÏİ":7614,"ĠÏĢÏħÏģ":7615,"ĠÎºÎµÎ½ÏĦÏģ":7616,"ĠÎµÎ¸ÎµÎ»":7617,"Î£ÎµÏĢÏĦÎµÎ¼Î²ÏģÎ¯Î¿Ïħ":7618,"Î®Î¼Î±Î½":7619,"Î´ÏģÏĮ":7620,"Î´ÎµÎ¯Î±":7621,"ÏİÎ¸Î·ÎºÎµ":7622,"ÎĽÎĽÎĳ":7623,"ĠÎķÎĻÎ£ÎŁÎĶÎŁÎ£":7624,"ÏĦÎµÏħÏĦ":7625,"ĠÎŃÏģÎ¹":7626,"ĠÎĳÏģÎ¿":7627,"ĠÎ¼ÎµÎ»Î±":7628,"ÎĿÎķÎĻ":7629,"ĠÎļÎĳÎĽ":7630,"ĠÎļÎŁÎ¡ÎĳÎ£ÎĻÎĳ":7631,"ĠÎľÎĻÎļ":7632,"ĠÎłÎĳÎĿ":7633,"ĠÎłÎŃÏģÎ±":7634,"ĠÏĨÏģÎ¿Ïį":7635,"ĠÏĨÎ¿ÏįÏģ":7636,"ĠÎ£ÎĳÎļÎĹÎ£":7637,"ÎļÎ¿Ïħ":7638,"ĠÎ»Î»Î¯Î±":7639,"ĠÎºÎ±Î¼ÏĢ":7640,"Î¬Î½Î¸Î¿ÏĤ":7641,"ĠÎ²Î¯":7642,"ĠÎ²Î»Î¬":7643,"ĠÏĢÎ±Î³Ïī":7644,"Î¹Î¬Î¶ÎµÏĦÎ±Î¹":7645,"ĠÎµÏĢÎµÎ¯":7646,"ĠÎµÏĢÎ¬Î½Ïī":7647,"ĠÎµÏĢÎ±ÏĨ":7648,"ÏĦÏģÎ±Î½":7649,"ĠÎĶÎµÎº":7650,"ĠÎ¾ÎŃÎ½Î±":7651,"ĠÎķÎ½Î½Î¿Ïİ":7652,"ĠÎĽÎ¹ÏĢÎŃÏģ":7653,"ÏģÎµÏįÎº":7654,"Î»Î¬ÎºÎ¹":7655,"ĠÎĺÏħ":7656,"ÏĥÏĦÎ·ÎºÎµÏĤ":7657,"Î¹ÏİÏĦÎ·ÏĤ":7658,"ĠÎ¹ÎµÏģ":7659,"ĠÎĴÏģÎ¯ÏĥÎº":7660,"ĠÏĥÏĦÎ±Î¸":7661,"ĠÎ´Î¹Î±Î»ÎŃÎºÏĦÎ¿Ïħ":7662,"ĠÎµÎ¾Ïİ":7663,"ĠÎµÏĢÎ¹Î¸ÏħÎ¼":7664,"ĠÎ¯ÏĥÎ¹Î±":7665,"ĠÏĢÎ¿Î¹Î®Î¼Î±ÏĦÎ¬":7666,"ĠÎ»Î±Î»ÎµÎ¹ÏĤ":7667,"ĠÎļÎ±Î»Î¬Î½":7668,"ĠÎļÎ±Î¹Î¿":7669,"Î¼Î¿Î½Î¿Î»Î¿Î³ÎµÎ¯":7670,"Î³ÏģÎ±ÏĨÎ±":7671,"ÏħÎ³Î®":7672,"ĠÎ´Î¹ÎºÏĮÏĤ":7673,"ĠÏĥÏħÎ¼ÏĢÎŃ":7674,"ĠÏĥÏįÎ½ÏĦÎ±":7675,"ĠÎĳÎĽÎķÎŀÎĹÎ£":7676,"ĠÎłÎ¬Î»Îµ":7677,"ĠÏĥÎ±ÏģÎ±ÎºÎ·Î½":7678,"ĠÎµÏĩÎ¿ÏħÎ¼Îµ":7679,"ĠÏĦÎ¬Î¾Î·":7680,"ĠÎ½ÎµÎ¿":7681,"ĠÏĨÎ¹Î»Î¯":7682,"Î£Î¤ÎĹ":7683,"ĠÎ²Î¿Î·Î¸Î¬":7684,"ĠÎ¼ÏīÏģÎ¿":7685,"ÏĥÏĦÎ¹ÏĤ":7686,"ĠÏĩÏģÎ¿Î½Î¹Î±":7687,"ĠÎºÎ»ÎµÎ¹Î´Î¯":7688,"ĠÏĢÎŃÏĦÏģÎµÏĤ":7689,"ĠÏĥÎºÎµÏĨÏĦÎ¹ÎºÏĮÏĤ":7690,"ÏĦÎŃÎ»ÎµÏĥ":7691,"ÎĻÎĿÎĹÎ¤ÎŁ":7692,"ĠÎŁÏįÎ»Î»Î±":7693,"ĠÎºÏģÏħÏĨÎ¬":7694,"ÎĳÎĿÎĳÎŀÎĳÎĵÎŁÎ¡ÎĳÎ£":7695,"ĠÏĦÏģÎ±Î³Î¿ÏħÎ´Î¬":7696,"ĠÏĨÎºÎ¬Î»Ïī":7697,"ÎĬÎ½ÏĦÎ±":7698,"ĠÎ²Î¹Î¿Î»Î¯":7699,"ĠÎ¤ÎĸÎŁÎĿ":7700,"ĠÎµÎ¼ÏĨÎ±Î½Î¯Î¶ÎµÏĦÎ±Î¹":7701,"ĠÎ¬Î½Î¸ÏģÏīÏĢÎ¿":7702,"ĠÎłÏģÏĮÏĥ":7703,"Î¿ÏįÎ»Î»Î±ÏĤ":7704,"ĠÎºÏħÎ²ÎŃÏģÎ½Î·ÏĥÎ·ÏĤ":7705,"ĠÎĳÏħÏĦÏĮÏĤ":7706,"ĠÎ¬ÏĥÏĢÏģ":7707,"ĠÎŃÎ½ÏĦÎ¿Î½Î±":7708,"ĠÎ±ÏĢÎ¬Î½ÏĦÎ·ÏĥÎ·":7709,"ĠÎµÏĢÎ·ÏģÎµ":7710,"ĠÏĥÏħÎ¼ÏĢÎµÏģÎ¹ÏĨÎ¿ÏģÎ¬":7711,"ĠÏĦÎ¶Î±Î¼Î±Î¯":7712,"ĠÎĳÎ³Î³Î»Î¯Î±":7713,"ĠÎĳÎ¹Î³":7714,"ĠÎµÏĥÎºÎŃÏĨÏĦÎ·ÎºÎ±":7715,"ĠÎīÎ½ÏĦÎ±Î¼":7716,"ect":7717,"ĠÏĢÏģÎ¿ÏĥÏĢÎ±Î¸ÏİÎ½ÏĦÎ±ÏĤ":7718,"ĠÎ¡Î¿Î´Î¹Î½":7719,"ĠÎķÎ¹ÏĥÎ±Î¹":7720,"ĠÎ£Î±Î²Î¿ÏħÎ»Î»Î±ÏĤ":7721,"ÎķÎ¤ÎķÎ¡ÎĻÎĳ":7722,"ĠÎ´Î¹Î±Î²Î±ÏĦÎ·ÏģÎ¯ÏīÎ½":7723,"ÎĶÎ¥ÎľÎĳÎ¤ÎŁÎĽÎŁÎĵÎŁÎ£":7724,"ĠÎłÎĳÎĿÎĳÎĵÎĻÎ©Î¤Îĳ":7725,"TA":7726,"rus":7727,"Î½ÏĦÎ¬":7728,"ĠÏĦÎ±Î¹Î½":7729,"ÏĥÎŃÏģ":7730,"ÏĥÏĢÎ±":7731,"Î¼ÏħÎ¸":7732,"ĠÏĢÎµÎ»":7733,"ĠÎºÎŃÎ½ÏĦÏģÎ¿":7734,"ĠÎµÏĦÎµ":7735,"ÏħÏģÎ±":7736,"ÎĳÎ¥":7737,"ÎĳÎĵÎĵ":7738,"Î´Î¯Î¶ÎµÎ¹":7739,"ÏĦÎ±ÏĨÏħ":7740,"ÏįÎ¼Î±":7741,"ÏĦÎ·ÏĦÎµÏĤ":7742,"ÏĦÎ·ÎºÎµÏĤ":7743,"ĠÎķÎ¡":7744,"ĠÎŃÎ´":7745,"Î»Î»Îµ":7746,"ĠÎĳÎ¼Î±":7747,"Î½Î±Î¼Îµ":7748,"ĠÎºÎ±Î¹ÏģÏĮÎ½":7749,"ÏĦÎ¹ÏĦ":7750,"ĠÎļÎ¿Î¯ÏĦÎ±":7751,"ĠÎļÎ»ÎµÎ¯Î½ÎµÎ¹":7752,"ĠÎ¿Î½Î¿Î¼":7753,"ĠÎ¸ÏģÎ·Î½":7754,"ĠÎ»Î»Î¹Î¿":7755,"ÎŃÎ½ÏĦÎ±":7756,"Î¬Î½Î¿Ïħ":7757,"Î¥Î¡Îĳ":7758,"ĠÏĢÎ±ÏĢÎ¿Ïħ":7759,"ĠÎĵÎ±Î»Î±":7760,"Î¼ÎŃÎ½ÏīÏĤ":7761,"ĠÎĽÎ¿Î¹":7762,"Î¹Î½ÎµÎ¹":7763,"ĠÎ¸Î±ÏħÎ¼Î¬":7764,"ÏĪÎ·ÏĤ":7765,"ĠÏĢÎ¬Î¸Î¿ÏĤ":7766,"ĠÎĳÎ½ÏĦÏīÎ½":7767,"ÏģÎ·Î³":7768,"ÎĻÎļÎŁÎ¥":7769,"ĠÎ±Î³ÏİÎ½Î±":7770,"ĠÎ¹Î´Î¯":7771,"ÎºÎ¬ÎºÎ¹":7772,"ÎºÎ¬ÏģÎ¹Î¿ÏĤ":7773,"ĠÏĥÏħÎ½Î±Î¹ÏĥÎ¸Î·":7774,"ĠÎĪÏģÏī":7775,"ĠÎĪÎ½Î±Î½":7776,"ĠÎ¬Î»Î»ÏīÏĥÏĦÎµ":7777,"ĠÏĢÎ±ÏģÎ±Î´Î¿Ïĥ":7778,"ĠÏĢÏĮÎ»Î·ÏĤ":7779,"ĠÎ±Î½Î±ÎºÎ±":7780,"ĠÏĢÎµÏģÎ¹Î²Î¬":7781,"Î¹ÏīÎ¼Î±":7782,"ĠÎĵÎ¹ÏİÏģÎºÎ¿":7783,"ÏĦÎµÎ¹Î¿":7784,"ÏĦÏİÎ²":7785,"ÎŁÎĽÎŁÎĵÎŁÎ£":7786,"ĠÎ³ÏħÏģÎµÏį":7787,"ĠÎĳÎĿÎĺÎŁÎ¥Î£Îĳ":7788,"ĠÎŃÎºÏĨÏģÎ±ÏĥÎ·":7789,"ĠÏĨÏħÎ»Î±":7790,"ĠÎ´ÏīÎ¼Î±":7791,"ĠÎºÎ±Î¼Ïī":7792,"ĠÏĢÎ¿Î»Î»Î®Î½":7793,"ÎºÎ»Î·ÏĥÎ·":7794,"Î¼Î¼Î¬ÏĦÏīÎ½":7795,"ĠÎ±ÏĨÎ®Î³":7796,"ÎµÎµÎµÎµ":7797,"Î£Î¤Î¥ÎĽÎĽÎŁÎ¥":7798,"ĠÎºÎ±ÏĦÎµÎ²Î±Î¯Î½ÎµÎ¹":7799,"ĠÎĶÎ·Î¼Î¿":7800,"ĠÎ¼Î±ÎºÏģÏħ":7801,"ĠÎ¾ÎµÎºÎ¿Ïħ":7802,"ĠÎ®ÏģÏĦÎ±Î½":7803,"ĠÏĢÎµÏģÎ¹Î¼ÎŃÎ½Ïī":7804,"ĠÎ±ÎºÎ¿Î»Î¿ÏħÎ¸":7805,"Î´ÎµÎ¯Î±ÏĤ":7806,"ĠÏĥÎ·Î¼Î±Î½ÏĦÎ¹ÎºÎ®":7807,"ĠÎ¸Î¬Î»Î±ÏĥÏĥÎ±Î½":7808,"ÎļÎŁÎ¥Î¡ÎĻÎŁÎ£":7809,"ĠÎŃÎ¼ÎµÎ¹Î½Îµ":7810,"ÎŃÏģÎµÎ¹ÎµÏĤ":7811,"ĠÏĥÎ¹ÏīÏĢÎ®":7812,"ĠÎļÏīÎ½ÏĥÏĦÎ±Î½ÏĦÎ¯Î½":7813,"ĠÎ½Î¿ÏĥÏĦÎ±Î»Î³":7814,"ÎĺÎķÎ¡Îĳ":7815,"ĠÎºÎ±Î»Î¿ÎºÎ±Î¯ÏģÎ¹":7816,"ĠÎĽÎ¬ÏģÎ½Î±ÎºÎ±ÏĤ":7817,"ĠÎ´ÏģÎ¬ÏĥÎ·":7818,"ĠÎ±Î³Î¬ÏĢÎ·Î½":7819,"ĠÎĿÎ¹ÎºÎ¿Î»Î±Î¯":7820,"ĠÎļÏħÏģÎ¹Î±ÎºÎ®":7821,"ĠÎ±Î´ÎµÎ»ÏĨÏĮÏĤ":7822,"ĠÏħÏĢÎµÏģÎ±":7823,"ĠÏĥÎ·ÎºÏİÎ½ÎµÎ¹":7824,"ĠÎµÎ¯ÏĥÎ±ÏĥÏĦÎµ":7825,"ĠÏĦÎ¹Î¼ÏīÏģ":7826,"ĠÎµÏĨÎ·Î¼ÎµÏģÎ¯Î´ÎµÏĤ":7827,"ĠÏĦÏģÎ¿Î¼Î±Î³":7828,"ĠÎµÎ³ÎºÎ±ÏĦÎ±Î»ÎµÎ¯":7829,"ÏģÎ±Î»Î±Î¼ÏĢÎ¯Î´Î·ÏĤ":7830,"ĠÎ£Î¥ÎľÎľÎķÎ¤ÎķÎ§ÎŁÎ¥ÎĿ":7831,"68":7832,"BE":7833,"MÎ±ÏģÏĦÎ¯Î¿Ïħ":7834,"ÏĦÎŃÎ½":7835,"Î¹Î¿Î¹":7836,"ÏģÎ±Î¹Î±":7837,"Î»ÏİÎ½":7838,"Î»Î¿Î¯":7839,"Î»Î¹ÎºÎ®":7840,"ÏĥÎ¯Î±Î½":7841,"Î¼Î½Ïī":7842,"ÏĢÏĦÏħ":7843,"ĠÎºÏħÎ½":7844,"Î±Î¹Î½Î±":7845,"ĠÏĥÏĨÎ±":7846,"ĠÎµÏĩÎ±":7847,"ĠÎµÎ¼Î¹":7848,"ĠÎ±Î¼ÎµÏģ":7849,"Î¶Î¿ÏħÎ¼Î±Î¹":7850,"Î®Î¸Î·ÎºÎ±":7851,"ÏĩÎ¿Î½ÏĦÎ±Î¹":7852,"ÏĨÎ¿Î½":7853,"Î¤Îĸ":7854,"ÏįÏĦÎ·":7855,"ĠÎ³ÏĮÎ½Î±":7856,"ĠÎķÎ²":7857,"ÏĦÎ¹Î½Î±":7858,"ĠÎļÎ¬Ïģ":7859,"ĠÎļÎ¬Î½ÎµÎ¹":7860,"ĠÎ¸Î±Î½Î±":7861,"ĠÎ£Ïį":7862,"ĠÏĩÎµÎ¯Î»Î·":7863,"ĠÎ»Î»Î¹Î¿Î½":7864,"ÏĥÎ¹ÏİÎ½":7865,"ĠÎ²ÎµÎ»":7866,"ĠÏĢÏģÎµÏĥ":7867,"ĠÏĢÎ±ÏĦÎµÏģ":7868,"ĠÏĢÎ±ÏįÏĥÎ·":7869,"ĠÎĵÎµÎ¹Î¬":7870,"ĠÎ¬Î¼":7871,"ÏĢÎ¿ÏĦÎ±":7872,"ĠÎµÎ¯Î´Îµ":7873,"ĠÎµÎ¯ÎºÎ¿ÏĥÎ¹":7874,"Î»Î·ÏĥÎµÎ½":7875,"ÎĴÎĳ":7876,"Î¡Î¥Î£ÎŁÎ£ÎŁÎ¤":7877,"ÏĥÎºÎµÏĨ":7878,"Î»ÎŃÎ¼Î±":7879,"ÏģÏĩÎ·ÏĤ":7880,"ÏĥÏĦÎ·ÏģÎ¹":7881,"ÏĥÏĦÎ·ÎºÎ±Î½":7882,"ĠÎµÎ³ÎµÎ½":7883,"ĠÎĴÎ¬Î¶ÎµÎ¹":7884,"ĠÎĴÎµÎ²Î±Î¯ÏīÏĤ":7885,"ĠÎºÎ¿Î¹Î¼Î·":7886,"ĠÏĢÏģÎ¿ÏĥÎ¿ÏĩÎ®":7887,"ĠÏīÏģÎ±Î¹":7888,"ĠÎºÎ±Î½ÎµÎ½":7889,"ÏĢÎ¿Î¹Î½Î±":7890,"ĠÎ»Î±Î»ÎµÎ¹":7891,"Î¶Î¯Î½Î±":7892,"ĠÎļÎ±Î»ÏĮ":7893,"ÎºÎ¿ÏħÎ¼ÎµÎ½":7894,"ĠÎłÎ±ÏĢÎ¬":7895,"ĠÏĩÏģÏĮÎ½ÏīÎ½":7896,"ĠÎ¤Î¶Î±Î¹Î·":7897,"ĠÎłÎĳÎĻÎĶ":7898,"ĠÎłÎĳÎłÎł":7899,"ĠÎ¸ÎŃÎ¼Î±Î½":7900,"ĠÏįÏĢÎ±Ïģ":7901,"ĠÎµÎ¼ÏĢÎ¿":7902,"ĠÎºÎ¬ÏĢÎ¿Î¹Î¿Î¹":7903,"Î¸ÏħÏĥÎ¼ÏĮÏĤ":7904,"ĠÎºÎ±ÏģÏĦÎµ":7905,"ĠÏĥÏħÎ¼ÏĢÎ±":7906,"ĠÏĨÏīÎ½Î¬":7907,"ĠÏĨÏīÎ½Î®Î½":7908,"ĠÏĥÏħÎ³ÎºÏģÎ±":7909,"ĠÏĦÎµÎ»ÎµÏħÏĦÎ±Î¯ÎµÏĤ":7910,"Î¡ÎĻÎŁ":7911,"ĠÏĢÎ¹ÏĥÏī":7912,"ĠÎ±ÏħÏĦÎ®Î·":7913,"ĠÎ¿Î¼Î¿Î»Î¿Î³":7914,"ĠÎ³Î¹Î±ÏĦÏģÏĮ":7915,"ĠÎµÎ¯ÏĩÎ±Î¼Îµ":7916,"ĠÎ¯Î´Î¹Î±Î½":7917,"ĠÎ½ÎŃÎ¿ÏħÏĤ":7918,"ĠÎŁÏħÎºÏģÎ±Î½":7919,"ĠÎ»Î¿Î³Î¿ÏĦÎµÏĩÎ½Î¹ÎºÎ¬":7920,"ĠÎµÎºÎ±ÏĦÎ¬Î»Î±Î²ÎµÏĤ":7921,"ĠÎłÎ¿Î»Î»":7922,"ĠÎĬÏĥÏīÏĤ":7923,"ÏĮÏĦÎ±Î½Îµ":7924,"1990":7925,"ĠÎĽÎµÎ¼ÎµÏĥÏĮÏĤ":7926,"ĠÏģÎ¯ÏĩÎ½ÎµÎ¹":7927,"Î¼Î¼ÏĮÏĩÏīÏĥÏĦÎ¿":7928,"Î²Î¿ÏįÎ»Î¹Î¿":7929,"ĠÏĢÏģÎ¿ÎºÎµÎ¹":7930,"ĠÎ®Î¸ÎµÎ»ÎµÏĤ":7931,"ĠÎºÏģÎ¯Î¼Î±":7932,"ĠÎµÎ¾Î·Î³Î®ÏĥÏī":7933,"ÎµÏĢÎ¹ÏĥÏĦÎ·":7934,"ÏħÏĢÏģÎ¹Î±ÎºÎ®":7935,"Î£ÎĳÎĴÎĴÎŁÎ¥ÎĽÎĽÎĳ":7936,"ĠÎĴÎ»ÎŃÏĢÎµÎ¹":7937,"Ġthat":7938,"ĠÎµÎ¼ÏĢÎµÎ¹ÏģÎ¯Î±":7939,"ĠÎ±ÏĢÎµÎ»ÏĢÎ¹Ïĥ":7940,"ĠÏĢÎ±Î¹ÏĩÎ½Î¯Î´Î¹":7941,"ÎĵÎ¹ÏİÏģÎ³Î¿ÏĤ":7942,"ĠÎľÎ±ÏĩÎ±Î¹ÏģÎ¬":7943,"ĠÏĢÎ¿ÏĦÎ¶Î¹ÎµÎ¯":7944,"ly":7945,"Î½ÎµÏĦÎµ":7946,"ÎµÎ³Î³":7947,"ÎµÎ¾Îµ":7948,"ÏĢÏĢÏĮ":7949,"ÏīÏĥÎ·ÏĤ":7950,"Î£Îº":7951,"Î¹Î±ÏĦÏģ":7952,"Î¸ÎºÎµÎ¹":7953,"Î¿ÏįÏĥÎµÏĤ":7954,"ÎķÏħ":7955,"ĠÎ´ÎºÎ¹Î±":7956,"Î»Î»ÎµÎ½":7957,"Î²ÎµÏĤ":7958,"ĠÎļÎ¯":7959,"ĠÎ¿Ïĩ":7960,"ĠÎ¿Î½ÏĮ":7961,"Î¯Î½Î¿ÏħÎ¼Îµ":7962,"ĠÏĨÏĦÎµÏģ":7963,"ĠÎ£Î§":7964,"ĠÏĮÏģÎµ":7965,"ÏĥÎ·Î¼Î±":7966,"ĠÎ»Î¿ÏħÎ»Î¿Ïį":7967,"ĠÎ²Î»Îµ":7968,"ÎĵÎķÎĿ":7969,"ÎĵÎ¹Î¬Î½":7970,"ÎºÎ±ÏģÎ¹ÏĥÏĦÏİ":7971,"ÎłÎĳÎ£":7972,"ĠÎĿÎ¹ÏİÎ¸Ïī":7973,"ĠÏĦÎ¶Î¹Ïį":7974,"ÏĦÎ¯Î¶Ïī":7975,"ĠÎ¼Î±ÏħÏģ":7976,"ĠÎľÎķÎ£ÎĹ":7977,"Î¼ÏĢÎ±Î½":7978,"ĠÎ±Î³Î¿ÏģÎ¬":7979,"ĠÎµÎ³Î¯Î½Î·ÎºÎµÎ½":7980,"ĠÎĴÎ±Î»":7981,"ÎĽÎķÎ¥":7982,"ĠÏĢÎµÏģÎ¹ÎµÏĩ":7983,"Î½Î¬ÎµÎ¹":7984,"ĠÏĢÎ¿Î»ÏħÎ¸":7985,"ÏĦÏħÎ»Î¯":7986,"ĠÏĢÎ¹ÎµÏģ":7987,"ÎºÎ±Î»Ïİ":7988,"ĠÎºÎ±Î¸ÎµÏĦÎ±Î¹":7989,"ĠÏĢÎ¯ÎµÏĥÎ·":7990,"ĠÏĥÎ¹Î·":7991,"ĠÏĨÎ±ÏĥÎ±":7992,"ĠÎ¼ÎµÏĦÎ±Î»Î»":7993,"Î¤ÎķÎ¡ÎĹÎ£":7994,"ĠÎ´Î¹ÎºÎŃÏĤ":7995,"ers":7996,"ĠAÎ½":7997,"ÏĢÎŃÎ¶Î·ÏĤ":7998,"Ġ31":7999,"ÏĢÏģÎ¿ÏĥÏīÏĢ":8000,"ĠÏĢÎ¿Î»ÏįÏĦÎ¹":8001,"ĠÎŃÎ²ÏģÎµÎ¹ÏĤ":8002,"ĠÎ´ÏİÏģÎ¿":8003,"ÎºÎ¿Î»Î¿Ïį":8004,"ĠÎĳÏĨÎ·ÏĤ":8005,"ÏĮÎ¼ÎµÎ½Î¿Î½":8006,"ĠÏĢÎ±Î»Îµ":8007,"ĠÎłÎ¬ÎµÎ¹":8008,"ĠÏĢÏģÎ±Îº":8009,"ĠÎµÏĩÏĦÎŃÏĤ":8010,"ĠÎŃÏĥÏĥÎµÎ¹":8011,"ÎłÎĳÎŁÎĽÎŁ":8012,"ĠÏĢÏģÎ¿ÏĥÏĢÎ±Î¸Î®":8013,"ĠÏĨÎ¹Î»Î¿ÏĥÎ¿ÏĨ":8014,"Î±Î¹Î½Î½Îµ":8015,"ÏįÎºÎ¿ÏĤ":8016,"ĠÎ½ÏįÏĩÏĦÎµÏĤ":8017,"ĠÏĩÎµÎ¹Ïģ":8018,"ĠÏĥÏħÎ»Î»Î¿Î³Î®ÏĤ":8019,"ĠÏģÏīÏĦÎ®ÏĥÏī":8020,"ĠCh":8021,"ĠÎĳÎĽÎĽÎĳ":8022,"ĠÎ²ÏģÎ¬Î´Î¹":8023,"ĠÏĩÎ±Î¼Î¿Î³ÎµÎ»Î±":8024,"ĠÎ¸ÎµÏīÏģÎµÎ¯ÏĦÎ±Î¹":8025,"ĠÎ®Î¸ÎµÎ»ÎµÎ½":8026,"ĠÎ¾Î±Î½Î±ÏĢ":8027,"ĠÎļÎ±Î½ÎŃÎ½Î±ÏĤ":8028,"ĠÎ¬ÏģÏģÏī":8029,"ĠÎ±Î»Î·Î¸Î¹Î½":8030,"ÏĦÎ¿Î¹ÎºÎ¿Î¹":8031,"ĠÏĥÎºÎ¿ÏĢÏĮ":8032,"ĠÏģÎ¹Î¬Î»Î¹Î±":8033,"ĠÎ²ÏģÎ¿ÏĩÎ®":8034,"ĠÎłÎ¿Î»ÏħÎ´ÎµÏįÎºÎ·":8035,"ĠÎ¸ÎŃÎ±ÏĦÏģÎ¿":8036,"ĠÏĦÎµÎºÎ¼Î®":8037,"ÎľÎķÎĿÎŁÎ£":8038,"ĠÎĴÎĳÎ¡ÎĴÎĳÎ¡Îĳ":8039,"ĠÎºÎ±Î¸Î®ÎºÎ¿Î½":8040,"ĠÎĵÎ¥ÎĿÎĳÎĻÎļÎĳ":8041,"ĠÎĺÎµÏĥÏĥÎ±Î»Î¿Î½Î¯ÎºÎ·":8042,"ĠÎ£Î¤ÎĳÎĺÎĹÎ£":8043,"ĠÎºÎ±ÏĦÎ¿Î¯Îº":8044,"ĠÎĻÎµÏģÎ¿ÏĥÎ¿Î»ÏįÎ¼ÏīÎ½":8045,"ĠÎ¤ÎĻÎ¤ÎĽÎŁÎ£":8046,"ÏĦÎŃÎ»ÎµÏĥÎ¼Î±":8047,"ĠÎ¿Î½ÏĮÎ¼Î±ÏĦÎ±":8048,"45":8049,"48":8050,"UBE":8051,"ve":8052,"ÏĦÏĥÎ±Î½":8053,"Î¹ÎµÏĤ":8054,"ÎµÎ³Îº":8055,"ÏĥÏĦÎ¹Î½":8056,"Î¬ÏĥÏī":8057,"Î¬Î´ÎµÏĤ":8058,"Î¯ÏĥÎ¼Î±ÏĦÎ±":8059,"Î¼Î¯Î¿Ïħ":8060,"ÎºÎ»ÎµÏĤ":8061,"ĠÏĢÎ¯Î½Î¿ÏħÎ½":8062,"ÏĮÏĦ":8063,"ĠÎºÎŃÎ½":8064,"ĠÎºÎµÎ¯Î½":8065,"ÎŃÏĥÏĦÎµ":8066,"Î³Î¿Î¹":8067,"ĠÎ±Î»Î»Î¿Î½":8068,"Î¶Î¿":8069,"Î¶Î¹Î±":8070,"Î¿Î½ÏĦÎ¯Î¿Ïħ":8071,"ÎķÎ¡":8072,"ÏĦÎ·Î¸ÎµÎ¯":8073,"ĠÎķÏĥÎºÎŃÏĨ":8074,"ĠÎĳÎĺ":8075,"ÎµÎ¯Î±Î½":8076,"ĠÎ¼ÎµÎ¿":8077,"ÏģÎ¹ÏĥÎ¼ÏĮÏĤ":8078,"ĠÎļÎ¿":8079,"ĠÎłÎ·":8080,"ĠÎłÏģÏİÏĦÎ·":8081,"ĠÎłÎŁÎ¡Î¤Îĳ":8082,"Î¿Î¹ÏģÎ±":8083,"ĠÏĨÏİÎ½Î±":8084,"ĠÎ£ÏĢÎ¿Ïħ":8085,"ĠÎ»Î»Î¹":8086,"ĠÎ²Î³Î±":8087,"ÎĵÎ»Î±":8088,"ÎĵÎŃÎ½Î½Î·ÏĥÎ·":8089,"ĠÎ±Î½Î¸ÏģÏī":8090,"ÎłÎ»Î·":8091,"ÎłÎ¡Î©":8092,"ÏĦÏģÎ·ÏĤ":8093,"Î¹ÏĥÏĦÎµÏį":8094,"Î»Î·ÏĨ":8095,"ĠÎĹÎĽÎĻÎĳÎ£":8096,"ĠÏĦÎ¶Î¹Î¿":8097,"Î¿Î³Î»Î¿Ïħ":8098,"ÏĪÎ¿ÏħÎ¼Îµ":8099,"ĠÎ¶ÎµÎ¹":8100,"ĠÎ±ÎºÏģÎ¹":8101,"ĠÎµÎ³Î½ÏİÏģÎ¹":8102,"ĠÎĴÎµÏģ":8103,"ĠÏĥÏħÎ½Î¿Î¼":8104,"ĠÏĢÎ±ÏģÎ±Î¾ÎµÎ½":8105,"ÎµÎ¯Î½Î±Î½":8106,"ĠÎ±Î½Î±ÏĨÎŃÏģ":8107,"ĠÎºÎ¿Î¹Î¼Î¬ÏĦÎ±Î¹":8108,"ÎĽÎķÎł":8109,"ĠÎµÏĢÎ¹Î¼ÎŃÎ»ÎµÎ¹Î±":8110,"ĠÎºÏĮÏģ":8111,"ĠÏĢÎ¿Î»ÎŃ":8112,"ĠÎĮÎ»Î±":8113,"ĠÏĩÎ±ÏĢÎ¬":8114,"Î³Î³ÎµÎ¯":8115,"ĠÎºÎ±Î¸Ïħ":8116,"Î±ÏĥÎ¯ÎµÏĤ":8117,"Î¼Î®ÏĥÎµÎ¹ÏĤ":8118,"Î¼Î¿ÏħÎ½Î±":8119,"ÏĨÎ¿ÏģÎ¬ÏĤ":8120,"Î¾ÎµÏīÎ½":8121,"Î»ÎµÎ¯ÎµÏĦÎ±Î¹":8122,"ÏģÎ¬ÏĨÎ·":8123,"ĠÎ³ÎµÎ½Î¹ÎºÎ¬":8124,"ĠAÎ³":8125,"ÎľÎķÎ¡ÎĻÎ£ÎľÎĳ":8126,"ÏģÎµÎ¹Î¬Î¶":8127,"Î»ÏĮÏĨÏīÎ½Î±":8128,"Ġ2010":8129,"ĠÎ±Î´ÏħÎ½Î±":8130,"ĠÎ»Î±Î¼ÏĢÏģ":8131,"ĠÎ±ÏģÎºÎµÏĦ":8132,"ĠÏĢÎ¹Î¬ÏĦÎ±":8133,"ĠÎ´ÎµÎ¯Î¾ÎµÎ¹":8134,"ĠÏĥÏħÎ³ÎºÎµÎ½ÏĦÏģ":8135,"ĠÎ©ÏĥÏĦÏĮÏĥÎ¿":8136,"ĠÏĩÏİÏģÎµÏĤ":8137,"ĠÎ¼Î±Î½Î¹":8138,"ĠÎĳÎ³ÏİÎ½Î±":8139,"ĠÎ§Î±ÏģÎ¯":8140,"ÏĨÎ¹Î¾Î·":8141,"ĠÎºÏįÏģÎ¹Î¿":8142,"ĠÎµÎºÎµÎ¯Î½Î¿ÏĤ":8143,"ĠÎ³Î¹Î½ÎµÏĦÎ±Î¹":8144,"ÏģÏĩÎµÏĦÎ±Î¹Î·":8145,"ĠÏĥÎºÎŃÏĨÏĦÎ¿Î¼Î±Î¹":8146,"ace":8147,"ĠÎµÎ»Î¬Î»Î¿ÏħÎ½":8148,"Î²Î¿ÏįÏģÎ±":8149,"ell":8150,"ĠÏħÏĢÎ¿ÏĥÏĦÎ·":8151,"ĠÎºÎ±ÏģÎºÎ¹Î¬Î½":8152,"ĠÏĩÏģÏħÏĥÎ¬":8153,"ĠÏĩÎµÎ¹ÏģÏĮÎ³ÏģÎ±ÏĨÎ¿":8154,"ĠÎ´Î¹Î·Î³Î®Î¼Î±ÏĦÎ±":8155,"ĠÏĢÎ±ÏģÎ¬Î¾ÎµÎ½Î¿":8156,"ĠÎłÎ±Î½Î±Î³Î¹ÏİÏĦÎ·":8157,"ÎķÎ¦Îĳ":8158,"Î¿ÏįÏģÎºÎ¿Î¹":8159,"ĠÎ»ÎµÏīÏĨÎ¿Ïģ":8160,"ÎŁÎĴÎķÎ¦Îĳ":8161,"ĠÏĦÏħÏĩÎµÏģ":8162,"ĠÎĿÎµÏĮÏĨÏħÏĦÎ¿ÏĤ":8163,"ĠÎļÎĳÎ¦ÎķÎ¤ÎķÎ¡ÎĻÎĳ":8164,"Î´ÏīÏģÎ¿ÏĤ":8165,"ĠÎłÎµÎ¶Î¿Î³ÏģÎ±ÏĨÎ¯Î±":8166,"ĠÎľÏīÏģÏĮ":8167,"ĠÎ±ÏĦÎ¼ÏĮÏĥÏĨÎ±Î¹ÏģÎ±":8168,"ĠÏĢÎµÏģÎ¹Î²Î¬Î»Î»Î¿Î½":8169,"ĠÎľÎķÎ£ÎĹÎľÎķÎ¡ÎĻ":8170,"ÎłÎ¡Î©ÎĻ":8171,"GUEST":8172,"ID":8173,"ag":8174,"ÏģÎ¿ÏħÎ¼Îµ":8175,"Î»ÏİÏĤ":8176,"ÏĥÎ¿Î¹":8177,"ÏĥÎ¿Î´":8178,"ÏĥÏĥÎ¿ÏħÎ½":8179,"ÏĮÏģÏĦÎ±":8180,"ĠÎµÏħÏĦ":8181,"ĠÎ±Î»Î±":8182,"ĠÎ½Î½Î±Î¹":8183,"Î´Ïģ":8184,"ÏĩÎ½Ïī":8185,"ÏįÎµÎ¹":8186,"ĠÎ³ÎŃ":8187,"ĠÎ³Î·Î½":8188,"ĠÎķÎ¼ÎŃÎ½Î±":8189,"ĠÏĦÎ¶Î¯Î½":8190,"ĠÏĦÎ¶ÏħÏģÎ¬":8191,"ĠÎĳÎ³Î±":8192,"ÎµÎ¯Î¼ÎµÎ½Î±":8193,"ÏģÎ¹ÎµÏĤ":8194,"ĠÎľÏħÏģ":8195,"ĠÎµÎ½ÏĦÏħÏĢ":8196,"Î¾Ïħ":8197,"ĠÏĨÎ±Î¹":8198,"ÏģÎ¬ÎºÎ¹Î±":8199,"ĠÏĮÏĨ":8200,"ĠÏĮÏģÎ¹Î±":8201,"ĠÏĩÏīÎ½":8202,"ÏĥÏĦÎ¿ÏħÏĤ":8203,"ÏĥÎ±Î¯":8204,"ÎłÏģÎ¿Ïĥ":8205,"ĠÎ¦Î±Ïģ":8206,"ÏĦÎ¹ÎºÎ·":8207,"ĠÎ®Î¾ÎµÏģ":8208,"ÏĢÏģÎµÏĢÎµ":8209,"ĠÎ¾Î±":8210,"ĠÏĢÎ¬ÏģÎ¿ÏħÎ½":8211,"ĠÏħÎ»Î¹ÎºÏĮ":8212,"ÏĥÎºÏī":8213,"ĠÏĥÎºÏħ":8214,"ĠÏĥÎºÎ±Î½":8215,"ĠÎµÎºÏĨÏģÎ¬":8216,"ĠÎ¶Î®ÏĥÎµÎ¹":8217,"ĠÎ¼Î¬Î³Î¿Ïħ":8218,"ÏģÎ¿Î²":8219,"ĠÎĴÎ¿ÏħÎ»Î®":8220,"ÏĦÎ¶Î®":8221,"ĠÎ¼ÏĢÎµÏģ":8222,"ĠÎŃÎ½Î½Î±":8223,"ĠÎŃÎ½ÏĦÎ±ÏĥÎ·":8224,"ĠÏĥÏĦÎ±Î¸ÎµÏģ":8225,"ĠÎµÎ¹ÏĥÎ±":8226,"ÏĢÎµÏģÎ¬":8227,"Î´Î¹Î¿Ïģ":8228,"ÏĦÎŃÏĩÎ½":8229,"ÎµÏįÏī":8230,"ĠÏĪÏħÎ³":8231,"ÏĢÎ¯ÏĥÏī":8232,"ĠÎºÏĮÎºÎºÎ¹Î½":8233,"Î´Î¹Î±ÎºÎ¬":8234,"ĠÏİÏĥÏĦÎ¹":8235,"ĠÎĨÏģÎ±":8236,"ĠÎ±ÏħÏĦÎ¯":8237,"ĠÎ´Î¹ÎµÎº":8238,"ĠÎ´Î¹Î´Î¬":8239,"ĠÎµÏħÎºÎ¿Î»":8240,"ĠÎ¿ÏĢÎ¿Î¹Î±":8241,"ĠÎ³ÏħÏģÎ¯ÏĥÎµÎ¹":8242,"ÏħÏĢÏĮ":8243,"Î¯Î´Î±ÏĤ":8244,"ÏĥÏĥÎµÏĤ":8245,"ÎĹÎĿÎķÎĽ":8246,"ĠÎ³ÎµÎ½Î¹ÎºÏĮ":8247,"Î¯Î³Î³ÎµÎ¹":8248,"ĠÎµÎºÎ±ÏĦÎ¿Î¼Î¼":8249,"ĠÏĨÏįÎµÎ¹":8250,"ĠÎ´Î¹ÎºÎ¿ÏįÏĤ":8251,"ĠÏĢÎµÎ¹ÏģÎ±":8252,"ĠÏĢÎ»ÏħÎ½":8253,"ĠÎµÎ¼ÏĢÏĮÏģ":8254,"ĠÎ±ÎºÎ¿ÏįÎ³ÎµÏĦÎ±Î¹":8255,"ÎŁÎ¦ÎĹ":8256,"ĠÏĥÏįÎ¼Î²":8257,"ĠÎµÏĢÎ¯ÏĢÎµÎ´Î¿":8258,"Î¡ÎĳÎĵÎŁÎ¥":8259,"ĠÎ»Î±Î¼ÏĢ":8260,"ĠÎ¹ÏĥÏĦÎ¿ÏģÎ¹ÎºÏĮ":8261,"Î¶ÎµÏĥÎ±Î¹":8262,"ĠÎĵÎ¹Î¬Î½Î½Î·ÏĤ":8263,"ĠÎ±Î»Î»ÏĮ":8264,"ĠÎ¼Î¬Î¼Î¼Î±ÏĤ":8265,"ĠÏĨÎ±Î½ÎµÏģ":8266,"Î´ÏīÏĥÎµ":8267,"ĠÏĨÎµÏįÎ³Î¿ÏħÎ½":8268,"ÏĦÏħÏĩÎµ":8269,"ĠÎ½ÎŃÎ¿ÏĤ":8270,"Ġst":8271,"ĠÎ±ÏģÏĨÏĮ":8272,"ĠÎ¯Î½ÏĦÎ±Î»Î¿ÏĤ":8273,"ĠÎľÎµÎ»Î®":8274,"ĠÎµÎ½Î½Î¿Î¹Î±":8275,"ÏįÏĢÏģÎ¹Î¿ÏħÏĤ":8276,"ĠÏĥÏħÎ¼Î²Î¿Î»":8277,"Î²ÎµÏģÎ½Î®":8278,"ĠÎ²Î±Î¸Ïį":8279,"ĠSt":8280,"ĠÎ±ÏĢÎ¿ÏģÎ¯Î±":8281,"ĠÏĢÏĮÎ½Î¿ÏĤ":8282,"ĠÏĥÏħÎ¼ÏĢÎµÎ¸Î¸ÎµÏģÎµ":8283,"ĠÏĥÏħÎ½Î±Î³ÎµÏģ":8284,"ĠÎĻÏīÎ¬Î½Î½Î·":8285,"ĠÎ³ÎµÎ¹ÏĦÏĮÎ½":8286,"ĠÏĥÏĦÏĮÎ¼Î±Î½":8287,"ĠÎĶÎķÎ£ÎłÎŁÎ¤ÎĳÎ£":8288,"ĠÎ±Î¾Î¹Î¿ÏĢ":8289,"ĠÎ´ÏįÏĥÎºÎ¿Î»Î¿":8290,"ĠÏħÏĢÏĮÎ»Î¿Î¹ÏĢÎ¿Î¹":8291,"ĠÎ²Î±ÏĥÎ¹ÎºÎ¬":8292,"Î¼ÏĢÎ¿ÏģÏİ":8293,"ĠÎ®Î²ÏģÎµÎ½":8294,"ĠÏĨÏĦÎ±Î¯ÎµÎ¹":8295,"ĠÏħÏĢÎ±ÏģÏĩ":8296,"ĠÎµÏģÎµÏħÎ½Î±":8297,"ĠÎ¡ÏīÎ¼Î¹":8298,"ĠÏĨÎŃÏĦÎ¿ÏĤ":8299,"ĠÎµÏĢÎ¹ÏĩÎµÎ¯ÏģÎ·ÏĥÎ·":8300,"ĠÎµÎ³Î³Î»ÎŃÎ¶":8301,"ĠÎºÎ¿ÏģÎ¯ÏĦÏĥÎ¹":8302,"ĠÏĥÏħÎ¼ÏĨÎŃÏģÎ¿Î½ÏĦÎ±":8303,"ĠÎ¤Î¡ÎĳÎłÎķÎĸÎĻÎŁÎ¥":8304,"ĠÏĢá½Ģ":8305,"ĠÎľÎķÎ¤Î¤ÎĹÎ£":8306,"ĠÎĳÎĿÎ¤Î¡ÎŁÎ¥ÎĽÎĳ":8307,"ĠÎ³ÎµÎ½ÎŃÎ¸Î»Î¹Î±":8308,"ĠÎ»ÎµÏĢÏĦÎ¿Î¼ÎŃÏģÎµÎ¹ÎµÏĤ":8309,"ÎŃÎ³ÎµÏģÏĥÎ·":8310,"ĠÏĥÏħÎ¼ÏĨÎµÏģÏĮÎ½ÏĦÏīÎ½":8311,"ÎĻÎĽÎĻÎłÎł":8312,"AÏģÏĩ":8313,"em":8314,"ew":8315,"ius":8316,"Î¹ÏĥÏĦÎ®":8317,"Î½ÎµÏĨ":8318,"ĠÏĦÎ¹Î½":8319,"Î¬ÎºÎ¹Î±":8320,"Î¼Î²Î±":8321,"ÏĢÏİ":8322,"ĠÏĢÎŃÎ½":8323,"ĠÎºÎº":8324,"ĠÎºÏĦÏħÏĢÎ¬":8325,"ÏħÎ³Î±":8326,"Î³Î¿Ïį":8327,"ÎŁÏį":8328,"ĠÎ±Î¹Ïĩ":8329,"Î±Î½ÎµÎ¹":8330,"Î¿Î½ÏĦÎµÏĤ":8331,"Î¸ÎŃÏģ":8332,"ÏİÏĥÎ±Î½":8333,"ÏĩÎ±Ïģ":8334,"ÏĩÎ¿Î½ÏĦÎ±ÏĤ":8335,"ĠÏĦÎ¿ÏħÎ·":8336,"ĠÎ³Î¯Î½Ïī":8337,"ÏĦÎ·Î»Îµ":8338,"ĠÎķÎºÎ¬":8339,"ĠÎŃÎ¶":8340,"Î²Î¹Î²":8341,"ĠÎĳÎĵ":8342,"Î½Î±Î¼ÎµÎ½":8343,"ĠÎ¼ÎµÏĦÏģÎ¬":8344,"ĠÎłÎ»Î¬Î½Î¿":8345,"Î¾ÏħÏĢ":8346,"ĠÎ¸ÎºÎ¹Î¿":8347,"ÏĦÎ¬Î½ÎµÎ¹":8348,"ĠÎ£ÏįÎ¼ÏĨÏīÎ½Î±":8349,"ÏĥÏĦÏģÎ¹Î±":8350,"ÏĥÎ¹Î¬Î¶ÎµÏĦÎ±Î¹":8351,"ĠÎ²Î¿ÏħÎ»ÎµÏħ":8352,"ĠÎºÎ¬ÏģÏĦÎ±":8353,"ÎłÎŁÎĽÎ¥":8354,"ÎµÏĦÎ±Î¹Î¿":8355,"ĠÎµÎ¯ÏĥÏĦÎµ":8356,"ÎĴÎĳÎ¡ÎĴ":8357,"ÏĪÎµÏĦÎµ":8358,"ĠÎ¼Î±Î¾Î¹":8359,"ĠÏĢÎ¿ÏĦÎ·":8360,"ÏģÎºÎ¬Î½":8361,"ĠÎ·Î¾ÎµÏģÏī":8362,"Î¼ÏĢÎ®ÏĤ":8363,"ÏĥÎºÎ¹":8364,"ÏĢÎ¿ÏħÎ»Î¿ÏĤ":8365,"ÏĦÎ®ÏĥÎ¿ÏħÎ¼Îµ":8366,"ĠÏĥÏĦÎ±Ïħ":8367,"ĠÎĪÏĦÎ¿":8368,"ĠÎ´Î¹Î±Îº":8369,"ÏĢÎµÏģÎ¯":8370,"ÏĦÎ¿ÏħÎ¼Î¿ÏħÎ½":8371,"ÎºÎ¹ÎŃÏĤ":8372,"ÎµÏįÎº":8373,"ĠÎµÏĥÏĦÎ±":8374,"ĠÎµÏĢÎ¹ÏĦÎŃÎ»Î¿ÏħÏĤ":8375,"ÏĮÎ³Î»Î¿Ïħ":8376,"ÎĳÎĿÎŁÎ£":8377,"ĠÎ´Î±ÏĥÎºÎ¬":8378,"ĠÎ±ÏĢÎ¿Î¼Î±ÎºÏģ":8379,"ĠÎŀÎ±Î½Î±":8380,"ĠÏįÏĢÎ½Î¿":8381,"ĠÏĥÏħÎ¼Î²Î±":8382,"ĠÎºÎ¿ÏģÎ¹":8383,"ĠÎ¹ÏĥÏĦÎ¿ÏģÎ¹ÎºÎ®":8384,"ĠÎ©Î£":8385,"ĠÎ¤Î¿ÏįÏĦÎ¿":8386,"ĠÎºÏħÏĢÏģÎ¹Î±ÎºÎ¿Ïį":8387,"Î³Î¹ÏĮÎ³Î»Î¿Ïħ":8388,"ĠÎķÏĢÎ¹ÏĥÏĦÎ·":8389,"ĠÎŃÏģÎ¸ÎµÎ¹":8390,"ĠÏĨÎŃÏģÎµÎ¹ÏĤ":8391,"ÏĨÎµÏģÎµÎ½":8392,"ĠÎ³Î¹Î½ÎµÎ¹":8393,"ĠÎ¹Î´Î±Î½":8394,"ĠÎºÎ»ÎµÎ¹ÏĥÏĦÎ¬":8395,"ĠÏĢÎŃÏĦÏģÎ±":8396,"Ġ65":8397,"ÎĳÎ½Î´ÏģÎŃ":8398,"ÏĢÎ±Î½ÏĦÎ±":8399,"ĠÎ´ÎµÎºÎ±ÏĢÎµÎ½":8400,"ĠÎľÎ¹ÏĩÎ±Î®Î»":8401,"ĠÎłÎķÎĺÎķÎ¡Îĳ":8402,"ĠPROP":8403,"ĠÎ£Î¬Î²Î²Î±ÏĤ":8404,"Ġwh":8405,"ĠÎ³Î»ÏħÎºÎ¹Î¬":8406,"ĠÎ¼ÎµÏģÎ¹ÎºÎ¿Î¯":8407,"Î±Î»ÎµÎ¿Î½ÏĦÎ¯Î¿Ïħ":8408,"ĠÎĻÏīÎ±Î½":8409,"ĠÏĥÏĦÏĮÏĩÎ¿":8410,"ĠÎ±Î½Î®ÏĥÏħÏĩ":8411,"ĠÎĶÎĻÎĳÎľÎķÎ¡ÎĻÎ£ÎľÎĳ":8412,"ĠÎĿÎ¹ÎºÎ¿Î»Î¬Î¿Ïħ":8413,"ĠÎ¤ÎµÎ»Î¹ÎºÎ¬":8414,"ĠÎµÎ»ÎŃÎ³":8415,"ĠÎ¹Î´Î¹ÏĮ":8416,"ĠÎ»ÎµÎ¯ÏĢÎµÎ¹":8417,"ĠÎ¶Î·ÏĦÎ®ÏĥÏī":8418,"ĠÎ·Î¸Î¿ÏĢÎ¿Î¹":8419,"ĠÎĳÎ½Î¿Î¯Î³ÎµÎ¹Î·":8420,"ĠÎºÎ¬Î¼Î½Î¿ÏħÎ¼Îµ":8421,"ĠÏĦÏĥÎ±Îº":8422,"ĠÎ¦ÏģÎ¿ÏĥÏī":8423,"ĠÎ´Î¹Î±ÏĨÎ¸":8424,"ĠÎ£ÏĦÏģÎ¬ÏĦÎ¿ÏĤ":8425,"ĠÎµÏįÎºÎ¿Î»Î±":8426,"ĠÎºÎ»ÎŃÏĨÏĦÎ·ÏĤ":8427,"Î³ÏĮÏģÎ±ÏĤ":8428,"ÏİÎ½ÏħÎ¼Î¿ÏĤ":8429,"ĠÎºÏįÎºÎ»Î¿":8430,"Î¸ÏħÎ½ÏĥÎ·":8431,"ĠÎºÎ®ÏĢÎ¿":8432,"ĠÎ½ÏįÏĨÎ·":8433,"ĠÎľÎķÎ¡ÎļÎŁÎ¥Î¡ÎĻÎŁÎ£":8434,"ĠÎ±ÎµÏģÎ¿ÏĢ":8435,"ÎłÎ¿Î»Î¹ÏĦÎ¹":8436,"ĠÎłÎ¿Î»Î¯ÏĦÎ·ÏĤ":8437,"ÎµÏĩÎ±Î³Î¹ÏĮÎ³Î»Î¿Ïħ":8438,"'/":8439,"35":8440,"39":8441,"ÏĦÏĦÎŃ":8442,"Î½Î¯Î´Î·ÏĤ":8443,"ÎµÏĥÏĦÎµ":8444,"Î»ÏħÏĦ":8445,"Î¯Î¿ÏħÏĤ":8446,"Î¯ÏĥÎ¿ÏħÎ¼Îµ":8447,"ÎºÎ¿ÏħÎ¼Îµ":8448,"ÎºÎ»ÎµÎ¹":8449,"ÎĳÏĨ":8450,"ÏĨÏĦÎ±":8451,"ÎµÎ½Îµ":8452,"ĠÎķÎ£":8453,"Î²Î»ÎŃ":8454,"ĠÏĢÎ¿ÏħÎ¿":8455,"ĠÏĢÎ¿ÏħÎ»Î»Î¹Î¬":8456,"ÏģÎ¹ÏĥÎµ":8457,"ĠÎľÏĢÎ¿Ïħ":8458,"ĠÎľÎŁÎĿ":8459,"ĠÎłÎ·Î½":8460,"ĠÎłÎĳÎĿÎĻÎļÎļÎŁÎ£":8461,"ĠÎµÎ½Î¬":8462,"ĠÎµÎ½Î½Î¿Ïİ":8463,"ĠÎ¿ÏģÎº":8464,"ĠÎ¤ÎŁÎ¥Î£":8465,"ĠÎ£ÎĹ":8466,"Î¼ÎµÏĥÎ·":8467,"ĠÏĩÎ¿Î½":8468,"Î¿ÏģÎ¬ÏĤ":8469,"ĠÎºÎ±ÏģÎ¬":8470,"ĠÎºÎ±ÎºÎ¬":8471,"ĠÎºÎ±ÏĦÏĮ":8472,"ÎŃÎ½ÏĦÎ·":8473,"ÏĮÎ½Î¹Î½":8474,"ĠÏĢÎ±ÏħÏĥÎ·":8475,"ĠÎ±Î½ÏĦÏģÎŃ":8476,"ĠÎ¬ÏĥÏĢÏģÎ±":8477,"ĠÎµÏĢÎ±ÏģÏĩ":8478,"ĠÏĥÏĦÎ¿Î¹":8479,"ÏĦÏģÏİ":8480,"ĠÎĿÎĻÎ£ÎĹÎ¦ÎŁÎ¡ÎŁÎ£":8481,"ĠÏĦÎ¶Î¹ÏĮÎ»Î±ÏĤ":8482,"ĠÎ¾ÎŃ":8483,"ĠÎĽÎµÏĤ":8484,"Î§ÏģÎ¹ÏĥÏĦ":8485,"ÏģÎºÎ¿Ïį":8486,"ÏģÎ³Î±":8487,"ÎĶÎĹ":8488,"Î¿ÏĢÎ®":8489,"Î±ÏģÏĩÎ¹":8490,"Î·Î¼ÎŃÏģÏī":8491,"ĠÎ¼Î¬ÏĩÎ·":8492,"ĠÎĴÏģÎµÏĦÎ±Î½":8493,"ĠÎ¤Î¶Îµ":8494,"ĠÏĥÏħÎ½ÏĦÏģÎ¿ÏĨ":8495,"ĠÎŃÎ½ÎµÎ½":8496,"ÎĳÎ¡ÎĻÎ£":8497,"ĠÎµÎ¾Î·":8498,"ĠÎµÎ¾Î±Î½":8499,"ĠÎµÎ¾Î±Î¹ÏģÎµ":8500,"ÎĳÎĽÎĻÎĳ":8501,"ÏĥÎ±Î¹ÏīÎ½":8502,"ĠÏĩÎ±ÏĦ":8503,"Î¹Î±ÎºÎ®ÏĤ":8504,"Î³Î³ÎŃÎ»Î»":8505,"ĠÎ±ÏħÏĦÎ±":8506,"ÏĦÏĥÎ¬ÎºÎ¹":8507,"ĠÏĨÎ¿ÏģÎ±":8508,"ÎµÏħÎºÎµÎ½":8509,"ĠÎºÏħÎºÎ»Î¿ÏĨÎ¿Ïģ":8510,"ÏģÎ¹ÏĥÏĦÎ¿ÏĤ":8511,"ĠÏĩÏģÏĮÎ½Î¿ÏĤ":8512,"ÎŁÎĽÎŁÎĵ":8513,"Î¿Î»Î¿Î³Î¯Î±ÏĤ":8514,"ĠÎ´Î¹Î¬Î»ÎµÎº":8515,"Î¼Î¿Î½Î¿":8516,"Î¹Î»Î¹Îº":8517,"ĠÎ³ÎµÎ½Î½Î·":8518,"ĠÎµÎºÎ±ÏĦÎŃ":8519,"ĠÎµÎ¼ÎµÎ¹ÏĤ":8520,"ĠAÏĢ":8521,"Î¸ÏħÏģÎ¹ÏĥÏĦÎ¬":8522,"ĠÏĩÎ±ÏģÎŃÏĤ":8523,"ÏĮÏģÏĨÎ¿Ïħ":8524,"ĠÎµÏĢÎ®ÏģÎ±":8525,"ĠÎłÎ¡Î©Î¤ÎĹ":8526,"ĠTUBE":8527,"ÎĪÎ»Î»Î·Î½ÎµÏĤ":8528,"Î´ÎµÎ¹ÎºÎ½Ïį":8529,"ĠÏĥÏħÎ³ÎºÎ¯Î½Î·ÏĥÎ·":8530,"ÎķÎ£ÎĹ":8531,"ĠÎµÎ¯ÏĢÎ±Î¼ÎµÎ½":8532,"ĠÎµÎ½ÏİÎ¿":8533,"ĠÎ±ÏĨÎ®ÏĥÏī":8534,"ĠÎºÏģÎµÎ²Î±":8535,"ĠÎ³Î½ÏīÏģÎ¯Î¶ÎµÎ¹":8536,"Î¼ÎµÎ¹Î½Îµ":8537,"ĠÎ¼Î¿ÏĦÎ¿Ïĥ":8538,"ĠÎºÎ¿Î¹Î½ÏīÎ½Î¹ÎºÎ®":8539,"ĠÎºÎ¿Î¹Î½ÏīÎ½Î¹ÎºÎ®ÏĤ":8540,"ĠÎ£ÏĦÎ±Î¼Î±ÏĦÎ¬":8541,"ĠÎ±Î½Î¸ÏģÏİÏĢÎ¿Î¹":8542,"ĠÎ±Î½Î¸ÏģÏİÏĢÎ¹Î½":8543,"ĠÎºÎ±ÏĦÎµÏĩ":8544,"ĠÎ±ÎºÎ¿ÏħÎ¼ÏĢ":8545,"ith":8546,"ÎµÏģÎ³Î¯Î±":8547,"ĠÎ±ÏģÎŃÏĥÎµÎ¹":8548,"ĠÎ¸ÎµÎ»ÎµÎ¹":8549,"Ġbe":8550,"ĠÎłÏĮÏĥÎ±":8551,"ĠÎ±Î½Î±Î³ÎºÎ±":8552,"ĠÎľÎłÎĽÎķ":8553,"ĠÏĨÏĦÎ¬ÏĥÎµÎ¹":8554,"ĠÎ¼Î¿ÏħÏĥÎ¿ÏħÎ»":8555,"ĠÎłÎ±Î½Î±Î³Î¯Î±ÏĤ":8556,"ĠÎļÏħÏĢÏģÎ¯ÏīÎ½":8557,"Î´ÏģÏħÏĥÎ·":8558,"Î²Î®Î½ÎµÎ¹":8559,"ĠÎŃÎ¾ÏħÏĢ":8560,"ĠÎµÎ¸Î½Î¹Îº":8561,"ĠÏĢÎ»Î¿ÏįÏĥÎ¹Î±":8562,"ĠÎµÎ¼ÏĢÎµÎ¹ÏģÎ¯ÎµÏĤ":8563,"ĠÎºÎ»Î·ÏģÎ¿Î½Î¿Î¼":8564,"ĠÎĻÎ½ÏĥÏĦÎ¹ÏĦÎ¿ÏįÏĦÎ¿":8565,"ĠÎ±Î¸ÏģÏİÏĢÎ¿ÏħÏĤ":8566,"ĠÎ£Î·ÎºÏİÎ½ÎµÏĦÎ±Î¹":8567,"Î¿ÏĨÏįÏĦÎ¿Ïħ":8568,"ĠÎµÏĪÎŃÏĤ":8569,"ĠÎ±Î¯ÏĥÎ¸Î·ÏĥÎ·":8570,"ĠÎµÏĢÎ¹ÏĥÏĦÏģÎŃÏĪÎµÎ¹":8571,"ake":8572,"ĠÎľÎ¹ÏĩÎ¬Î»Î·ÏĤ":8573,"ĠÎ¼ÎµÏĥÎ·Î¼ÎŃÏģÎ¹":8574,"ĠÏĨÎ¹Î»ÎµÎ½Î¬Î´Î±":8575,"ĠCyprus":8576,"ĠÏģÎ±Î½ÏĦÎµÎ²Î¿Ïį":8577,"ĠÎ§ÏģÏħÏĥÏĦÎ¬Î»Î»Î±":8578,"ĠÏĢÎ»ÎµÎ¹Î¿ÏĪÎ·ÏĨ":8579,"ĠÎµÎ¸ÎµÎ»Î¿Î½":8580,"ÎĵÎķÎĿÎŁÎĴÎķÎ¦Îĳ":8581,"05":8582,"NÎ¿ÎµÎ¼Î²ÏģÎ¯Î¿Ïħ":8583,"ain":8584,"ÏĦÎ¿ÏħÎ¼Îµ":8585,"ÏĦÎ¿ÏĩÎ®":8586,"Î½Î¿ÏįÎ½":8587,"Î¯Î¼Î·ÏĤ":8588,"ÎºÎ¿ÏħÏĤ":8589,"ÎºÏĮÎ¼Î±":8590,"ĠÎºÏĦÏħÏĢ":8591,"ĠÏĥÎ¿ÏĨ":8592,"Î³ÏįÏģÏī":8593,"ĠÎ±Î¼ÏĢ":8594,"Î¸Î¿ÏįÎ¼ÎµÎ½":8595,"ÏĨÏĨÎ¿Ïħ":8596,"Î¹ÎºÎ»ÎŃ":8597,"ÎĽÎŁÎĻ":8598,"ĠÎ´ÎŃÏģ":8599,"ÏįÏĢÎ±":8600,"ĠÎķÎ»Î¬":8601,"ĠÎķÎµÎµÎµ":8602,"ÏģÎ¹Î¶":8603,"ĠÎļÎ¿Î¼":8604,"ĠÎļÏįÎº":8605,"ĠÎļÏįÏĢÏģÎ¹Î¿Î¹":8606,"ĠÎľÎ®":8607,"ĠÎłÏģÎ¿ÏĤ":8608,"ĠÎµÎ½Î±Î½":8609,"ĠÎµÎ½ÏĦÏįÏĢÏīÏĥÎ·":8610,"ĠÎ¤Î¬":8611,"ĠÎ¤Î¡ÎĳÎĵÎŁÎ¥":8612,"ĠÏĨÏĦÎµÏģÎ¬":8613,"ĠÎ£ÏīÏĥÏĦÎ¬":8614,"ÎļÎĻ":8615,"ÏĥÏĦÎ¹ÎºÎ®ÏĤ":8616,"ĠÎºÎ¬Î¸":8617,"ĠÎ¬ÏĥÎº":8618,"ÏĦÏģÏīÎ½":8619,"ĠÎ®Î»Î¹Î¿Ïħ":8620,"Î¹ÏĥÏĩÏį":8621,"ĠÎ§Ïİ":8622,"ĠÎĽÎ¹":8623,"ĠÏģÏħ":8624,"ĠÎ¼Î±Î³ÎµÎ¹":8625,"ĠÏħÎ¹":8626,"Î±ÏģÎ¯Î±ÏĤ":8627,"Î¸ÎµÏģÎ±":8628,"ĠÎĪÎ³Îº":8629,"ÏħÏģÎ¿Ïį":8630,"ĠÎµÎ¾Î±Î¹ÏĦÎ¯Î±ÏĤ":8631,"ĠÏĦÎ¿ÏįÏĦÎ¿Ïħ":8632,"ĠÎ¿ÏįÎ»Î±":8633,"ĠÎ¿ÏįÎ»Î»Î·Î½":8634,"ĠÏĢÎµÏģÎ¹Î¿ÏħÏĥÎ¯Î±":8635,"ĠÎļÎĳÎĺ":8636,"Î¬ÏģÎ´Î¿ÏĤ":8637,"ĠÎ´Î¹ÎµÎ¸Î½":8638,"ÏĦÎ¿ÏįÏĥÎ±":8639,"Î¯Î¿ÏħÏģÎ±":8640,"ĠÎ±ÏĢÎ¿ÏĦÎµÎ»":8641,"ĠÎŀÎµÎº":8642,"Î»Î¿Î³Î¿ÏĤ":8643,"ÎŃÏĪÎ±Î½":8644,"ÎŃÏĪÎµÎ¹ÏĤ":8645,"ÎŁÎļÎĳ":8646,"ĠÏĩÎ±ÏģÏĦÎ¹Î¬":8647,"ĠÎ»Î¬Î¸Î·":8648,"Î¯ÎºÎ¿":8649,"ĠÎĳÎ½Î±Î¾Î±":8650,"ĠÎ©Ïĩ":8651,"ÏĥÏħÏĩÎ±":8652,"ĠÎĳÏĢÎµÎ»ÎµÏħÎ¸ÎµÏģ":8653,"ĠÏĢÏģÎ±Î¼Î±":8654,"Î¿Î³ÏģÎ±ÏĨÎ¹ÎºÎ®":8655,"ÏģÎ¿ÏįÏĥÎµÎ¹ÏĤ":8656,"ĠÎ±ÏħÏĦÎ¿ÎºÎ¹Î½Î·":8657,"ĠÎºÎ¿Î¹Î½ÏīÎ½Î¯Î±ÏĤ":8658,"ĠÏĩÎµÎ¹ÏģÎ¿Îº":8659,"Î´ÏģÎ±ÏĥÎ·":8660,"ĠÎ³ÎµÎ½Î±Î¯ÎºÎ±Î½":8661,"ard":8662,"ĠÎĳÏģÏĩÎ¯Î¶ÎµÎ¹":8663,"ĠÎ³Î¿Î½Î±":8664,"ĠÎ³Î¿Î½Î¹Î¿Î¯":8665,"ĠÎľÎ¹ÏĩÎ±Î·":8666,"Î·Î»Î¯Î´Î·ÏĤ":8667,"ĠÎ±ÏĢÎ±Î³Î¿Ïģ":8668,"ĠÎ¸ÏħÎ¼Î¬":8669,"ĠÎ±ÏħÏĦÎ¿ÎºÎ¯Î½Î·ÏĦÎ¿Î½":8670,"ĠÏĥÏĦÏģÎŃÏĨ":8671,"ĠÎ±ÏĢÎ¿Î´Î¯Î´":8672,"ÏĦÎ¿ÏģÎ±ÏĤ":8673,"ĠÎļÎ¿Î¹ÏĦÎ¬":8674,"ĠÎ¿ÏħÏģÎ±Î½ÏĮ":8675,"ĠÎ±Î³Î±ÏĢÎ·Î¼ÎŃÎ½Î·":8676,"ĠÎµÏĢÎŃÎ¸Î±Î½":8677,"ĠÎ´Î¬ÏĥÎºÎ±Î»":8678,"ĠÎºÎ±Î¸Î±ÏģÎ¬":8679,"ĠÎºÏģÏįÎ²":8680,"ĠÎ³ÏħÎ¼Î½Î±":8681,"ÏĦÎ¿ÏĢÎ¿Î¹ÎµÎ¯":8682,"ĠÎ´ÎµÏįÏĦÎµÏģÎ·":8683,"ĠÏĩÏİÏģÎ±ÏĤ":8684,"ĠÏĥÏħÎ³Î³ÏģÎ±ÏĨÎŃÎ±":8685,"ĠÎ¾ÏħÏĢÎ½Î®":8686,"ĠÎĿÎ¯ÏĦÏĥÎ±":8687,"ÎĳÎĿÎĿÎŁÎ¥":8688,"ĠÎµÏĦÎ±Î¹ÏģÎµÎ¯Î±":8689,"Î¿ÏĥÏįÎ½Î·ÏĤ":8690,"ĠÎĳÎ½Î¸Î¿Î»Î¿Î³Î¯Î±":8691,"ĠÎĶÎ·Î¼Î®ÏĦÏģÎ·":8692,"ĠÎķÏĢÎ¯ÏĥÎ·ÏĤ":8693,"ĠÎ¸ÎºÎ¹Î±Î²Î¬":8694,"ĠÎ±Î½Î¿Î¹ÎºÏĦÏĮ":8695,"ÎĵÎµÏİÏģÎ³":8696,"ĠÎºÎ±Î½Î¿Î½Î¯ÏĥÏī":8697,"Î¯Î½Î´ÏħÎ½Î¿":8698,"ĠÎĶÎ¯ÏĢÎ»Î±":8699,"ĠÎľÎ±ÏģÎ¹Î³Î¿ÏįÎ»Î»Î±":8700,"ĠÏĨÎ¹Î»Î¿Î¾ÎµÎ½":8701,"ĠÎµÎ¾ÏħÏĢÎ·ÏģÎµ":8702,"Î³ÎºÏģÎ±Î²Î¿ÏįÏģÎ±":8703,"ÎłÎķÎ¤Î¡ÎĹÎ£":8704,"ĠÎºÎ±Î½Î±ÏĢÎµ":8705,"Î¡Î¥Î£ÎŁÎ£ÎŁÎ¤ÎľÎŁÎ£":8706,"ĠÎķÏĢÎ¹ÏĥÏĦÎ·Î¼Î¿Î½Î¹ÎºÏİÎ½":8707,"ian":8708,"á¿":8709,"ÏĦÏĦÎ·":8710,"ÏĦÏĥÎµÎ½":8711,"Î½Î¿ÏħÎ¼Îµ":8712,"ĠÏĦÎ¼Î®Î¼Î±":8713,"ÏĥÎŃÎ½":8714,"Î¬ÏĦ":8715,"ÎŃÎ´ÎµÏĤ":8716,"ĠÏĥÏĦÎµÏģ":8717,"ÏħÎ»Î¬":8718,"Î³Î±Î¹Î½Îµ":8719,"ĠÎ±Î»ÏĮÏĢÏīÏĤ":8720,"Î£ÎĻÎĳ":8721,"Î±Î½Î¿Î¯":8722,"ÏįÏģÎ¿Ïħ":8723,"ĠÎ³Î±Ïģ":8724,"ĠÎ³ÎŃÏģÎ¹":8725,"Î»Î»ÏİÎ½":8726,"Î»Î»Î¿ÏħÏĤ":8727,"ĠÎ¼ÎµÏģÎ±":8728,"ĠÎļÏĦÏħÏĢÎ¬ÎµÎ¹":8729,"ĠÎłÎµÎ¹":8730,"ĠÎłÎµÏĤ":8731,"ĠÎłÎ±Î»Î±Î¹":8732,"Î¾Î¿ÏħÎ¼ÎµÎ½":8733,"Î±Î»Î¹":8734,"ĠÎ±ÏĢÎ±Î¹":8735,"ÏģÎ¬Î¼Î¼Î±":8736,"ĠÏĦÎ±ÏĩÏį":8737,"ÏĥÎ·ÎºÏİÎ½ÎµÏĦÎ±Î¹":8738,"ĠÏĩÎµÏģ":8739,"ĠÏĩÏĦÏħÏĢÎ¬":8740,"ĠÎ»Î¬Î²":8741,"Î¿ÏģÎº":8742,"Î¬Î½ÏĦÏīÎ½":8743,"ÏĥÎ¹Î¬Î½":8744,"ĠÎ²Î»Î±":8745,"ĠÎĵÎº":8746,"ÎºÎ±ÏĦÎ¿Î¹Îº":8747,"ÎłÎ¡ÎŁÎ£":8748,"ÎłÎĽÎĳÎĿÎŁ":8749,"ĠÎ¦Î¯":8750,"ÎµÏĦÎ±Î¹Î·":8751,"ĠÎ®Î»Î¹Î¿":8752,"ĠÎµÎ¯ÏĥÎ¹Îµ":8753,"Î¹ÏĥÏĦÎ¬":8754,"Î¡ÎĳÎľ":8755,"ĠÎĽÎµÎ¹":8756,"ĠÏĢÎµÎ¸Î±":8757,"ĠÎ¼Î±ÎµÎ¹":8758,"ĠÏĥÎºÎŃ":8759,"Î»ÎŃÏĥÎ¼Î±ÏĦÎ±":8760,"ĠÎ±Î³Ïĩ":8761,"ĠÎ±Î³ÏģÎ¹":8762,"ĠÎºÎ±Î»Î·Î¼ÎŃÏģÎ±":8763,"ĠÎ±ÎºÏģÎ¯":8764,"Î¸ÎµÎ¼Î±":8765,"ĠÎĴÎ³Î¬Î¶ÎµÎ¹":8766,"ÏĦÎ¶Î¯":8767,"ĠÏĥÏħÎ½Î¸Î®ÎºÎµÏĤ":8768,"ĠÎŃÏĩÎµÏĦÎµ":8769,"ĠÎ´Î¹Î±ÎºÏģÎ¹":8770,"ĠÏĢÎ±ÏģÎ±Î³ÏīÎ³Î®":8771,"ÎµÏįÎ¿ÏħÎ½":8772,"ÎºÎµÏĦÎµ":8773,"ĠÎ¸ÎŃÎ»Î¿ÏħÎ¼Îµ":8774,"ĠÎºÎ±ÏĦÎ±ÏĨÎŃÏģÏī":8775,"ĠÎºÎ¿ÏħÎ¼ÏĢÎ¬":8776,"ĠÎ±ÏĨÎ¹":8777,"Î»ÎµÎ¹ÏĥÏĦÎ¿ÏĤ":8778,"ÏģÎ¹Î½ÏĮ":8779,"ĠÎ¡Ïİ":8780,"ĠÏĦÏģÎ±Î¿Ïħ":8781,"ĠÏĦÏģÎ±Î³Ïī":8782,"ÏĥÎ¼Î¿Î¯":8783,"ĠÏĦÏĮÏĢÎ¿ÏħÏĤ":8784,"ĠÎ¶ÏīÎ³ÏģÎ¬ÏĨ":8785,"ĠÏĢÎ±Î½ÏĦÎ¿":8786,"ĠÎ±ÏģÏĩÎ±":8787,"ĠÎ±ÏĢÎ¿ÏĦÎŃÎ»ÎµÏĥÎ¼Î±":8788,"ĠÏĥÎ¹Î®":8789,"ĠÎ´Î¿ÏħÎ»ÎŃ":8790,"ĠÎ´Î·Î¼Î¿ÏĥÎ¯":8791,"ÎºÏħÎ²ÎŃÏģ":8792,"ĠÏĢÎ»Î·Î³":8793,"ĠÎ»ÏĮÎ³Î¿Î½":8794,"Ġ39":8795,"ĠÎŃÎ²Î±Î»ÎµÏĤ":8796,"ĠÎµÏĢÎ®ÏģÎ±Î½":8797,"ĠÎ±Î´ÏįÎ½Î±":8798,"ĠÎ£Î¤Î¡ÎĳÎ¤ÎĹÎ£":8799,"ĠÎºÏģÎµÎ²Î¬":8800,"ĠÎ³Î½ÏīÏģÎ¯ÏĥÏī":8801,"ĠÎ³Î¹Î½Î¯ÏĥÎº":8802,"ĠÎ¾ÎµÎºÎ¬":8803,"ĠÎºÎ¿ÏĢÎŃÎ»Î»Î±":8804,"ĠÎĨÎ½Î½Î±":8805,"ĠÎ±ÏĢÎ±Î½ÏĦÎ¬ÎµÎ¹":8806,"ĠÏĥÎºÎ¿ÏĦÎµÎ¹":8807,"ĠÎ³Î»ÏİÏĥÏĥÎ±ÏĤ":8808,"ĠÎ±Î³Î³ÎµÎ»":8809,"Î¿Î»ÏĮÎ³Î¹Î¿":8810,"ÎŃÎ»Î»Î±Î½":8811,"ĠÏĥÎ¿Î²Î±ÏģÎ®":8812,"ĠÎķÎ»ÏĢÎ¯Î¶Ïī":8813,"Î½Î¹ÎŃÏĦÎ±Î¹":8814,"ĠÏĢÎ±Î¹Î´Î¯Î½":8815,"ĠÎºÎ¬ÏĦÏĥÏī":8816,"ĠÎ´Î¹ÏĢÎ»Ïī":8817,"ĠÏĪÎŃÎ¼Î±":8818,"ĠÎ¬Î³Î½Ïī":8819,"ĠVID":8820,"ĠÎľÎ±ÏģÎ¹Î³Ïİ":8821,"ĠÏĩÏīÏģÎ¬ÏĨÎºÎ¹Î±":8822,"ĠÏħÏĢÎ·ÏģÎŃ":8823,"ĠÎ¼Î·ÏĩÎ±Î½Î®":8824,"ĠÎŁÎ¹ÎºÎ¯Î±":8825,"ĠÎłÎ±Î½Î±Î³Î¹ÏİÏĦÎ·ÏĤ":8826,"ĠÎķÎºÎ±ÏĦÎ¬Î»Î±Î²Î±":8827,"ĠÎ±ÏĨÎ·Î³Î·Î¼Î±":8828,"ĠÎĵÎµÏİÏģÎ³Î¹Î¿ÏĤ":8829,"ĠÎ³ÏīÎ½Î¹Î¬":8830,"ĠÎ¥ÏĢÎ¬ÏģÏĩÎµÎ¹":8831,"ĠÎļÎ¥Î¡ÎĻÎĳ":8832,"ĠÎ´Î¹Î±ÏĢÎ»Î¿ÎºÎ®ÏĤ":8833,"ĠÏĩÏħÎ¼ÏĮ":8834,"ĠÎ£Î±Î»Î±Î¼Î¯":8835,"ÎºÏĦÏģÎ¿Î»Î¿Î³ÎµÎ¯":8836,"ĠÎĺÏħÎ¼Î¬ÏĥÎ±Î¹":8837,"ÎĴÎĳÎ¡ÎĴÎĳÎ¡ÎŁÎ¥":8838,"ĠVIDEO":8839,"31":8840,"OÎºÏĦÏīÎ²ÏģÎ¯Î¿Ïħ":8841,"ab":8842,"iz":8843,"ud":8844,"ÏģÎ¹Îº":8845,"ĠÏĦÎ±Î»Î±Î¹":8846,"ÎºÎ¬Î½ÎµÎ¹":8847,"ÏĢÎµÎ¹Î±":8848,"ÏĢÎ»Î®":8849,"ĠÏĢÎ¿Î¼":8850,"ĠÏĢÎ½ÎµÏį":8851,"ÏĮÏģÎºÎ·":8852,"ÎŃÏīÎ½":8853,"Î³ÎµÎ¹ÏĤ":8854,"Î¸Î¿Ïį":8855,"ÏĩÏģÎ·":8856,"ÏĦÎ±Î³Î®":8857,"ÏĨÎ¿Î¹":8858,"ÎµÎ½ÎµÏĦÎ¯Î±":8859,"ÎķÎ³Ïİ":8860,"ÏĦÎ¹ÏİÎ½":8861,"Î±Î»Î±Î½":8862,"ĠÎ¤ÏĥÎµÏģ":8863,"Î¯Î½Î¿Î½ÏĦÎ±Î¹":8864,"ĠÎ¸Ïī":8865,"ĠÎ±ÏĢÎ¿ÏĩÏīÏģ":8866,"Î¼ÎµÏħ":8867,"ÏĥÏĦÎ¹Îº":8868,"Î¬Î½Î¿Î¹":8869,"ĠÎ²ÏħÎ¸":8870,"ÏģÎ¯ÏĢ":8871,"ĠÎĵÎŃÎ½Î½Î·ÏĥÎ·":8872,"ÏĦÎ¹ÎºÎ®Î½":8873,"ĠÎĿÎ½Î±Î¹":8874,"ĠÎĹÏģÏĦÎ±":8875,"ÏĢÏģÎµÏĢÎµÎ½":8876,"ĠÎ¾ÎµÏģÏī":8877,"Î§Î¡ÎĻÎ£Î¤":8878,"Î§ÏģÏħÏĥ":8879,"ÏĪÏħÏĩ":8880,"ÎŃÎ»Î¿ÏħÏĤ":8881,"ĠÎ¼Î±Î³":8882,"ĠÏĢÎ¿ÏĦÎ¬":8883,"ĠÏħÏĥÏĦÎµ":8884,"Î±ÏģÎ¹Î±":8885,"ÏģÏīÎ¼ÎŃÎ½Î·":8886,"ÎĻÎļÎĹÎ£":8887,"ĠÎ±ÎºÏģÏħ":8888,"ĠÎ¼Î¬Î¼Î±":8889,"ÏĢÎ¬ÎµÎ¹":8890,"Î¸Î·ÏĥÎ±":8891,"ÏģÏħÎ½":8892,"ĠÎ¼ÏĢÏī":8893,"ĠÎ¼ÏĢÎ¬Î½":8894,"ĠÎ´Î¹Î±Ïĥ":8895,"ÎĿÎĳÎ¤ÎĳÎĽÎ¥":8896,"ĠÎ±Î½Î±Î»Î¬Î²":8897,"ĠÏĦÎ¿ÏįÏĤ":8898,"ĠÎµÏĥÏĦÎ¬":8899,"ÎķÎ¥Î¡":8900,"ĠÎºÏĮÎ»":8901,"Î¸ÎµÎ¯Î¿":8902,"ÎµÎºÎ»Î¿Î³ÎŃÏĤ":8903,"ĠÎļÎ±Î²Î¬":8904,"Î³Î³ÏģÎ±ÏĨ":8905,"ĠÎ´Î¹Î®Î³":8906,"ĠÏĢÏģÎ¿ÎµÎº":8907,"Î·Î³ÏĮÏĤ":8908,"ĠÏĥÏĩÏĮÎ»Î¹Î±":8909,"ĠÎłÎ±ÏħÏĥÎ·":8910,"ÎŁÎĽÎŁÎĻ":8911,"ÏĮÎ»Î¹Î¿":8912,"ĠÎ±ÏģÏĩÎ¯Î¶Î¿ÏħÎ½":8913,"ĠÎķÏħÎµÎ»":8914,"ĠÎķÏħÎ³ÎµÎ½":8915,"ĠÏĦÏģÎµÎ¯ÏĤ":8916,"ĠÎ¾ÎŃÏģÎ¿ÏħÎ¼Îµ":8917,"ĠÎ¼ÎŃÏģÎ¿ÏħÏĤ":8918,"ĠÏĢÎµÎ¹ÏģÎ¬":8919,"ĠÎ»ÏĮÎ³Î¿ÏħÏĤ":8920,"ĠÎ±Î½ÏĦÎ¹Î´ÏģÎ¬":8921,"ĠÎ´ÏīÎ¼Î¬ÏĦÎ¹":8922,"ĠÎ´ÏİÎ´ÎµÎºÎ±":8923,"Î²Î¿Î»Î®ÏĤ":8924,"ĠÏĥÎ±ÎºÎ¿Ïį":8925,"Ġ1821":8926,"Î³Î¹ÎµÏĤ":8927,"Î¡ÎĻÎŁÎ¥":8928,"ĠÏĢÎ¿Î¯Î·ÏĥÎ®":8929,"ase":8930,"ĠÎºÎ¿Î¹Î½ÏīÎ½Î¹ÎºÎŃÏĤ":8931,"ĠÎ´ÏħÎ½Î±Î¼":8932,"ĠÏĥÏīÏĥÏĦÎ®":8933,"ĠÎ¸ÏħÎ¼Î¿ÏįÎ¼Î±Î¹":8934,"ĠÏĥÎºÎ¿ÏĦÏİÎ½":8935,"ĠÎŁÏħÏĦÎµ":8936,"ĠÎ³Î»ÏİÏĥÏĥÎ±Î½":8937,"ĠÏĩÎ±ÏģÎ¬Î½":8938,"ĠÎĿÎĳÎ¤ÎĳÎĽÎ¥":8939,"Î¿Î»ÏĮÎ³Î·ÏĥÎ·":8940,"ĠÏĦÎ¯ÏĢÎ¿ÏĦÎµÏĤ":8941,"ÎŁÎ¤ÎķÎĽÎĹÎ£":8942,"ĠÎ¶Î·ÏĦÎ¬":8943,"ĠÎ§Î©Î¡ÎŁÎ£":8944,"ĠÏģÎ±Î´Î¹":8945,"ĠÎºÎ±Î»ÏįÏĦÎµÏģÎ¿":8946,"ĠÎ¤ÏģÎ±Î¼ÏĢ":8947,"ĠÏĢÏĮÏģÏĦÎµÏĤ":8948,"ĠÎºÎµÏģÎ´Î¯":8949,"ĠÎ¤ÎµÎ»Î¿ÏĤ":8950,"ĠÏĥÏĦÎ±Î¼Î±ÏĦÎ®ÏĥÎµÎ¹":8951,"ĠÎ£Î¥ÎĿÎĶ":8952,"ĠÏĢÎµÏģÎ¹Î¿Î´Î¹ÎºÎ¬":8953,"ÎĶÎ¡ÎŁÎľÎŁÎ£":8954,"ĠÏĦÏĮÎ½Îµ":8955,"ĠÎ£ÎºÎ·Î½Î·":8956,"ĠÎĶÏħÎ¿":8957,"ÎºÎ¬Î»ÏħÏĪÎ·":8958,"ÏĢÎµÏģÎ¹Î¿Î´":8959,"ĠÎ³ÏħÏģÎ½Î¬ÎµÎ¹":8960,"ÏĮÎ»Î¿Î³Î¿ÏĤ":8961,"ĠÎ£ÏĦÎ±ÏħÏģÎ¹Î½":8962,"ĠÎ³Î±Î»Î»Î¹ÎºÎ¬":8963,"ĠÎ¼Î±ÏģÎ±Î¶":8964,"ĠÎ¿ÏĨÎµÎ¯":8965,"ĠÎ¸ÎµÎ¯Î¿ÏĤ":8966,"Î·ÏĦÏģÎ¯Î¿Ïħ":8967,"ĠÎ¼ÎŃÏĦÏīÏĢÎ¿":8968,"ĠÎĳÏģÎ¿Î±ÏĨÎ½":8969,"ÎĳÎ¥ÎĽÎĹ":8970,"ĠÏĢÏģÎµÏĥÎ²":8971,"ÎĹÎĿÎķÎĽÎŁÎłÎĹ":8972,"ĠÎ±ÎºÏģÏħÎ»Î¹ÎºÏĮ":8973,"34":8974,"37":8975,"64":8976,"if":8977,"Î±ÏĦÎ±":8978,"ĠÏĦÎµÏģ":8979,"Î·ÏĥÎ±Î½":8980,"Î¿ÏħÎ»Î±":8981,"Î¼Î¼ÎŃÎ½Î¿ÏĤ":8982,"ÎºÎ»ÎµÎ¯Î½ÎµÎ¹":8983,"ĠÎ¼ÎŃÎ½Î±Î½":8984,"ĠÎºÎ¯Î½Î·":8985,"ĠÎºÏģÎ¿Ïį":8986,"ÎŃÏĥÎµÎ¹ÏĤ":8987,"ĠÎ±Î²":8988,"ĠÎ±ÏĦÎ¬":8989,"ÎĻÎĽÎŁÎ¥":8990,"ÏĨÎµÎ¹":8991,"ÎĽÎ¬ÏģÎ½Î±":8992,"ÏįÏģÎµÏĤ":8993,"ÏįÏģÎ¹Î±":8994,"Î²ÎµÎ¯":8995,"Î²Î¬Î½":8996,"ÎµÎ¯Î·":8997,"ÏĦÎ¹Î½Î¬":8998,"ĠÎļÏĦÏħÏĢÎ¬":8999,"Î¾Î¹Î±":9000,"ĠÎ±ÏĢÎ»ÏĮ":9001,"ĠÎ£ÏĦÎ¬":9002,"ĠÎ£ÏįÎ½":9003,"ĠÏĩÎ¯":9004,"ÏĥÏĦÏħÎ½Î¿Î¼":9005,"ÎŃÏģÎµ":9006,"ÎŃÏģÎ¿ÏħÎ½":9007,"Î¹Î¬ÏĥÎµÎ¹":9008,"ÎłÎ±Î½":9009,"ÏĢÎ¿Î¯":9010,"ĠÎĶÎ¹Î¿":9011,"ĠÎķÎ½Î½Î¿":9012,"ĠÎĽÎ±Î¹":9013,"Î§Î¡Î¥":9014,"ĠÏĢÎ¿Î´Î®":9015,"ÎĶÎķÎ£Îł":9016,"ĠÏĦÎ¶Î¹Î±Î¹Î¿":9017,"ĠÎ¶Î¬":9018,"Î¸ÎµÏĦÎ¿":9019,"Î»Î¹Î³":9020,"ÏģÎŃÎ¼Î·ÏĥÎµ":9021,"ĠÎĴÎ±":9022,"ĠÏĥÏħÎ½ÏĦÏħÏĩ":9023,"ĠÏĥÏħÎ½ÎµÏģÎ³":9024,"ĠÏĥÏħÎ½Î¿Î¼Î¹":9025,"ĠÏĥÏħÎ½ÏĦÎ·ÏģÎ·":9026,"Î»Î¯Î¿Î½":9027,"Î¿ÎºÎ»Î®ÏĤ":9028,"ĠÎµÎ¾ÎµÎ»Î¯":9029,"ĠÎ¼Î¹Î»Î·":9030,"ĠÎ±Î½Î±ÎºÎ±Î»":9031,"ĠÏĩÏģÏİÎ¼Î±":9032,"ĠÎĻÏĥÎ¼":9033,"Î±Î½Î±ÏĦÎ¿":9034,"ĠÎºÎ¿ÏħÏĦÎ¬":9035,"ÏģÎ¹Î½Î·":9036,"ĠÎºÏĮÏģÎ·Î½":9037,"Î©ÎĿÎĹ":9038,"Î¬ÏģÎ·ÏĤ":9039,"Î´Î®ÏĥÎµÎ¹ÏĤ":9040,"ĠÏĢÎ±Î½ÏĦÎ±":9041,"ÏĨÏīÎ½Î¬Î¶ÎµÎ¹":9042,"ÎŁÎĽÎŁÎ¥":9043,"ĠÎ±ÏģÏĩÎ±Î¯":9044,"ÏĦÎ¿Î¹Î¼Î¬":9045,"ĠÎ±ÏģÏĥÎµÎ½":9046,"ĠÎ¸ÎŃÏĥÎµÎ¹ÏĤ":9047,"Î»ÏīÏĥÎµ":9048,"ĠÏįÏĪ":9049,"ĠÏĨÏįÎ³Ïī":9050,"ĠÎļÎ¬ÏĢÎ¿ÏĦÎµ":9051,"ĠÏĢÎ»Î·ÏģÏİ":9052,"ĠÎ¼ÎµÎ³Î¬Î»Î¿Î½":9053,"ĠÎºÎ¿Î½ÏĦÎ±":9054,"Î¸ÏħÏĢÎ¿ÏħÏģÎ³":9055,"ĠÎ»Î¿Î³Î¿":9056,"Î¹ÏĥÏĦÎ¹ÎºÏĮ":9057,"Î¸ÎµÎ¹Î±Î½":9058,"ĠÎ¿ÏħÏĦÎµ":9059,"ĠÏĦÏĥÎ¯":9060,"ĠÎ»Î¹Î³Î¿":9061,"ĠÏĢÏģÎ¿ÏĥÏĢÎ±Î¸Î¿ÏįÎ½":9062,"ĠÎ±Î»Î»Î¿Ïħ":9063,"ĠÎ»ÎµÎ¼Î¿Î½":9064,"ĠÎ§Î±Î¼ÏĢÎ®ÏĤ":9065,"ĠÎ´ÏģÏĮÎ¼Î¿Î½":9066,"ass":9067,"ÏĨÎµÏģÎµÏĤ":9068,"ÏĦÏģÎ¿ÏĢÎ¿Î»Î¯":9069,"ĠÎ²Î¿ÏħÏģÎ¬":9070,"ĠÎ³Î¬Î»Î±":9071,"Ġ61":9072,"ĠÎ±Î¾Î¹ÏīÎ¼Î±":9073,"ĠÎ®ÏģÎ¸Î±":9074,"ĠÎ±ÎºÎ¿Î»Î¿Ïį":9075,"ĠÎºÎ±Î»Î»Ïį":9076,"ĠÎ¼Î®ÏĢÏīÏĤ":9077,"ĠÎ¸ÏħÎ¼Î·":9078,"ĠÎľÎłÎĳÎ¡ÎĻÎ£":9079,"rom":9080,"ĠÎķÎ»ÎµÏħÎ¸ÎµÏģ":9081,"ĠÎĶÎµÎºÎµÎ¼Î²ÏģÎ¯Î¿Ïħ":9082,"ĠÏĩÏģÎ·Î¼Î±ÏĦÎ¿":9083,"ĠSTA":9084,"ĠÎŃÎ¼ÎµÎ¹Î½Î±":9085,"ĠÎ¼ÎµÏģÎ¹ÎºÎ¬":9086,"ĠÎ¼Î±Î¸Î·ÏĦÎŃÏĤ":9087,"ĠÎºÎ±Î½Î¿Î½Î¹ÎºÎ¬":9088,"ĠÎ³ÏħÎ¼Î½Î¬":9089,"ĠÎµÎ»Î±ÏĨ":9090,"ĠÎŃÎ½ÏĦÎ¿Î½Î·":9091,"ĠÏĢÎ±Î¯ÏģÎ½Ïī":9092,"ĠÏĥÎºÎ¿ÏħÏĢÎ¯Î¶ÎµÎ¹":9093,"ĠÏĦÎ¶Î¹ÎµÎ¯Î½Î¿Î½":9094,"Î¤Î¶Î¹Î±Î¹":9095,"ĠÎ²Î¹Î±ÏĥÏĦÎ¹ÎºÎ¬":9096,"ĠÏĢÎµÏģÎ½Î¿ÏįÎ½":9097,"ĠÏĥÏħÎ³Î³ÎµÎ½ÎµÎ¯ÏĤ":9098,"ÎĳÎ¡Î§ÎŁÎĿÎ¤ÎĻÎļÎŁ":9099,"ĠÎĶÎ©Î¡ÎŁÎĺÎķÎŁÎ£":9100,"ÎŃÎ¼Î²ÏģÎ¹Î¿ÏĤ":9101,"ĠÎ¼Î¿ÏħÏĩÏĦÎ¬ÏģÎ·":9102,"ĠÎĨÎ³Î³ÎµÎ»Î¿ÏĤ":9103,"ĠÎļÏħÏĢÏģÎ¹Î±Î½Î¿Ïį":9104,"ĠÎĳÎ½Î±ÏĦÎ¿Î»Î®ÏĤ":9105,"ĠÏĩÎ±ÏģÎ±ÎºÏĦÎ®ÏģÎ±":9106,"ĠÏħÏĢÎ¿ÏĩÏģÎµ":9107,"ÎŁÎ¥ÎļÎļÎŁÎ£":9108,"ĠÏĩÏģÎ®ÏĥÎ·":9109,"ĠÎ´Î¹Î±Î´Î¹ÎºÎ±ÏĥÎ¯Î±":9110,"ĠÎ²Î±ÏĥÎ¯Î»Î¹Ïĥ":9111,"ĠÏĥÏįÎ³ÎºÏģÎ¿Ïħ":9112,"ĠÏĢÎµÏģÎ¯ÏĢÎ±ÏĦÎ¿":9113,"ÎĳÎĵÎĵÎķÎĽÎĻÎļÎĹ":9114,"ĠÏĢÎ¿Î´Î®Î»Î±":9115,"th":9116,"Î¿Î¼ÎµÎ½":9117,"Î½Î¹Î±":9118,"ÎµÎ¾Î±":9119,"Î¬Î³":9120,"Î¯ÏĦÏĥÎ±":9121,"Î¼Î²Î±ÏĥÎ·":9122,"ÎºÎºÎ¿":9123,"ĠÎºÎµÏģÎ¬":9124,"ÎŃÏĥÏī":9125,"Î±Î¹Ïģ":9126,"ĠÎµÏģÎº":9127,"ÏħÏħ":9128,"ĠÎ±Î·":9129,"ĠÎ±Î¼Î¬":9130,"ÎĳÎ³":9131,"ÎĻÏī":9132,"Î´ÏģÎ±ÏĤ":9133,"ÏĩÎ¹Î±":9134,"ĠÏĦÎ¿ÏħÏĦÎ¿Î½":9135,"ĠÎ´ÎŃ":9136,"ĠÎĳÏģÎŃ":9137,"ĠÎĳÏģÎ¹ÏĥÏĦ":9138,"ĠÎ¼ÎµÎ¸Ïħ":9139,"ĠÎ¿Î»Î¯":9140,"Î¯Î½Î¹Î±":9141,"Î¯Î½ÎµÏĤ":9142,"ĠÏĨÎµÎ³":9143,"ĠÏĨÎ¬Î½Î·":9144,"ÎļÏįÏĢÏģÎ¿":9145,"Î¿ÏģÎ³":9146,"ÎŁÎ¥ÎľÎķ":9147,"ÏĥÎ¹Î¿Î½":9148,"ÏĮÎ½ÏĦÎ±":9149,"ĠÎĵÎ¹Î¬":9150,"ĠÎµÏĢÎ±Î½Î¬":9151,"ĠÎ¦Î»ÏīÏģ":9152,"ÎľÎŁÎĿ":9153,"ÎµÏħÏĦÎµ":9154,"ĠÎĶÎŃÏĥ":9155,"ÎµÎ»ÎŃ":9156,"ĠÎĽÎŃ":9157,"ĠÏģÎ®":9158,"ÏģÎ·ÏĥÎµ":9159,"Î±ÏģÏī":9160,"ĠÏĥÎºÎ»Î¬Î²":9161,"ĠÎ±Î³ÏĩÏī":9162,"ĠÎ¶Îµ":9163,"ĠÎĴÎĻÎ¤ÎĸÎĻ":9164,"ĠÎĪÏĥÎ¹ÎµÎ¹ÏĤ":9165,"ÏĦÎ¿ÏħÎ¹":9166,"ĠÏĢÏĮÎ¸Î¸ÎµÎ½":9167,"ÎµÏįÎºÎµÎ¹":9168,"ĠÏĪÎ¿Ïħ":9169,"ĠÏĪÎµÏį":9170,"ĠÏĢÎµÏģÎ¹ÎŃÏĩÎµÎ¹":9171,"ÏĦÏĮÏģÎ¹Î¿":9172,"ÏĢÎ¯ÏĦÎ¹":9173,"ĠÎ¯Î½":9174,"ĠÎ¼ÎŃÏĥÎ±Î·":9175,"ĠÎļÎ±Î¸":9176,"ÎºÎ±Î»ÎµÎ½":9177,"ÏģÎ¹ÏĥÏĦÎ®":9178,"Î¾ÏīÏĦÎµÏģ":9179,"Î¿Î»Î¿Î³Î¹ÎºÎŃÏĤ":9180,"Î¼Î®ÏĥÎµÎ¹":9181,"ĠÏĢÏģÏİÏĦÎ·ÏĤ":9182,"ĠÎ±ÏģÎ¼Î¬":9183,"Î»Î¿Î³Î·":9184,"ĠÎķÎ¯Î¼Î±ÏĥÏĦÎµ":9185,"ĠÎķÎ¯ÏĢÎµÎ½":9186,"ĠÎļÎ¬ÏĢÎ¿Î¹Î±":9187,"Î´Î¯ÎºÎ·":9188,"ĠÎķÎ¹ÏĢÎµ":9189,"ÎĳÎ£ÎŁÎ£":9190,"ĠÎºÎ±Î¼Î¿Î¹":9191,"ĠÎµÏĢÎ®Î±Î½":9192,"ĠÏĢÏģÏīÏĦÎ±":9193,"ĠÎĳÏĨÏģÎ¹ÎºÎ®":9194,"ĠÎºÎ¿ÏģÎ¼Î¯":9195,"ĠÎ¿ÏħÎ´ÎŃ":9196,"ĠÏĢÎ¹Î¬ÏĥÎµÎ¹ÏĤ":9197,"Î²Î¿Î»Î±":9198,"ĠÎķÎ¯Î½Î±Î¹Î·":9199,"ĠÏĢÎ»Î¬ÏĥÎ¼Î±":9200,"ĠÏĦÏĥÎ¿Ïħ":9201,"ĠÎļÎ±Î»Î¿Î¼Î¿Î¹ÏģÎ±":9202,"ĠÎºÎ¿ÏħÎ²ÎµÎ½":9203,"Ġ1964":9204,"ĠÎ´ÏģÏĮÎ¼Î¿Ïħ":9205,"ÏĦÎµÏħÏĥÎ·":9206,"ĠÎķÎºÎµÎ¯Î½":9207,"ĠÎ¦Î±Î½Î¿Ïħ":9208,"ĠÎĵÎ±Î»Î¬ÏĦÎµÎ¹":9209,"ĠÏĢÎ¿ÏįÏĢÎ¿ÏĦÎµ":9210,"ÎĳÎ½Î¿Î¯Î³ÎµÎ¹":9211,"ĠÎĹÎ½ÏĦÎ±Î»ÏīÏĤ":9212,"art":9213,"ĠÎ¿ÏĢÎ¿Î¯Î¿ÏħÏĤ":9214,"ĠÎ³ÏģÎ±Î¼Î¼":9215,"ĠÎĶÎ¹ÏĮÏĦÎ¹":9216,"ĠÏĥÏįÎ½Î¸ÎµÏĥÎ·":9217,"Î²Î¿ÏħÎ½Î±":9218,"ĠÎ±Î½Î±Î³Î½Ïİ":9219,"ĠÏĢÎ¿ÏģÏĦÎ¿":9220,"ĠÎ¿ÏģÎ³Î¬Î½Ïī":9221,"ĠÎºÏģÎ¯ÏĥÎ·":9222,"ĠÎ¼Î¿Î¹Î¬Î¶ÎµÎ¹":9223,"ĠÎľÏĮÎ½ÏĦÎ·":9224,"ĠÎ¿Î¹ÎºÎ¿Î½Î¿Î¼Î¹ÎºÎ¬":9225,"ĠÎºÎ±ÏģÎŃÎºÎ»ÎµÏĤ":9226,"ĠÎ®Î²ÏģÎµÏĤ":9227,"ĠÎ´Î¹Î¿Î¯ÎºÎ·ÏĥÎ·":9228,"ĠÏĦÎ¶Î¿Î¹Î¼Î·":9229,"ĠÎ²Î¬Î»Î»ÎµÎ¹":9230,"ĠÏĨÎµÏģÎŃÏĨ":9231,"ĠÎ¼Î½Î®Î¼Î·":9232,"ĠÎĴÎ±ÏĥÎ¯Î»Î·ÏĤ":9233,"ÎŃÎ´ÏģÎ¿Ïħ":9234,"ĠÏĢÎ»Î·Î¸ÏħÏĥÎ¼Î¿Ïį":9235,"ÎĵÎµÏīÏģÎ³":9236,"ĠÎķÎ¸Î½Î¹ÎºÎ®":9237,"ĠÎĻÏĥÏģÎ±":9238,"ÎĽÎµÎ¼ÎµÏĥÏĮ":9239,"ĠÎľÎµÎ³Î¬Î»Î·":9240,"ÏģÎ¹ÏĩÎ¿Ïį":9241,"ĠÎĶÎµÎ¯ÏĩÎ½ÎµÎ¹":9242,"ĠÎµÎ¼ÏĢÎ¹ÏĥÏĦÎ¿ÏĥÏįÎ½Î·":9243,"ĠÎĵÏħÎ¼Î½Î¬ÏĥÎ¹Î¿":9244,"ĠÎ·Î»ÎµÎºÏĦÏģ":9245,"ĠÎ³Î¿Î½Î¹Î¿ÏįÏĤ":9246,"ĠÏĢÎ±ÏģÎµÎ¾Î·Î³":9247,"ĠÏĩÎ±ÏģÎ±ÎºÏĦÎ·ÏģÎ¹ÏĥÏĦÎ¹ÎºÎ¬":9248,"ĠÎ¼Î±Î»Î±Îº":9249,"ĠÎ¸Î»Î¯ÏĪÎ·":9250,"ĠÎłÎŁÎ¥ÎĽÎŁÎ¥ÎļÎļÎŁÎ£":9251,"ĠÏĩÎµÎ¹ÏģÎ¿Î³ÏģÎ¬ÏĨÎ¿Ïħ":9252,"ĠÎłÎ·Î½ÎµÎ»":9253,"ĠÏĩÎµÎ¹ÏģÎ¿ÎºÏģÎ¿":9254,"AÎ½":9255,"ÏĦÎŃÏģÎ±Î½":9256,"ÏģÏĦÎ·":9257,"ÏģÏİÎ½ÎµÎ¹":9258,"Î·Î²":9259,"Î»Î¬Î½":9260,"Î¯Î¿Î¹":9261,"Î¼ÏĢÎ¿":9262,"ÏĢÏģÎ¬":9263,"ĠÏĢÏĮÏĥÎµÏĤ":9264,"ÏīÎ³ÏģÎ±ÏĨ":9265,"ĠÎµÏģÎ±":9266,"ĠÎµÎ´Î¹Î±":9267,"ÎĳÎ»Î»Î¬":9268,"Î£ÏĦÎŃ":9269,"Î£Î¬Î²":9270,"Î£ÎŁÎ¦ÎĻÎĳ":9271,"Î®Î¸Î·ÎºÎ±Î½":9272,"Î¿Î½Î¯Îº":9273,"Î´ÎµÎº":9274,"ÏĦÎ±Î»Ïħ":9275,"ÏĨÎŃ":9276,"Î¤Î¡ÎĻÎĳ":9277,"ÏĦÎ·ÏĥÎ·ÏĤ":9278,"ĠÎŃÎ»":9279,"ĠÏĦÎ¶Î±Î¯":9280,"ĠÎĳÎ£":9281,"ĠÎļÏģÎ¯":9282,"ĠÎłÎĹÎĿÎķÎĽÎŁÎłÎĹ":9283,"ĠÎµÎ½ÏĮÎ¼Î¹Î¶Î±":9284,"ĠÎ¿ÏĢÎ¿Ïħ":9285,"ĠÎ¿ÏĢÏĮÏĦÎµ":9286,"ĠÎ¸ÎµÏĤ":9287,"ĠÎ±ÏĢÎ¿Î»Î±":9288,"ĠÎ£ÏĦÎ¹ÏĤ":9289,"ĠÎ²Î¿Ïģ":9290,"ĠÎ²ÏģÎ¹ÏĥÎº":9291,"ĠÎ²ÎµÎ²Î±Î¹":9292,"ĠÎĵÎ¿Ïħ":9293,"ĠÎ±Î½Î¹":9294,"ĠÎ±Î½Î½Î¿Î¹":9295,"ĠÎ¬Î´Î¹Îº":9296,"ĠÎ¬Î»Î¿Î³Î±":9297,"ĠÎŁÎĻ":9298,"ÏĢÎ±Î¸":9299,"ĠÎ¾ÎµÏĥ":9300,"ĠÎĽÏĮÎ³":9301,"ÎĿÎ¤Îĳ":9302,"Î¿ÏįÎ½Î¹Î±":9303,"ĠÎµÎºÏĨ":9304,"ĠÎ¶Î¿ÏħÎ½":9305,"ĠÏĥÏĦÎ±Î¼Î¬ÏĦÎ±":9306,"ÏĦÏīÎ¼ÎŃÎ½Î·":9307,"ÏĦÎ¿Î½ÏĦÎ±Î¹":9308,"ĠÏĢÏģÎ¿ÏĥÏĨÎŃÏģ":9309,"ĠÏĪÎ®ÏĨ":9310,"ĠÎľÎ±Îº":9311,"Î¸Î®ÎºÎ·ÏĤ":9312,"ĠÎ¼ÏĢÎ¿ÏģÏī":9313,"ÏģÏİÏīÎ½":9314,"ĠÎĳÎĿÎ¤ÎĻÎĵ":9315,"ĠÎµÏħÎ»Î¿":9316,"ĠÎ´ÎµÏĥÏĢ":9317,"ĠÏĢÏģÏİÏĦÎ¿Î½":9318,"ÏįÎ½Î·ÏĤ":9319,"ĠÎ³Î¹ÎŃ":9320,"ĠÎ¸ÎµÏĮÏĤ":9321,"ĠÎµÎºÎ±ÏĦÏĮÎ½":9322,"ĠÎ¼ÎµÏĦÎ±Î²Î¿Î»Î®":9323,"ÎµÎ´ÏģÎ¿":9324,"ĠÎļÎ¬Î¼Îµ":9325,"ĠÏĦÎ¶ÎµÎ¯Î½Î¿Î¹":9326,"Î¾Î¹Î¼Î¿":9327,"ĠÏĩÎ±ÏģÎ¿ÏįÎ¼ÎµÎ½Î·":9328,"ĠÎŃÎ²Î±Î»Îµ":9329,"ĠÏĦÎŃÏĦÎ¿Î¹":9330,"ÎĪÎº":9331,"ĠÏĩÎ¬ÏĥÎµÎ¹":9332,"ĠÎºÎ¿Î¹Î½ÏĮ":9333,"ĠÎºÏģÎµÎ¼Î¼Î¬":9334,"ĠÎ±Î½ÏĦÎ¯ÏĥÏĦÎ¿Î¹":9335,"ĠÎ¼Î±Î½ÏĦÎ¬":9336,"ĠÎ´ÎµÎ¹Î½":9337,"ĠÎ»ÎµÎ·Î»Î±":9338,"Î¸ÏħÎ¼Î¿ÏįÎ¼Î±Î¹":9339,"ĠÎ§ÏģÎ¹ÏĥÏĦÏĮÏĤ":9340,"Ġ40":9341,"ĠÎ²Î¿ÏħÏģ":9342,"ÎłÎ±ÏĢÎ¬ÏĤ":9343,"ĠÎºÎ±ÏĦÎµÎ²Î±":9344,"ÎĮÏĩÎ¹":9345,"ĠÏĢÎ±ÏĢÎ±ÏĤ":9346,"ĠÎĿÎµÎ¿ÏĨÏįÏĦÎ¿Ïħ":9347,"ĠÏĥÏĦÏģÎ¿ÏĨ":9348,"ĠÎ±ÏĢÎ¿Î´ÎµÎ¹":9349,"Ġ2008":9350,"ĠÏĨÎºÎ¬Î»ÎµÎ¹":9351,"ĠÎ´Î¹ÎºÎ±Î¹Î¿Î»Î¿Î³":9352,"ĠÎ³ÏħÏģÏĮÎ½":9353,"ĠÏĥÎ¬ÏĥÏī":9354,"ÎĬÎ´ÏģÏħÎ¼Î±":9355,"ĠÏĥÏħÎ³Î½ÏİÎ¼Î·":9356,"ĠÏĩÏīÏģÎ¹Î¿Ïį":9357,"Î¹Î¹Î¹Î¹":9358,"ĠÎľÎŃÏĥÎ·":9359,"Î¬Î½Î´ÏģÎµÎ¹Î±":9360,"ĠÎ³Î¯Î½Î¿Î½ÏĦÎ±Î¹":9361,"ĠÏĢÎµÎ¸Î¬Î½Ïī":9362,"ÎĳÎ¡ÎĻÎ£Î¤ÎŁÎ¤ÎķÎĽÎĹÎ£":9363,"ĠÎĴÎ±ÏĥÎ¹Î»ÎµÎ¯Î¿Ïħ":9364,"ĠÏĢÏĮÎ»ÎµÎ¼Î¿ÏĤ":9365,"ĠÎĳÎ½ÏĦÎ¹Î³":9366,"ĠÏĥÏħÎ¼ÏĨÏīÎ½Î¯Î±":9367,"ĠÏĥÎ²Î®ÏĥÎµÎ¹":9368,"ĠÎºÏħÎ²ÎµÏģÎ½Î·":9369,"ĠÏĥÏĦÎŃÎºÎµÎ¹":9370,"ĠÎĶÎ©Î¡ÎŁÎĺÎķÎĳ":9371,"ÏĦÎ·ÏģÎµÎ¯":9372,"ĠÎ±Î¼ÏĨÎ¹Ïĥ":9373,"ĠÎµÎ»Î±Î»Î¿ÏįÏĥÎ±Î½":9374,"ĠÏĢÎµÏģÎ¹ÏĢÏĦÏİÏĥÎµÎ¹ÏĤ":9375,"Î¶ÏīÎ³ÏģÎ¬ÏĨÎ¿Ïħ":9376,"ĠÎĽÎµÏħÏĦÎŃÏģÎ·ÏĤ":9377,"ĠÎµÏĢÎ¹ÏĥÎºÎŃÏĢ":9378,"ĠÏħÏĢÎ®ÏģÏĩÎµ":9379,"ĠÏĨÎ¬ÎºÎµÎ»Î¿":9380,"ĠÎ´Î·Î¼ÏĮÏĥÎ¹Î¿":9381,"Î»ÎŃÎ¼Î±ÏĩÎ¿ÏĤ":9382,"ĠÎµÎ³ÎµÎ½Î½Î®":9383,"ĠÏĢÏģÎ¿ÎºÎµÎ¹Î¼ÎŃÎ½Î¿Ïħ":9384,"ĠÎ¼Î¬Î³Î¿ÏħÎ»Î¿":9385,"ĠÏĪÏħÎ³ÎµÎ¯Î¿":9386,"ĠÎ¼Î¿ÏĦÎ¿ÏĥÎ¹ÎºÎ»ÎŃ":9387,"ry":9388,"ts":9389,"Ġit":9390,"ÏĦÏĦÎ¬":9391,"Î½Î½Î±Î¹":9392,"ĠÏĦÎ±Î½":9393,"ĠÏĦÎ®ÏĤ":9394,"Î·ÏĨ":9395,"ÏĢÏĢÎ¿Ïħ":9396,"ĠÏĢÎ»Îµ":9397,"ĠÏĢÏĦÏİ":9398,"ĠÏĢÏĦÏīÏĩ":9399,"ÏīÎ¼ÎŃÎ½Î¿":9400,"ĠÎºÎŃ":9401,"ĠÎµÎ´Î¹":9402,"Î³Î·ÏĤ":9403,"Î±Î½ÏİÏĤ":9404,"Î´ÎµÎ¹Î±":9405,"ÏİÏģÎ¿Ïħ":9406,"ÏİÏĥÎ¿ÏħÎ¼Îµ":9407,"ÏĨÎ¹Î½":9408,"ÎķÎ¹":9409,"ÎķÏĢÎµÎ¹":9410,"ĠÎ³ÏģÏĮÎ½Î¹Î±":9411,"ĠÎķÏĢÎŃ":9412,"ĠÎŃÎ¸ÎµÎ»Î±":9413,"Î²Î¿ÏħÎ½":9414,"Î²ÏģÎµ":9415,"Î¼Î±ÏģÏĦ":9416,"ĠÎ¼ÎµÎ·":9417,"ÏĦÎ¹ÎŃÏĤ":9418,"ĠÎļÎ¡ÎĻÎ£Î¤ÎĹÎ£":9419,"ĠÎļÏįÏĢÏģÎ¹Î¿ÏĤ":9420,"ĠÎļÎµÏĩÎ±Î³Î¹ÏĮÎ³Î»Î¿Ïħ":9421,"ĠÎľÎŁÎ¥":9422,"ĠÎłÎĻÎ£":9423,"Î¾Î¿Ïħ":9424,"ĠÎ¤ÏīÏģÎ±":9425,"ĠÏĮÏģ":9426,"ĠÏĩÎµÏģÎ¹":9427,"ĠÎ²ÏĮ":9428,"ĠÎ¬Î»Î¿Î³Î¿":9429,"ÏİÎ½Î¿ÏħÎ¼Îµ":9430,"ÎłÎ¿":9431,"ĠÎµÏĢÏģÎ¿":9432,"ĠÎµÏĢÎµÏģÎ¬":9433,"ĠÎµÏĢÎµÏģÎ¯":9434,"Î¿ÏĥÏĩÎŃ":9435,"ĠÎ±ÏĢÏĮÏĢÎµÎ¹":9436,"ĠÎ±ÏĢÏĮÏĪÎµ":9437,"ĠÎĿÎ¹ÏĥÎ®":9438,"Î»Î·ÏĥÎ·":9439,"ĠÎ¾Î¬":9440,"ĠÎĽÎĻÎ¤Î£Îĳ":9441,"ĠÎ¼Î±ÏģÏĦÏħ":9442,"ĠÎ·Î³Îµ":9443,"ÏģÎ³Î¿Ïħ":9444,"ĠÏĢÎ¬Î¸ÎµÎ¹":9445,"ĠÏħÏĪ":9446,"Î¿ÏĢÎ¿Î»":9447,"ĠÎ±Î³Î¹":9448,"ĠÎ¶Î®ÏĥÏī":9449,"Î¸Î·ÏĥÎ·":9450,"ĠÎ¹ÏĢÏĢÏĮ":9451,"ÎºÎ¬Î¸ÎµÏĦÎ±Î¹":9452,"ĠÏĥÏħÎ½ÎŃÏĩ":9453,"ĠÎĪÎºÎ±Î¼Î±":9454,"Î¿ÏĩÎ®Î½":9455,"ÎĿÎĳÎ£":9456,"Î´Î±ÏĨÎ¿ÏĤ":9457,"Î´Î±Î¼Î¬Î½":9458,"ĠÎ±Î½Î±ÎºÎ¿Î¹":9459,"ĠÎ±Î½Î±ÏĨÎ¿ÏģÎ¬":9460,"ĠÎµÏĥÎ¬ÏĤ":9461,"ĠÎĻÏĦÎ±":9462,"ĠÎ±ÏħÏĦÏİÎ½":9463,"ĠÎºÎ±ÏĦÎ±ÏĥÏĦÏģÎ¿ÏĨÎ®":9464,"ĠÏħÏĢÎ¿Î»Î¿Î³":9465,"ĠÏĢÏģÎ¿ÏĥÎµÏħÏĩ":9466,"ĠÎ±Î»Î»Î¬Î¶ÎµÎ¹":9467,"ĠÎµÏĢÎ¹ÏĥÏĦÏģÎ¿ÏĨÎ®":9468,"ĠÎĳÎĿÎ¤ÎĸÎŁÎ¥ÎĽ":9469,"ÎºÎ±Î»Î¬":9470,"ÎµÏĩÎµ":9471,"ÎŃÏĨÎ±Î»":9472,"ÎºÎ±Î½Îµ":9473,"ĠÎºÎ±ÏĦÎ¬Î»Î»Î·":9474,"ÏģÎ¹ÏĥÎ¼ÎŃÎ½Î±":9475,"Î³ÏģÎ±ÏĨÎŃÏĤ":9476,"ĠÏĢÎ»Î±Î½":9477,"ĠÎŃÎºÎ±Î½Î±":9478,"ĠÎ¿Î¹ÎºÎ¿Î´":9479,"ĠÎºÎ±ÏģÏĨ":9480,"ĠÎ±ÏģÎºÎ®Î½":9481,"Î³Î¹Î±ÏĦÎ¯":9482,"ĠÏĦÎŃÏĦÎ±Ïģ":9483,"ÎĪÎ½Î±":9484,"ĠÎµÎ²ÏģÏī":9485,"ĠÎ½Î¿Î¼Î¯Î¶ÎµÎ¹":9486,"ĠÎ´ÎµÎ¯ÏĦÎµ":9487,"ĠÎĳÏĢÎ±Î½Î±Î³Î¹Î¬":9488,"Ġ187":9489,"Î³Î¹Î¿Î½":9490,"ĠÏĢÎ¿Î½Î·":9491,"ĠÎµÏĢÎµÎ¹ÏĥÏĮÎ´Î¹Î¿":9492,"ĠÏĨÎ¹Î»Î¿Î»Î¿Î³Î¯Î±":9493,"ÏĦÏģÎ¿ÏĢÎ®ÏĤ":9494,"1963":9495,"ÏĢÎ¿Î»Î¯":9496,"ĠÎµÏģÎ³Î¬ÏĥÏĦÎ·ÎºÎµ":9497,"ÎĮÏĦÎ±Î½":9498,"ĠÎ±ÏĢÎ±Î½ÏĦÎ®ÏĥÎµÎ¹":9499,"ĠÎµÏģÏīÏĦÎ®ÏĥÎµÎ¹ÏĤ":9500,"oul":9501,"ous":9502,"ĠÏĥÏįÎ½ÏĦÎ¿Î¼Î±":9503,"ÏĦÎµÎ»Î®ÏĤ":9504,"ĠÎµÎºÎºÎ»Î·ÏĥÎ¹Î±":9505,"ĠÎ¸ÏħÎ¼Î¬ÏĥÎ±Î¹":9506,"1988":9507,"ĠÏĢÎŃÏģÎ±ÏĥÎµ":9508,"ĠÎµÏĥÎºÏĮÏĦÏī":9509,"ĠÎ¸Î¬Î»Î±ÏĥÏĥÎ±ÏĤ":9510,"ĠÎŃÏģÎºÎ¿ÏħÎ½ÏĦÎ±Î¹":9511,"ĠÎ±Î¹ÏİÎ½Î±ÏĤ":9512,"Ġ2001":9513,"1955":9514,"Î²Î¹Î²Î¬":9515,"ĠÎŃÎ»ÎµÎ³Ïĩ":9516,"ĠÎŃÎ»ÎµÎ³Îµ":9517,"ÏĥÏħÎ½ÎµÏĩ":9518,"ĠÎµÎ¹Î´Î¿ÏĢÎ¿Î¹":9519,"ĠÎ´ÏģÎ±ÏĥÏĦÎ·ÏģÎ¹":9520,"Î¸Î¹Î½ÏĮ":9521,"ĠÏĦÎ¶Î±Î¼Î±Î¹":9522,"ÎĻÎĿÎ¤Î£":9523,"ĠÎ¦Î¹Î»Î¹":9524,"ÎĶÎ·Î¼Î¿ÎºÏģÎ±ÏĦÎ¯Î±ÏĤ":9525,"Î¼ÎµÏĦÎ±Î»Î»":9526,"ĠÏĥÏĦÏģÎ¬ÏĦÎ±Î½":9527,"ĠÎĳÎ³Î±ÏĢÏİ":9528,"ĠÎĵÎ¹ÏīÏģÎ³Î¿ÏĤ":9529,"ĠÎ£ÎļÎĹÎĿÎĹÎ£":9530,"ĠÎŃÏĨÏħÎ³Îµ":9531,"ĠÎľÎµÏĦÏĦÎ®ÏĤ":9532,"ĠÎºÎºÎµÎ»Î»ÎŃÎ½":9533,"ĠÎŃÏģÏĩÎ¿Î½ÏĦÎ±Î¹":9534,"ĠÏĢÎ¿ÏħÎºÎ¬Î¼Î¹Ïĥ":9535,"Î´ÏģÏįÎµÏĦÎ±Î¹":9536,"ĠÏĥÏĢÏģÏİÏĩÎ½ÎµÎ¹":9537,"ĠÎ£ÏĩÎ¿Î»Î®":9538,"Î¿Î´ÏģÏĮÎ¼Î¹Î¿":9539,"Î£ÎłÎĻÎ¤ÎĻ":9540,"ĠÎľÎĻÎļÎ¡ÎĹ":9541,"ĠÎ£ÏĢÎ¿ÏħÎ´ÏİÎ½":9542,"ĠÎ±ÏĢÎ¿Î¼Î±ÎºÏģÏįÎ½ÎµÏĦÎ±Î¹":9543,"ĠÎ¤ÏĥÎµÏģÎºÎµ":9544,"ĠÎ´Î¹Î®Î³Î·Î¼Î±":9545,"ĠÎķÏħÎµÎ»Î¸ÏīÎ½":9546,"ĠÎłÎ·Î½ÎµÎ»ÏĮÏĢÎ·":9547,"ĠÎĳÎĿÎ¤ÎĸÎŁÎ¥ÎĽÎĹ":9548,"02":9549,"88":9550,"ile":9551,"ub":9552,"Ġ=":9553,"Î±Î¿ÏįÏĨ":9554,"Î½Î¿Î½":9555,"Î»ÏĮÎ½":9556,"Î¼Î½Î·":9557,"Î¼Î½Îµ":9558,"ĠÎ¼ÎŃÎ»Î¿ÏĤ":9559,"Î³Î¼ÎŃÏĤ":9560,"ĠÎ½ÏĦ":9561,"Î±Î½ÏĮÏĤ":9562,"ÏĩÏĦÎ·ÎºÎµ":9563,"ÏĨÎºÎµÎ¹":9564,"ÏĨÏīÏĥÎ·":9565,"ĠÎ´Î¬Î½ÎµÎ¹":9566,"ĠÎ³Î»Î¹":9567,"ĠÎķÎµÎµ":9568,"ĠÎŃÏĦÏģÎµ":9569,"ĠÎĳÎ³Î³ÎµÎ»":9570,"ĠÎ¼ÎµÏĦ":9571,"ÏĦÎ¿ÏĦÎµ":9572,"ÏģÎ¹ÏİÎ½":9573,"ĠÎļÏģÎ¹":9574,"ĠÎļÏģÎ®":9575,"ĠÎļÎ¿ÏįÎ»Î»Î±":9576,"ĠÎļÏİÏĥÏĦÎ±":9577,"ĠÎľÏĢÏģÎ¿ÏĥÏĦÎ¬":9578,"ĠÎłÏį":9579,"ĠÎµÎ½ÏĦÎ¿ÏĢ":9580,"ĠÎ¤Î¶ÎµÎ¹":9581,"Î¯Î½ÏīÎ½":9582,"ĠÏĨÎ»Î¹":9583,"ĠÏĨÎ¿ÏħÏĥ":9584,"ĠÏĨÏİÏĦÎ±":9585,"ĠÎ¸ÏģÎ®Î½":9586,"ĠÎ£ÏĢÎ±Î½":9587,"ĠÎ£Î¯Î¿ÏħÏģÎ±":9588,"ÏģÎ¬Î¼Î¼Î±ÏĦÎ±":9589,"ÎļÎ©Î£":9590,"ĠÏĩÏģÎŃ":9591,"ĠÎ»ÏħÎ³":9592,"ÏĥÏĦÎ¿Ïį":9593,"ĠÎºÎ±Î²Î±":9594,"ÏĥÎ¹Î¼Î·":9595,"ÏģÎ¯ÏĥÎ¿ÏħÎ½":9596,"ĠÎĵÏħÏģ":9597,"ÎĵÏħ":9598,"ĠÎºÎ¬Î¼ÎµÏģÎ±":9599,"ÏİÎ½Î¿Î½ÏĦÎ±ÏĤ":9600,"ĠÏĥÎ¿ÏħÎ·":9601,"ĠÎµÏĢÎµÏģ":9602,"ĠÎĿÎ¹":9603,"ÎľÏĢ":9604,"ÎľÎ¹Î±":9605,"ÎľÎ¹Îº":9606,"ÎľÎĳÎĽÎĻÎĳ":9607,"ĠÎ®Î»":9608,"Î»Î·ÏĦÎ¹ÎºÎ¬":9609,"ÎµÎ»Î¿ÏĤ":9610,"ĠÎķÎ½Î¹":9611,"ĠÎ¸Î±Ïģ":9612,"ĠÏĢÎ¿ÏĦÏĮ":9613,"ĠÎ·Î»Î¯":9614,"Î»ÎµÎ¼Î¿":9615,"Î¤ÎŁÎľÎŁÎ£":9616,"ĠÎµÎºÏĮ":9617,"ĠÎ±Î³ÎŃÏģÎ±":9618,"ÏĦÎ®ÏĦÏīÎ½":9619,"ĠÎ¼Î¬ÏĢÏĢÎ±":9620,"Î¸ÎµÏĦÎ±":9621,"ÎºÎ¬ÏĦÎ¹":9622,"ĠÎĪÏĥ":9623,"ĠÎĪÎºÎ±":9624,"ĠÎŃÏĩÎ¿Î½ÏĦÎ±ÏĤ":9625,"ĠÎ´Î¹Î±Î»ÎµÎº":9626,"Î¼ÎŃÏĦ":9627,"ĠÎµÎ¾Î¹":9628,"ÎĳÎĽÎķÎŀ":9629,"Î»Î®ÏĥÏī":9630,"ĠÏĢÎ±ÏģÎ±ÏĦÎ·":9631,"ĠÏĢÎ±ÏģÎ±ÎºÎ¬ÏĦÏī":9632,"ĠÎ±Î½Î±ÏĢÎ½":9633,"ĠÎ±Î½Î±ÏĦÎ¿Î»":9634,"ĠÎ±Î½Î±Î»Ïį":9635,"ÎķÎ¥ÎĵÎķÎĻ":9636,"ĠÏĪÎ®":9637,"ĠÎµÏĢÎ¹ÏĦÏģ":9638,"ÏĢÎ¿Î¹Î·ÏĦÎ®":9639,"Î´Î·Î»Î±":9640,"ÎŁÎĿÎĹ":9641,"ĠÎļÎ±ÏĦ":9642,"ĠÎ±ÏħÎ»Î®Î½":9643,"ĠÎºÎ±Î¸Î¿Î»":9644,"Î¼Î²Î¬Î½ÎµÎ¹":9645,"ĠÎ±Î½Î¬Î»Î¿Î³Î±":9646,"ĠÏĥÎ¹ÎŃÏģÎ¹":9647,"ĠÏĥÎ¹Î´ÎµÏģ":9648,"ĠÎ±ÏģÏĨÎ·":9649,"ĠÎīÎ¼Î¿ÏħÎ½":9650,"ĠÎ¾ÎŃÏģÎµÏĦÎµ":9651,"ĠÎ¼ÎµÎ³Î¬Î»Î¿Î¹":9652,"ĠÎºÎ±Î¼Î¯Î±":9653,"ĠÎµÏĢÎ®Îµ":9654,"ĠÎ¬Î»Î»Î¿ÏĦÎµ":9655,"ĠÎºÎ¿ÏģÎ·":9656,"ĠThe":9657,"ĠÎ´ÎµÎ¯Î¾Ïī":9658,"ĠÎĳÏĢÏģÎ¹Î»Î¯Î¿Ïħ":9659,"ĠÎ¼Î¹ÎºÏģÏĮÏĤ":9660,"Î¿Î³ÏģÎ±ÏĨÎ¯Î±ÏĤ":9661,"ĠÏĢÎ»Î¬Î¹":9662,"ĠÎ²ÏģÎ¯ÏĥÎºÏī":9663,"ĠÎ±Î¹ÏİÎ½":9664,"ĠÎŃÏĥÏĥÎ¹ÎµÎ¹":9665,"ÎĻÎļÎŁÎĽÎĳÎ£":9666,"ĠÎ»ÎµÎ³":9667,"Î´ÏħÏĥÎ·":9668,"Ġ56":9669,"ĠÏĥÏĩÎŃÎ´Î¹Î±":9670,"ĠÎ¼ÏħÏĥÏĦÎ¹ÎºÏĮ":9671,"ĠÎ§ÏģÎ¹ÏĥÏĦÏĮ":9672,"ĠÎĨÎ½Î¿Î¹":9673,"ÏĢÎ¿Î»ÎµÎ¼":9674,"ÏĢÏīÏģÎ¿":9675,"ĠÏĢÎŃÏĥÎµÎ¹":9676,"ĠÎºÎ»ÎµÎ¯ÏĥÎµÎ¹":9677,"Ġsh":9678,"ĠÏĥÏĨÎ¹Ïĩ":9679,"ĠÎµÏģÏīÏĦÎ¹ÎºÎ¬":9680,"ÏĥÏĦÎµÎ½Î¬Î¶ÎµÎ¹":9681,"ĠÎ¿ÏĢÎ¿Î¯Î¿Î½":9682,"ÏģÏĩÎµÏĦÎ±Î¹Î¿":9683,"ÏĥÎ¿ÏħÏĥÎ¹Î½":9684,"ĠÏĦÎµÎ»ÎµÎ¹ÏİÎ½ÎµÎ¹":9685,"ĠÎľÎ±ÏģÏĦÎ¯Î¿Ïħ":9686,"ĠÎµÎºÎºÎ»Î·ÏĥÎ¹Î¬":9687,"ĠÎµÎºÎºÎ»Î·ÏĥÎ¯Î±ÏĤ":9688,"1984":9689,"ĠÏĩÏīÏģÎºÏĮ":9690,"ĠÏĥÎ¿ÎºÎ±":9691,"Ġ2009":9692,"1959":9693,"ĠÎ´Î·Î»Î·":9694,"ĠÎµÎ¾Î±ÏĨÎ±Î½":9695,"ÎµÎ³Ïİ":9696,"ĠÎĵÎ¹Î±Î½Î½Î¬":9697,"ÎµÏħÎ¸ÎŃÏģÏī":9698,"ĠÎ¾ÎŃÎ½Î¿ÏħÏĤ":9699,"ĠÎ§Î©Î¡ÎŁ":9700,"ĠÎ±Î¹ÏĥÎ¸Î¬Î½":9701,"ÏĥÏįÎ»Î»Î±":9702,"ĠÎ¸Î¬Î½Î±ÏĦÎ¿ÏĤ":9703,"ĠÏĢÏģÎ¿ÏĥÏīÏĢÎ¹ÎºÎ¬":9704,"ĠÏħÏĢÎ¿ÏħÏģÎ³ÏĮÏĤ":9705,"ĠÎ³Î¯Î½ÎµÎ¹ÏĤ":9706,"ĠÎºÎ¬ÏĦÏĥÎµÎ¹":9707,"ĠÎ¿Î´Î·Î³Î¯ÎµÏĤ":9708,"ĠÎļÏħÏģÎ¯Î±":9709,"ĠÎ¼Î¿ÏįÏĦÏģÎ±":9710,"ĠÎ´Î¹Î¿ÏĦÎ¹":9711,"ĠÎ´Î¹Î¿Î¹ÎºÎ·":9712,"ÏĥÏĦÏħÏĩÏİÏĤ":9713,"ĠÎŃÎºÎ±Î¼Î½Îµ":9714,"Î¿Î¼Î¹Î»Î¬ÏĤ":9715,"ĠÏĢÎµÎ»Î»Î¬ÏģÎ±":9716,"ĠÎ²Î¬Î»Î»Ïī":9717,"ĠÎ¿Î»ÏĮÎºÎ»Î·ÏģÎ·":9718,"ĠÏĨÏĦÎ¹Î¬ÏĩÎ½ÎµÎ¹":9719,"ĠÎŃÏĢÎ±Î¸ÎµÏĤ":9720,"ĠÎºÎµÎ½ÏĮ":9721,"ĠÎ£Î¬Î²Î²Î±ÏĦÎ¿":9722,"ĠÎµÏħÏĩÎ±ÏģÎ¹ÏĥÏĦ":9723,"ĠÎľÎķÎ¡ÎŁÎłÎĹ":9724,"ÏĢÏģÏĮÎµÎ´ÏģÎ¿ÏĤ":9725,"ĠÎ±Î½Î¿Î¹ÏĩÏĦÏĮ":9726,"ĠÎĽÎķÎ¥Î¤ÎķÎ¡ÎĹÎ£":9727,"ĠÎĳÎ¡ÎĻÎ£Î¤ÎŁÎĿÎĻÎļÎĹ":9728,"ĠÎļÏīÏĥÏĦÎ±Î½":9729,"ĠÎ´Î¹Î±ÎºÏĮÏĢÏĦÎµÎ¹":9730,"ĠÎ¸ÏģÎ·ÏĥÎºÎµÏħ":9731,"ĠÏĨÏħÎ»Î±ÎºÎ®":9732,"ĠÎĳÎĺÎĹÎĿÎĳ":9733,"ĠÎ´Î¹Î¬Î»ÎµÎºÏĦÎ¿":9734,"ĠÎ¦Î±Î½Î¿ÏħÏģÎ¯Î±":9735,"KÎ±":9736,"qu":9737,"Î±ÎºÎ¿Ïħ":9738,"ÏĦÏįÏĩ":9739,"Î¹Î¶Ïī":9740,"Î¹Î¶Îµ":9741,"Î·ÏĦÎ®ÏĤ":9742,"Î»Î¿ÏįÎ½":9743,"Î»Î¿ÏįÏĤ":9744,"Î¯Î½Î±ÏĤ":9745,"Î¼Î½ÎµÎ¹":9746,"ÎºÎºÎ¿Ïħ":9747,"ÏīÏģÎ¿":9748,"ĠÎºÎµÏģÎ±":9749,"ĠÏĥÏĨÏħ":9750,"ĠÎµÎ¹Îº":9751,"ĠÎµÏĥÎ·ÎºÏİ":9752,"ÎŁÎ¡Î§ÎĳÎĿ":9753,"Î£Î¥ÎĿ":9754,"ÎĻÎŁÎ¥ÎĽÎĻÎĳ":9755,"Î¡ÎŁÎ¥":9756,"ÏģÎ±Î¼Î¼Î¬ÏĦÏīÎ½":9757,"ĠÏĦÎ¿ÏħÏĦÎ·":9758,"ĠÎ³ÏįÏģÎ¹":9759,"ĠÎ³ÎŃÎ½ÎµÎ¹":9760,"ĠÎķÎ¯Î´":9761,"ĠÎķÎ´Ïī":9762,"ĠÎķÎ¹Î»Î¹Îº":9763,"ĠÎŃÏĢÎµÎ¹ÏĦÎ±":9764,"Î²Î¿Î½":9765,"Î¼Î±ÏĦÎ¹ÎºÏĮ":9766,"ĠÎĳÎ²":9767,"ĠÎļÎ¿ÏĢ":9768,"ĠÎļÎŁÎ¥ÎĽÎĽÎĹÎ£":9769,"ĠÎłÎ¯ÏĥÏī":9770,"ĠÏĨÎµÏħ":9771,"ĠÏĨÎºÎµÎ¹":9772,"ĠÎ±ÏĢÎ¯":9773,"ĠÎ±ÏĢÎ¿Î»":9774,"ĠÎ£Î¬ÎºÎ·ÏĤ":9775,"ÏĥÏĦÏģÎ±ÏĨ":9776,"Î¬Î½Î¿ÏħÎ½":9777,"ÏĮÎ½ÏĦÎ·ÏĤ":9778,"ĠÏĢÎ±ÏĦÎ¬":9779,"ĠÏĢÎ±Î³Îº":9780,"ÎŃÏģÎ·ÏĤ":9781,"ĠÎ¬Î½Î±":9782,"ÎłÎ¿Î¯Î·ÏĥÎ·":9783,"ÎłÎ¹ÎµÏģÎ¯Î´Î·ÏĤ":9784,"ĠÎ±ÏĢÏĮÏĥÏĦÎ±ÏĥÎ·":9785,"Î¼ÎŃÎ½Ïī":9786,"ÏĢÎ¿Î´Î±":9787,"Î¹ÏĥÏĦÎ¿":9788,"Î¹ÏĥÎ¼ÎŃÎ½ÎµÏĤ":9789,"ĠÎĶÏį":9790,"ĠÎķÎ½Î¿":9791,"Î§ÎķÎĻ":9792,"ÏĪÎ·Î½":9793,"ÏģÎºÎŃÏĥÎ±Î¹":9794,"ĠÎľÎķÎ£Îĳ":9795,"ÏģÎ·ÏĥÎ·ÏĤ":9796,"ĠÎ´ÎµÎ½ÏĦÏģ":9797,"ĠÎµÎºÎ±Î½":9798,"ÏģÏĩÎ¿ÏĤ":9799,"ĠÎ±Î³ÏĮÏģÎ¹":9800,"ÏĦÎ¶Î®ÏĤ":9801,"ÏĦÎ¶Î±Î¯":9802,"ĠÏĥÏħÎ½Î´Îµ":9803,"ĠÏĥÏħÎ½Î¬Î½ÏĦÎ·ÏĥÎ·":9804,"ĠÏĥÏħÎ½Î±Î¹Ïĥ":9805,"ÎĳÎ¡ÎĻÎĳ":9806,"Î¿ÏĩÎ·":9807,"ĠÎ´Î¹Î±ÎºÎ¿ÏĢ":9808,"Î»Î®ÏĥÎµÎ¹ÏĤ":9809,"Î¯Î¶Î±":9810,"Î¯Î¶ÎµÏĦÎµ":9811,".../":9812,"ĠÎºÎ¿Î¹Î½Î®":9813,"ĠÎ±ÏĨÎ®ÏĥÎµÎ¹":9814,"ĠÏĢÏģÎ¿ÏĥÏĨÎŃÏģÎµÎ¹":9815,"ĠÎ±Î»Î»Î¬Î·":9816,"ĠÎµÏĢÎ¹Î»Î¿Î³ÎŃÏĤ":9817,"ÏħÎ¼Î¿":9818,"ĠÎĮÏĥÎ¿Î½":9819,"ÏĦÎµÏģÎ½":9820,"Î¹ÏīÎ¬Î½Î½Î¿Ïħ":9821,"ĠÎµÏĨÎ±Ïģ":9822,"Î¬Î¶Î¿Î½ÏĦÎ±ÏĤ":9823,"ĠÎ¿ÏĢÎ¿Î¯Î¿Ïħ":9824,"ÏģÎ¿ÏħÏĥ":9825,"ĠÏĢÎ±Î½ÎµÏĢÎ¹":9826,"ÏĦÎ¿ÏįÎ¹Î½":9827,"ĠÎºÎ¿Î¹ÏĦÎ¬Î¶Î¿Î½ÏĦÎ±Î¹":9828,"ĠÏĢÎ¯Î½Î±":9829,"ÏĦÎµÎ¯ÏĩÎµ":9830,"ĠÎ¸ÎµÎ±":9831,"ĠÎļÎ¬ÏĢÎ¿Î¹":9832,"ĠÎºÎ¬ÏĢÎ¿Î¹Î¿Ïħ":9833,"ĠÎºÎ¬ÏĢÎ¿Î¹Î±Î½":9834,"ĠÏĥÏħÎ¼ÏĢÎµ":9835,"Ġ35":9836,"ÏįÏĩÏĦÎ±":9837,"ĠÎŃÏĨÎ±":9838,"ĠÎ»Î¿Î³Î¹ÎºÎ®":9839,"Î¹Î²Î¿Î»":9840,"Î±ÏĨÎ¿Ïį":9841,"ĠÏĥÏįÏĥÏĦÎ·Î¼Î±":9842,"ĠÏĢÎ¹Î¬Ïī":9843,"ÎĪÏĦÏĥÎ¹":9844,"ĠÏĩÎ¬ÏĥÏī":9845,"ĠÏħÏĢÎ¿Î¼Î¿Î½Î®":9846,"ĠÎ¤Î¿ÏįÏĦÎ±":9847,"Î¿ÏĪÎµ":9848,"ĠÎ»Î¯Î³Î·":9849,"ĠÎ±Î½ÏĦÎ¯Î´ÏģÎ±ÏĥÎ·":9850,"ĠÏĢÎ¹ÏĥÏĦÎµÏħ":9851,"ĠÏĢÎ¹ÏĥÏĦÎµÏĨ":9852,"Î¹ÏĥÎ¼Î¿Î¯":9853,"Ġ500":9854,"Î¼Î½ÎµÏĤ":9855,"Î³Î³ÎµÎ»Î¯Î±":9856,"ĠÏĢÎ»Î±ÏĦÎµÎ¯Î±":9857,"ĠÎ½ÎŃÎµÏĤ":9858,"ĠÏĥÏĨÎ¯Î³Î³ÎµÎ¹":9859,"ĠÏĢÎ±ÏģÎ±Î¹":9860,"ess":9861,"our":9862,"ĠÎ½Î¹ÏİÎ¸ÎµÎ¹ÏĤ":9863,"ĠÎĶÎ¹Î·Î³Î®Î¼Î±ÏĦÎ±":9864,"Ġfrom":9865,"ĠÎ¼Î¹Î»Î¬ÎµÎ¹":9866,"ĠÎ£ÏħÎ»Î»Î¿Î³Î®":9867,"ĠÎµÏĥÎºÎ¿":9868,"ĠÎ³Î»ÏħÎºÎ¬":9869,"ĠÎºÎ»Î¬Î¼Î±":9870,"ÏĦÎ¿Î»ÏĮÎ³":9871,"Ġ1950":9872,"ĠÎ´Î¹Î±ÏĨÎ¿ÏģÎ¬":9873,"1956":9874,"ĠÏĦÏģÎ±Î³Î¿ÏħÎ´":9875,"ĠÎłÎ±ÏģÎ±ÎºÎ±Î»Ïİ":9876,"ÎºÏģÎ¹ÏĥÎ·":9877,"ĠÎ¿ÏħÏģÎ±Î½ÏĮÎ½":9878,"Î±Î½ÏĦÎ¯Î¿":9879,"ĠÎ¸ÎµÏīÏģÏİ":9880,"ĠÎµÏħÏĦÏħÏĩÎ¯Î±":9881,"ĠÎ¾ÎŃÎ½Î¿ÏĤ":9882,"ĠÎ´ÏįÎ½Î±Î¼Î·Î½":9883,"ĠÏĥÎ·Î¼ÎµÎ¹ÏİÏĥÎµÎ¹ÏĤ":9884,"ĠÎµÎ¹Î´Î¹ÎºÎ¬":9885,"ĠÎ»Î¿Î±ÏģÎºÎ±":9886,"ĠÎµÎ¼ÏĢÎ¿ÏģÎ¿ÏįÏĥÎµÎ½":9887,"ĠÎ¼ÏħÎ¸Î¹ÏĥÏĦÏĮÏģÎ·Î¼Î±":9888,"ĠÎ±ÎŃÏģÎ±ÏĤ":9889,"ĠÏĦÏģÏħÏĨÎµÏģ":9890,"ĠÎĳÎ¥Î¤":9891,"ĠÎ¦ÏģÎ¿ÏĥÎ±":9892,"ĠÏĦÏģÎ±ÏĢÎµÎ¶Î¬ÎºÎ¹":9893,"ĠÎĺÎµÏĮÎ´ÏīÏģÎ¿ÏĤ":9894,"ĠÎ³Î±Î»Î¬Î¶":9895,"ĠÎĵÎ¹ÏīÏģÎ³Î¿":9896,"ĠÎºÏįÎºÎ»Î¿ÏĤ":9897,"ĠÎµÎ»ÎµÏįÎ¸ÎµÏģ":9898,"ĠÏħÏĢÎ¬Î»Î»Î·":9899,"ĠÎłÎ¿Î»Î¹ÏĦÎ¹ÏĥÏĦÎ¹ÎºÏĮ":9900,"ÏģÏĮÏĦÏĦÎµÏģÎ±":9901,"ĠÎ±Î½ÏĦÎ¬Î¼Î±":9902,"MÎ±ÎºÎ±ÏģÎ¯Î¿Ïħ":9903,"ĠÎ¥ÏĢÎ·ÏģÎµÏĥÎ¯Î±ÏĤ":9904,"ĠKÏħÎºÎ»Î¿ÏĨÎ¿ÏģÎµÎ¯":9905,"ĠÎĿÎµÎ¿ÎµÎ»Î»Î·Î½Î¹ÎºÏİÎ½":9906,"ĠÎļÎµÏģÏįÎ½ÎµÎ¹Î±ÏĤ":9907,"ĠAndre":9908,"ĠÎºÎ±Î¸ÏģÎŃÏĨÏĦÎ·":9909,"ĠÎľÏħÏģÏĥ":9910,"ĠÎºÏĮÎºÎºÎ¹Î½Î¿":9911,"ÎĻÎĽÎĻÎłÎłÎĹÎ£":9912,"ĠÎ¼Î±Î¾Î¹Î»Î¬":9913,"ĠÏĢÎ»ÎµÎ¹Î¿ÏĪÎ·ÏĨÎ¯Î±":9914,"ĠÎĻÏĥÎ¼Î®Î½Î·":9915,"Î¸Î¹Î½ÏĮÏĢÏīÏģÎ¿":9916,"ÎļÎ©Î£ÎĻÎĳ":9917,"ik":9918,"Î¿ÏĦÏģÎ¿ÏĨ":9919,"ÎµÏĢÎ±":9920,"Î·ÏĦÎ¹ÎºÎ®":9921,"Î¯ÎºÎ¿Ïħ":9922,"ÎºÎºÎ¿Ïį":9923,"ĠÏĢÏĦÏħÏĩ":9924,"ÏīÏĦÎ¹ÎºÎ¿Ïį":9925,"ÏĮÏĦÎµÏģÎ¿":9926,"ÎŃÎ¶":9927,"ĠÎµÎ¹ÎºÎ¿Î½":9928,"Î³ÏħÏģ":9929,"Î³Î¼ÎŃÎ½Î·":9930,"ĠÎ±ÏĩÎ±":9931,"Î±Î½Î¸":9932,"Î´Î¹ÎºÎ±":9933,"Î¿ÏįÎ¼Î±ÏĥÏĦÎµ":9934,"ÏĨÎ¬Î½Î¹":9935,"Î¤Î·ÏĤ":9936,"ÎĽÎ¿Ïħ":9937,"ĠÎ³Î®":9938,"ĠÎ³Î¹Î¬":9939,"ÏĦÎ·Î½Î¬":9940,"ĠÎķÎŁÎļÎĳ":9941,"Î²Ïī":9942,"Î¼Î±Ïģ":9943,"Î¼Î±Ïĩ":9944,"Î½Î±ÏĥÎ¹Î½":9945,"ĠÏĢÎ¿ÏħÎ»Î»Î¯Î½":9946,"ĠÎ¼ÎµÏĦÎŃ":9947,"ĠÎ¼ÎµÏģÎ¹Î¬":9948,"ĠÎļÏģÎ¬":9949,"ĠÎļÏģÎ±Î½":9950,"ĠÎłÎ¿Î½":9951,"ĠÎłÎ¹Îµ":9952,"ĠÎ¤ÏģÎŃ":9953,"ĠÎ¸Î±Î»Î±Ïĥ":9954,"ĠÎ±ÏĢÎ¿Î»Î¿Î³":9955,"ĠÏĮÏĢÎ»Î¿":9956,"ÎļÎ¿Î¹":9957,"ĠÏĩÎ¸ÎµÏĤ":9958,"ĠÎ»Î±ÏĤ":9959,"ĠÎºÎ±ÏĦÎ¿Î¹Îº":9960,"ÏĥÎ¹Î¬Î¶Î¿ÏħÎ½":9961,"ĠÎ²Î³Î®":9962,"ĠÏĢÏģÎ¯Î½":9963,"ĠÏĢÎ±Î¯Î¶Î¿ÏħÎ½":9964,"ÏģÎ¯ÏĦÎ·ÏĤ":9965,"ÎĵÎ¹Î¿ÏĤ":9966,"ÎºÎ±Î¸Î±":9967,"ÎŃÏģÎ³ÎµÎ¹":9968,"ÎŃÏģÏĩÎ¿Î½ÏĦÎ±Î¹":9969,"ÎłÎŁÎĻ":9970,"ĠÎµÏĢÎµÎ¸":9971,"ĠÎµÏĢÏģÏĮÏĥ":9972,"ĠÎ¦Î¡ÎŁ":9973,"ÎľÎŁÎ¥":9974,"Î¹ÏĥÎµÏĤ":9975,"Î§Î¡Î¥Î£ÎŁÎ£ÎŁÎ¤ÎľÎŁÎ£":9976,"ĠÎ¸Î±ÏħÎ¼Î±":9977,"ÏģÎºÎµ":9978,"ĠÎ·Î¼Î¯":9979,"ĠÏĢÎ¬ÏĥÎ¹Î½":9980,"Î¼ÏĢÏģÎ±":9981,"ÏģÎ·ÎºÎ±":9982,"Î»Î¬Î²Î±":9983,"ÏĢÎ¿ÏħÎ¼Î±Î¹":9984,"Î»ÎŃÎ±":9985,"ĠÏĦÎ¶Î¹Î±Î¹ÏģÏĮ":9986,"ÏĢÎ¬Î¶ÎµÎ¹":9987,"Î¹ÏİÏĥÎµÎ¹":9988,"ĠÎĴÎŁÎĹ":9989,"ĠÎĪÏĩÎµÎ¹":9990,"ĠÎµÏĥÏĥÏī":9991,"ĠÏĢÏģÎ¿ÏĥÏİ":9992,"ĠÏĢÏģÎ¿ÏĥÎ±Î½Î±ÏĦÎ¿":9993,"ÏĦÏħÎ»Î¹":9994,"ĠÎĨÎ³Î³":9995,"ÏĦÏĥÎ¯Î½":9996,"ÏħÏĢÏĦÎ¿":9997,"ĠÏĥÎ¹ÎµÎ¹":9998,"ÏĩÎ½Î¿Î½ÏĦÎ±ÏĤ":9999,"ĠÎŀÎµÎ½":10000,"ÏĩÎ¹Î»Î»":10001,"ĠÎ²Î±ÏģÎ¹Î¬":10002,"ĠÎķÎ¯Î´Î±":10003,"ĠÎļÎ¬ÏĢÎ¿Î¹Î¿ÏĤ":10004,"ĠÎĺÎµÏĮÎ½":10005,"ĠÏĥÏħÎ¼ÏĢÎ¬":10006,"ĠÎ±Î½ÏĦÎ¹ÏĥÏĦÎ±":10007,"ĠÎ»Î±ÏĮÏĤ":10008,"one":10009,"ĠÎ¹ÏĥÏĦÎ¿ÏģÎ¯Î±ÏĤ":10010,"ĠÏĥÏħÎ³ÎºÎ±Î»":10011,"ĠÎ±ÏĨÎ®ÎºÎµÎ¹ÏĤ":10012,"Ġ1973":10013,"Î³ÏĩÎ¿Î»":10014,"Î´ÏħÎ½Î±":10015,"ĠÎ±Î»Î®Î¸ÎºÎµÎ¹":10016,"ĠÎµÎºÎµÎ¯Î½Î¿Î½":10017,"ĠÎ±ÏħÏĦÎ¿ÎºÎ¹Î½Î®":10018,"ĠÎ²Î¿ÏħÏģÎ·":10019,"ĠÎºÎ»ÎµÎ¹Î´Î¹Î¬":10020,"Î¸ÎºÎ¹ÏİÎ½":10021,"ĠÎķÎ»Î¹ÏĥÎ¬Î²Îµ":10022,"ĠÎ±Î³Î³Î¯Î¶ÎµÎ¹":10023,"ĠÎ£ÏħÎ³Îº":10024,"ĠÎµÎ»Î¬Ïĩ":10025,"Î¤ÎŁÎŁÎ¥ÎĽ":10026,"ĠÎ²Î±Î¸Î¼ÏĮ":10027,"ĠÎµÏĢÎ¹ÏĥÏĦÎ¿Î»Î®":10028,"ĠÎļÎŁÎĻÎ¤Îĳ":10029,"ÏįÏĦÏĦÎµÏģÎ±":10030,"ÏĦÏģÎ¹ÎµÏĤ":10031,"Î´ÏģÎ¿Î¼Î¿":10032,"Î´ÏģÎ¿Î¼ÎŃÏĤ":10033,"ÎļÎ±ÏĦÎµ":10034,"ĠÏĦÏħÏĨ":10035,"ĠÎºÎ»ÎµÎ¯Î½":10036,"ĠÎºÎ±Î¸Î±ÏģÎ¯Î¶ÎµÎ¹":10037,"ÎķÎĿÎ¤ÎŁ":10038,"ĠÏĢÏģÎ¿ÏĥÏīÏĢÎ¹ÎºÏĮ":10039,"ĠÎķÎ»Î»Î·Î½Î¹ÎºÎ®":10040,"ĠÎ²Î±ÏĥÏĦÎ¬":10041,"ĠÎķÎ»Î»Î¬Î´Î±ÏĤ":10042,"ĠÎ¬ÏĨÎ·ÏĥÎµ":10043,"ĠÎºÎ¬Î¼ÏĢÎ¿ÏĤ":10044,"ĠÏĥÎºÎ¬Î»Î±":10045,"ĠÏĢÎµÏģÎ¹Î¿Î´Î¹ÎºÏĮ":10046,"ĠÎ¿Î»ÏĮÎºÎ»Î·ÏģÎ¿":10047,"ĠÎºÎ¬ÏģÎ²Î¿ÏħÎ½Î±":10048,"ĠÏĢÎ½ÎµÏħÎ¼Î±ÏĦÎ¹ÎºÎ®":10049,"ive":10050,"ĠÎ±Î¸Î¸ÏħÎ¼Î¿ÏįÎ¼Î±Î¹":10051,"ĠÎ±ÏĥÏĦÎµÎ¯Î¿":10052,"PROPS":10053,"ĠÏĢÎ·Î³Î±Î¯Î½ÎµÎ¹":10054,"ĠÎĽÎķÎ¥ÎļÎ©Î£ÎĻÎĳ":10055,"ĠÎ¬Î´ÎµÎ¹Î¿":10056,"ĠÏĢÎ±ÏģÎ¬ÏĢÎ¿Î½Î¿":10057,"ĠÎµÎ¾ÎµÎºÎ¯Î½Î·":10058,"ĠÎĳÎļÎŁÎ¥ÎĵÎķÎ¤ÎĳÎĻ":10059,"ĠÏĢÎµÏģÎ®ÏĨÎ±Î½":10060,"ĠÎ¼ÎµÎ»Î±Î³ÏĩÎ¿Î»":10061,"ĠÎ±ÏĨÎ®Î³Î·ÏĥÎ·":10062,"aceboo":10063,"Î²Î¹Î²Î»Î¯Î¿":10064,"ĠÎ±ÏħÏĦÎ±ÏģÏĩ":10065,"ĠÎ¤Î¡ÎĳÎĵÎŁÎ¥ÎĶÎĻ":10066,"ĠÏĥÏħÎ½Î±Î¹ÏĥÎ¸Î®Î¼Î±ÏĦÎ±":10067,"KÎ»Î·":10068,"NÏĦÎµÎ½ÎºÏĦÎ¬ÏĤ":10069,"OÎ£":10070,"Ġhe":10071,"Ġle":10072,"Î±Î´Î¬":10073,"Î½Î®ÏĤ":10074,"ÎµÎ»Î»Î·Î½":10075,"Î¿Ïī":10076,"ÏģÎ¿Ïĩ":10077,"ĠÏĦÏģÏī":10078,"Î¬ÏģÎ¹Î¿":10079,"ÎºÎ·Î½":10080,"ÎºÎ»Î¹":10081,"ĠÏĢÏģÎ¹ÏĩÎ¿Ïį":10082,"ÏīÏĦÎ¹ÎºÎ®":10083,"ĠÎ¼Î±Î»":10084,"ĠÎ¼ÎŃÎ»":10085,"ÏĮÎ¼ÏĢ":10086,"Î±Î¹ÏģÎŃ":10087,"ĠÏĥÏĥ":10088,"ĠÏĥÎ¿Îº":10089,"ĠÏĥÎ¯Î´":10090,"ĠÎµÏĦÎ¶Î¿Î¹":10091,"ĠÎ±Î¼Î®":10092,"Î£Î·":10093,"Î¸ÏħÏģ":10094,"Î¿ÏįÏĥÎ¹":10095,"ÏĨÎ·Î¼":10096,"ÏģÎ±ÏĥÎ·":10097,"Î¤Î©":10098,"ÎĽÎ±Î»":10099,"ĠÎ´Î¯Î½Î¿ÏħÎ½":10100,"ĠÏĦÎ¿Î·":10101,"ÏĦÎ·ÎºÎ±Î½":10102,"ĠÎŃÏģÏĦÎ¿ÏħÎ½":10103,"Î²Î±Î»":10104,"Î²Î»Î±":10105,"Î²Î¿ÏħÎ»ÎµÏħ":10106,"ĠÏĢÎ¿ÏħÎºÎ¬ÏĦÏī":10107,"ÎĿÎķÎ¥Î¡":10108,"ĠÎ¿Î»Î¿":10109,"ĠÎ¿Î´Î¿Î½":10110,"Î¯Î½Î±Î½":10111,"ĠÏĨÏĦÏī":10112,"ĠÏĨÎ¿Î·":10113,"ĠÎ£Î¹Î±":10114,"ÏĥÏĦÎ¿ÏįÎ¼Îµ":10115,"ĠÎºÎ±Î·":10116,"ÏĦÎ±Î¹Î±":10117,"ĠÎ²Î¯Î±":10118,"ĠÎ²Î¿Ïĥ":10119,"ÎĵÎĳÎĽÎĳÎ¤ÎķÎĻÎĳ":10120,"ÎŃÏģÎ¿ÏĤ":10121,"ÎłÎµÏģ":10122,"ĠÏĥÏĦÎ·ÏĤ":10123,"ĠÎµÏĢÎ¯Î´":10124,"ĠÎ®ÏģÎµ":10125,"ĠÎµÎ¯ÏĥÎ¹ÎµÏĤ":10126,"ÎµÏħÏĥÎ·ÏĤ":10127,"ÎµÏħÏĦÎµÎ¯":10128,"ĠÎĶÎĹ":10129,"Î¼ÎµÎ½Î¿Î¹":10130,"Î¿Î³ÎµÎ¯Î¿Ïħ":10131,"ĠÎĽÎµÏį":10132,"ÏĪÎ¬":10133,"ÎŃÎ»ÎµÎ¸":10134,"ĠÎ¼Î±ÎºÎ¬ÏģÎ¹":10135,"ĠÎ·ÏģÏī":10136,"ĠÏħÎ»Î¹ÎºÎ¬":10137,"ĠÎ´ÎµÎ½ÏĦÏģÎ¬":10138,"ÏĦÎ®ÏģÎ¹Î½":10139,"ĠÎĴÎĽÎķÎł":10140,"ÎºÎ¬ÏĤ":10141,"ÏĦÎ¶Î·ÏĤ":10142,"ĠÎ¼ÏĢÏģÎ¬":10143,"ĠÎĪÏĢÎµÎ¹ÏĦÎ±":10144,"Î¿ÏĩÏī":10145,"ĠÎ´Î¹Î±ÏĨÏīÎ½":10146,"Î¿ÎºÏĮ":10147,"Î²Î±ÏĥÎ±":10148,"ĠÎµÎ¾Î®":10149,"Î¤ÎķÎ¡Îĳ":10150,"ĠÎĻÏĥÎ±":10151,"ÏħÏĩÏĦÎ±":10152,"ĠÎºÎ±ÏĦÎ±Î³ÏīÎ³Î®ÏĤ":10153,"ĠÏĪÎ¹":10154,"ĠÎµÏĢÎ¹ÏĢ":10155,"ĠÏĢÎµÏģÎ¹ÏĢÎŃ":10156,"ĠÏĢÎµÏģÎ¹Î¿ÏĩÎŃÏĤ":10157,"Î½Î¬ÏģÎ¿":10158,"Î¸Î®ÎºÎ±Î¼Îµ":10159,"ĠÎ±ÏħÎ¾":10160,"ÏĦÏĥÎ¿ÏĤ":10161,"ÏĦÎµÏģÎ¿Ïħ":10162,"ÎºÎ±Î»Îµ":10163,"ĠÎµÏĨÏħ":10164,"ĠÏĦÏĮÎ¼Î¿ÏĤ":10165,"ĠÏĥÏĩÏĮÎ»Î¹Î¿":10166,"ÎºÎ¿ÏħÎ¼Î±Î¹":10167,"ĠÎ£Î±Î²Î¯Î½Î±":10168,"ÏģÎ¹ÏĥÎ¼Î±Î½":10169,"ĠÎ±ÏĢÎ¿ÏĦÏħÏĢ":10170,"Î¼Î¿Î½Î±":10171,"Î´Î¯Î±Î½":10172,"ĠÎķÎ¹ÏĤ":10173,"ĠÏĥÏħÎ¼ÏĢÎ»Î·":10174,"ĠÎ±Î½ÏĦÎ¹ÏĢÎ±ÏģÎ¬":10175,"ĠÎºÎ±Î¼Î¹Î±":10176,"Î»ÏİÏĢÏīÏĤ":10177,"ĠÏĥÎºÎ·Î½ÎŃÏĤ":10178,"Î·Î»Î±Î´Î·":10179,"ĠTh":10180,"ĠÎļÏħÎºÎ»Î¿ÏĨÎ¿ÏģÎµÎ¯":10181,"ĠÎ¼Î¹ÎºÏģÎ¬":10182,"Ġ1970":10183,"ĠÎµÎ»Î»Î·Î½Î¹ÏĥÎ¼Î¿Ïį":10184,"ĠÎļÎ±Î»Î¿Î¼Î¿Î¯":10185,"Ġ1967":10186,"ĠÎĽÎµÏĮÎ½":10187,"Î¼Î½Î±Î½":10188,"Î¿ÏħÏĥÎ±Î»Î®":10189,"ĠÎ±ÏħÏĦÎ¿ÎºÏģÎ¬":10190,"ĠÎ¾ÎµÏĩÎ±":10191,"Ġ45":10192,"ÎłÎ±Ïį":10193,"ÏĥÏĩÎ¿Î»":10194,"ĠÎ¾ÎµÎºÎ¹Î½Î®":10195,"ĠÏĦÏģÎŃÏĩÎ¿Î½ÏĦÎ±ÏĤ":10196,"ĠÎ»Î¿Î³Î¿ÏĦÎµÏĩÎ½Î¹ÎºÎ®":10197,"ĠÎ±Î³Î³Î»Î¹ÎºÎ¬":10198,"ĠÎµÎ¸ÏīÏģ":10199,"lease":10200,"ĠÏĢÎµÏģÎ¹Î¼ÎŃÎ½Î¿ÏħÎ½":10201,"ĠÏĦÎ¿ÏįÎ½ÏĦÎ¿Î½":10202,"ĠÎ²ÏģÎµÎ¸ÎµÎ¯":10203,"ĠÏĥÏĢÎ¹Î¸ÎºÎ¹Î¿Ïį":10204,"Ġ2007":10205,"ĠÎ¼Î±ÏįÏģÎ¿":10206,"ĠÏĥÏĢÎ¿ÏħÎ´Î¬":10207,"ÎĻÎļÎĳÎķÎĽÎĳ":10208,"ĠÎµÏĢÎŃÏĥÏĦÏģÎµ":10209,"ĠÏĦÏģÎ¬ÏĢÎµÎ¶":10210,"ĠÎºÎ±ÏģÎ´Î¹Î¬ÏĤ":10211,"ĠÎ¼ÎµÏģÎ¹ÎºÎŃÏĤ":10212,"ĠÎºÏģÎ¬ÏĦÎ¿ÏħÏĤ":10213,"ĠÎµÏĥÏĦÎ¹Î±":10214,"ĠÎĳÏħÏĦÎ¿ÎºÏģÎ±ÏĦ":10215,"ĠÎľÏĮÎ½ÏĦÎ·ÏĤ":10216,"ĠÎºÎ¿ÏįÏģ":10217,"ĠÎ¼Î¹Î»Î¿ÏįÎ¼Îµ":10218,"ĠÎ¾ÎµÏģÎµÎ¹ÏĤ":10219,"ĠÎ´Î·Î¼Î¿ÏĦÎ¹ÎºÏĮ":10220,"ÏĪÎ¹Î¸ÏħÏģÎ¹ÏĥÏĦÎ¬":10221,"ĠÎ¼ÏħÎ¸Î¹ÏĥÏĦÎ¿Ïģ":10222,"ÏĢÏĢÎ±ÏĤ":10223,"ĠÎ´Î®Î»ÏīÏĥÎ·":10224,"ĠÎķÏĩÎ¿ÏħÎ¼Îµ":10225,"ĠÎºÎ¬Î¼Î½ÎµÏĦÎµ":10226,"ĠÎ±ÏĢÎ¿ÎºÎ±Î»Ïį":10227,"Î´Î¿Î¼ÎŃÎ½Î±":10228,"ĠÏĩÏģÎµÎ¹Î±ÏĥÏĦÎµÎ¯":10229,"ĠÎµÏĦÎ±Î¹ÏģÎµÎ¯Î±ÏĤ":10230,"ĠÎ¸ÎŃÎ±Î¼Î±":10231,"ĠÎ±ÏģÎ±Î²":10232,"ĠÎ±ÏĢÎ¿Î³Î¿Î·ÏĦÎµÏħ":10233,"ĠÏĥÎ¯Î³Î¿ÏħÏģÎ·":10234,"Î´Î¯Î´ÎµÎ¹":10235,"ĠÏĥÎºÎ¬Î½Î´Î±Î»Î±":10236,"ĠÎķÎļÎļÎĽÎĹÎ£":10237,"ĠÏĢÎ»Î·Î¸ÏħÏĥÎ¼ÏĮÏĤ":10238,"ĠÎ³ÎºÏģÎµ":10239,"ĠÎĵÎ¹ÏīÏģÎºÎ®":10240,"ĠÎ¼Î±ÏģÏĦÏħÏģÎ¯Î±":10241,"ĠÎµÏĢÎ¹Î²ÎµÎ²Î±Î¹":10242,"ĠÎ½ÎµÎ¿ÎµÎ»Î»Î·Î½Î¹ÎºÎ®ÏĤ":10243,"ĠÎµÎ¸ÏİÏģÎ¿ÏħÎ½":10244,"ĠÎŃÎ²Î»ÎµÏĢÎ±":10245,"https":10246,"ĠÎ±Î¼ÏĨÎ¹Î²Î¿Î»":10247,"ĠÏĨÎ¿Î¹ÏĦÎ·":10248,"ĠÎĳÏĨÏģÎ¿Î´Î¯ÏĦÎ·":10249,"ĠÏĥÏĨÎ±Î¯ÏģÎ±":10250,"ĠÎµÏħÎ±Î¹ÏĥÎ¸Î·ÏĥÎ¯Î±":10251,"ĠÎĴÎĳÎ£ÎĻÎĽÎŁÎ¥":10252,"ĠÎµÏĦÎµÎ»ÎµÎ¹":10253,"ĠÎĿÎ¹ÎºÎ¿Î»Î±Î¯Î´Î·ÏĤ":10254,"ĠÎ»Î¿ÏħÎ»Î¿ÏįÎ´Î¹Î±":10255,"ĠÎºÎ±ÏĦÎ¿Î¯ÎºÎ¿ÏħÏĤ":10256,"ĠÎºÎ±Î¸ÏħÏĥÏĦÎµ":10257,"ĠÎ´ÎµÎºÎ±ÏĢÎµÎ½ÏĦÎ±":10258,"ĠÎĽÎµÎ¹ÏĦÎ¿ÏħÏģÎ³":10259,"ĠÎĳÎĿÎ¤ÎĻÎĵÎŁÎĿÎĹ":10260,"74":10261,"ee":10262,"ject":10263,"ĠLOCATION":10264,"Î¿Î´Î±":10265,"ÏĦÎ¿ÏįÏĤ":10266,"ĠÏĦÏĤ":10267,"Î·Î¸Ïİ":10268,"Î»ÏīÏĥ":10269,"Î¿ÏħÎ»Î¯":10270,"Î¬Î»Î¹":10271,"Î¯Î¼Î±":10272,"ÏĢÎ¿ÏĢ":10273,"ĠÏĢÎŃÏĨ":10274,"ĠÎ¼ÏĮ":10275,"ĠÎ¼ÏĢÏģÎ¿Ïĥ":10276,"ÎŃÏĦÎµÏĤ":10277,"ĠÎµÎ²Î±":10278,"ÎŁÎ¡Îĳ":10279,"Î®ÏĦÎ±Î½":10280,"ĠÎ½ÎµÎ½":10281,"Î´ÎºÎ¹Î¬":10282,"ÏĩÎ½Î±":10283,"ÏĩÎµÎ´":10284,"Î¿ÏįÎ¼Î±ÏĥÏĦÎµÎ½":10285,"ÏĨÏĦÎµÎ¹":10286,"ÎµÎ½Î¸Î¿ÏħÏĥÎ¹Î±":10287,"ÏģÎ±Î¼Î±":10288,"Î¤Î©ÎĿ":10289,"ÏįÏĦÎ±":10290,"ÏįÎ¼Î±ÏĦÎ±":10291,"ÏįÎ²ÎµÎ¹":10292,"ĠÎŃÎ´Î±ÏĨÎ¿ÏĤ":10293,"ĠÎĳÎ£Î¤":10294,"ÎµÎ¯ÏĥÎ±Î¹":10295,"ÏĦÎ¹Ïĥ":10296,"ĠÎłÎ¹Î¿":10297,"ĠÎłÎ±Î»Î±":10298,"ĠÎµÎ½ÏĦÏĮÏĤ":10299,"ĠÎ¿Î¾Î¬":10300,"ĠÎ¤ÏģÎ¹":10301,"ĠÎ¤ÏģÎ¹Î±Î½":10302,"Î¯Î½Îµ":10303,"ĠÏĨÎ¬Ïģ":10304,"ĠÏĮÏĢÎ»Î±":10305,"ĠÏĮÏĢÎ¿Î¹Î±":10306,"ĠÏĦÎ±ÏĢÎµÎ¹":10307,"ĠÏĩÎ±Î¯Ïģ":10308,"ĠÎºÎ±ÏĦÏĥÎ±":10309,"ĠÎºÎ±ÏĢÎ±ÏģÎŃ":10310,"ÏĥÎ¹Î·Î¼Î±":10311,"ÎĵÎŁÎ£":10312,"Î»Î±ÏĥÎ·":10313,"Î¹Î¬Î»":10314,"ÎłÎĳÎĽ":10315,"ÏĦÏģÎµÎ¹ÏĤ":10316,"ÎµÏħÏĥÎµ":10317,"ĠÎĹÎłÎĳ":10318,"ÏĢÏģÏĮÏĥ":10319,"ĠÏĥÏĦÎŃÎ»":10320,"Ġ100":10321,"ĠÎ·Î¼Î¹":10322,"ĠÎ·ÏģÏİÏīÎ½":10323,"ÎĶÎ®":10324,"ĠÏħÎ´ÏģÎ±":10325,"ĠÎ±Î³ÏģÎ¿":10326,"ĠÏĦÎ¶Î¹Î±Î¹Î·":10327,"ĠÎºÎ±Î»ÎŃÏĤ":10328,"ĠÎ¼Î¬Ïĩ":10329,"ÏĦÎ¶Î¬Î½Î¹":10330,"ĠÎ¼ÏĢÎ¿ÏħÎ½":10331,"ÏĢÎµÎ´Î±":10332,"Î»Î®ÏĥÎ¿ÏħÎ½":10333,"Î´Î±ÏĥÎºÎ±Î»":10334,"ĠÏĢÏĮÎ´Î¹":10335,"ĠÏĢÏĮÎ»ÎµÎ¹ÏĤ":10336,"ĠÏĩÏģÏİÎ¼Î±ÏĦÎ±":10337,"ÎĽÎķÎĿÎĹ":10338,"ĠÎ±Î»Î»Î¬Î¾Ïī":10339,"ĠÎºÎ±Î½ÏĮÎ½Î±":10340,"ÏĢÎ¿Î¹Î½Î¯":10341,"Î¸Î®ÎºÎ±Î¼ÎµÎ½":10342,"ĠÏĢÎ¿Î¹ÏĮÎ½":10343,"ĠÏĢÎ¿Î¹ÏĮÏĤ":10344,"Î´Î·Î»ÏİÏĥÎµÎ¹ÏĤ":10345,"ĠÎºÎ¹ÏĮÎ»Î±ÏĤ":10346,"ĠÏĢÏģÎ¿ÎµÎ¹Î´":10347,"ĠÎµÏħÏī":10348,"ĠÎµÏħÎ´Î¹Î¬":10349,"ĠÏĢÎ±ÏģÎ¬ÏĥÏĦÎ±ÏĥÎ·":10350,"ÏĮÎ»Î¿ÏĤ":10351,"ĠÎ³ÏħÏģÎŃ":10352,"ĠÎ³ÏħÏģÎ¯ÏĥÏī":10353,"ĠÏĥÎ¹Î³Î¿Ïħ":10354,"ÏĦÎ¿Î¹Ïĩ":10355,"ĠÎŀÎ±Î½":10356,"ĠÎķÏħÏģÏīÏĢÎ±Î¹":10357,"ĠÎ¸ÎµÎ¿Ïį":10358,"ÎºÏħÏĮ":10359,"Î»ÏħÎ¼Î±":10360,"ĠÏĢÎ»Î·ÏģÏİÎ½":10361,"ere":10362,"ĠÎŃÎºÏĢÎ»Î·Î¾Î·":10363,"ÏģÎ¯Î¶Î¿Î½ÏĦÎ±ÏĤ":10364,"ĠÎ¼ÎµÎ³Î¬Î»ÎµÏĤ":10365,"ĠÎºÎ¿Î½ÏĦÎ¹Î½ÏĮ":10366,"Î¸ÏħÎ¼Î¬":10367,"ĠÎ±Î½ÏĦÎ¹Î»Î·ÏĨ":10368,"ĠÎºÎ±ÏģÎ´Î¹":10369,"Î¹ÏĥÏĦÎŃÏĤ":10370,"ĠÎºÎ±ÏĨÎµÏĦ":10371,"ĠÏĥÎ·Î¼ÎµÎ¯":10372,"ond":10373,"ĠÎ¹ÏĥÏĦÎ¿ÏģÎ¯Î±Î½":10374,"ĠÎĳÏĢÎ¿ÏĨ":10375,"ĠÎĳÏĢÎ»ÏİÏĤ":10376,"ÎľÎłÎĳ":10377,"ĠÏħÏĢÎ¿Îº":10378,"ĠÎ³ÏģÎ±ÏĨÎµÎ¯Î¿Î½":10379,"ĠÎłÎ¿Î¹Î®Î¼Î±ÏĦÎ±":10380,"ÎłÎĳÎļ":10381,"ĠME":10382,"ĠÎĳÎ³Î¯Î±":10383,"Î¸ÎµÎ»Îµ":10384,"ĠÏĨÎŃÏģÎµ":10385,"ĠÏĨÎŃÏģÎ¿ÏħÎ½":10386,"ÎŃÎºÏĢÎ»Î·Îº":10387,"Î´ÏħÎ¼Î±":10388,"Î¿ÏįÏĥÎ±ÏĥÎ¹Î½":10389,"ĠÎ±ÏĢÎ¿ÏĨÎ±Ïĥ":10390,"ĠÎµÎ¯ÏĩÎ±Î¼ÎµÎ½":10391,"ĠÎµÏģÎ³Î±Î»":10392,"ĠÏĢÎŃÎ¼ÏĢ":10393,"ÎłÎ±ÏĢÎ±":10394,"ĠÏĥÏīÎ¼Î±":10395,"ity":10396,"ĠÎ½ÎŃÎ¿Ïħ":10397,"ĠÏĥÎºÎµÏĨÏĦÎ¹ÎºÎ®":10398,"Î¸Î¬Î½Î±":10399,"ĠÎ¼ÏĢÎ±Ïģ":10400,"Î¿Î¿Î¿Î¿":10401,"ĠÎ±ÏģÎŃÏĥÎºÎ¿ÏħÎ½":10402,"Î¿Î»ÏĮÎ³Î¹Î±":10403,"ÎłÎķÎĻÎ£ÎŁÎĶÎĻÎŁ":10404,"ĠÎłÎĳÎ¥Î£ÎĹ":10405,"ĠÎµÏĢÎ¹ÏĥÏĦÎ·":10406,"ĠÎµÎ½Î´Î¹Î±ÏĨÎŃÏģ":10407,"ĠÎµÎ¾Î±ÎºÎ¿Î»Î¿Ïħ":10408,"ĠÏĢÏĮÎ½Î¿Î½":10409,"ĠÎ±Î´ÎµÎ»ÏĨÎ®":10410,"ĠÎ¼Î¿ÏģÏĨÎŃÏĤ":10411,"ĠÎµÏħÏĦÏħÏĩÏİÏĤ":10412,"ĠÏĥÎ¹ÏīÏĢ":10413,"ĠÎķÎĻÎ¡ÎĹÎĿÎĳ":10414,"âĢĶ":10415,"ÏĥÏĮÎ´Î¹Î±":10416,"ĠÎ½Î·ÏĥÎ¯Î½":10417,"ĠÎķÎ»Î»Î·Î½Î¹ÎºÎ®ÏĤ":10418,"ĠÏĥÎ·Î¼ÎµÎ¹ÏİÎ½ÎµÎ¹":10419,"ĠÎ±Î½Î®ÎºÎµÎ¹":10420,"ĠÏħÏĢÏĮÎ»Î¿Î¹ÏĢÎ±":10421,"ĠÏĥÏĦÎ¯ÏĩÎ¿Î¹":10422,"ĠÎŃÎ¼Î±Î¸ÎµÏĤ":10423,"ĠÎłÏģÎ¿ÏĥÏĢÎ±Î¸ÎµÎ¯":10424,"ĠÎ¾ÏįÎ»Î¿":10425,"ĠÏĥÏħÎ³ÎºÎµÎºÏģÎ¹Î¼ÎŃÎ½Î¿":10426,"ĠÎĿÎ¬ÏĥÎ¿ÏĤ":10427,"ĠÎŃÏĨÎµÏģÎµ":10428,"ĠÎ´ÏħÏĥÎºÎ¿Î»Î¯Î±":10429,"ĠÎºÎ¿ÏĥÎ¼Î¿":10430,"Î¼Î±ÏĦÎ¿Î»Î¿Î³":10431,"ĠÎ¾ÎµÏĢÎ»Ïį":10432,"ĠÎºÎ·Î´ÎµÎ¯Î±":10433,"ĠÎ§Î¬Ïĥ":10434,"ĠÏĦÎµÎºÎ¼Î·":10435,"ĠÎłÎ®Î±Î¹Î½Îµ":10436,"ĠÎ£Î±Î²Î²Î¿ÏįÎ»Î±":10437,"ĠÎ¬ÏĨÎ·Î½":10438,"ĠÎµÎºÎ¬Î¼Î±Î¼ÎµÎ½":10439,"ĠÏįÏĥÏĦÎµÏģÎ¹ÏĤ":10440,"ĠÎºÎ¬Î¼ÏĢÎ¿ÏĥÎ±":10441,"ĠÏĦÎ¿ÏħÎ±Î»ÎŃÏĦÎ±":10442,"ĠÎ´Î¹ÎºÎ±Î¯ÏīÎ¼Î±":10443,"ĠÎ²Î¬ÏĥÎ±Î½Î±":10444,"ÎĵÎŁÎ¥ÎľÎķÎĿÎŁÎ£":10445,"ĠÎµÎ²Î´Î¿Î¼Î¬Î´Î±":10446,"ĠÎ¼ÎµÎ»ÎŃÏĦÎ·":10447,"ĠÎµÏĢÎ¹ÏĦÏħÏĩÎ¯Î±":10448,"ĠÎ½ÏĦÎ¿ÏħÎ»Î¬":10449,"ĠÎºÏħÎ½Î·Î³":10450,"ĠÏĮÏģÎµÎ¾Î·":10451,"ĠÏĢÎ¿Î»ÏħÎ¸ÏģÏĮ":10452,"ĠÎ¼Î¿ÏħÏĥÎ¿ÏħÎ»Î¼Î¬Î½":10453,"ĠÎĪÎ³ÎºÎ»ÎµÎ¹ÏĥÏĦÎ¿ÏĤ":10454,"ĠÎ¸ÏħÎ¼Î¬Î¼Î±Î¹":10455,"ĠSTAR":10456,"ĠÎķÎĻÎ¡ÎĹÎĿÎĳÎĻÎŁÎ£":10457,"41":10458,"AÎ¸Î®Î½Î±":10459,"az":10460,"por":10461,"ris":10462,"Ġ&":10463,"Î¿ÎºÎ¬Ïģ":10464,"Î½Î¿Î½ÏĦÎ±ÏĤ":10465,"ĠÏĢÎºÎ¹Î¬":10466,"ĠÎ¼Î¿Î»Ïį":10467,"ÏĮÎ´Î¿Î¾":10468,"ÎŃÎ´Î¹Î¿":10469,"ĠÎµÎ¸ÎºÎ¹Î¬":10470,"ÎŁÎºÏĦÏīÎ²ÏģÎ¯Î¿Ïħ":10471,"ĠÎ±Î¼Î¼Î±":10472,"ĠÎ½Î¯":10473,"Î´Î¹ÎºÏĮ":10474,"ÏİÏģ":10475,"ÏİÏĦÎ·":10476,"ÏİÎ½Î±ÏĤ":10477,"Î¿ÏįÎ»Î¹Î¿ÏĤ":10478,"ĠÎ´ÏģÎ¿Î¼":10479,"ĠÏĦÎ¿ÏĦÎµ":10480,"ĠÎķÎ»ÎµÎ½":10481,"ĠÎŃÏģÎ·":10482,"ĠÏĦÎ¶Î¬":10483,"ĠÎĳÎ»Î»":10484,"ÏģÎ¹ÏĮ":10485,"ÏģÎ¹Î¿Î½":10486,"ÏĦÎ¹ÏĥÎ¼ÏĮÏĤ":10487,"ÏĦÎ¹ÏĥÎ¼ÎŃÎ½Î·":10488,"ĠÎļÎ¬Î½Î¸Î¿ÏĤ":10489,"ĠÎłÎµÏĦ":10490,"Î¾Î±Î½Î±":10491,"Î¯Î½Î·ÏĤ":10492,"ĠÏĨÎµ":10493,"ĠÏĨÎº":10494,"ĠÏĨÏĦÎ·Î½":10495,"ĠÏĨÏģÎµÎ½":10496,"ĠÎ£Î©Î¤ÎĹ":10497,"ĠÏĩÏģÎµ":10498,"ÏĥÏĦÏģ":10499,"ĠÎºÎ±Î¶":10500,"ĠÎ²ÏĮÎ»":10501,"ĠÏĢÏģÎŃÏĥ":10502,"ĠÏĢÎ±Îº":10503,"ĠÏĢÎ±Î¯Î¶Ïī":10504,"ĠÎĵÏģÎ±ÏĨ":10505,"ÎĵÎĳ":10506,"ÎŃÏģÎµÎ¹Î±":10507,"ÎłÎ¡ÎŁ":10508,"ĠÏĥÏħÏĥÏĦÎ®":10509,"ĠÎ¦ÏĦÎ¬Î½ÎµÎ¹":10510,"ĠÎĿÎ¯ÎºÎ¿":10511,"ÎľÎķÎĿÎĹ":10512,"ÎľÎ¹ÏĩÎ±":10513,"ĠÎ®ÏĦÎ¿":10514,"ĠÏĥÎµÎ»":10515,"ÎµÏħÎ¸Îµ":10516,"Î¼ÎµÎ½Î±Î½":10517,"ÎµÎ»ÏİÎ½ÏĦÎ±ÏĤ":10518,"ĠÏĥÏĦÎ¿ÏĩÎ±":10519,"ÏĪÎµÏħ":10520,"ĠÏģÎ¿Î´":10521,"ĠÎ¼Î±Î¸Î®":10522,"ĠÏĢÎ¬ÏģÎºÎ¿":10523,"Î»Î»Î±Îº":10524,"Î¿ÏĢÎ±":10525,"ĠÎĳÎ½Î½Î±":10526,"Î»Î¬ÎºÎ¹Î±":10527,"ĠÎĺÏħÎ¼":10528,"ĠÎĺÎ¹Î²":10529,"ĠÎĴÎĻÎĿÎ¤Î£":10530,"ĠÎ¤Î¶ÏĮÎ½":10531,"Î¿ÏĨÏīÎ½":10532,"ÎĳÎ¡ÎĹ":10533,"ĠÎµÎ¾Î¬Î»Î»Î¿Ïħ":10534,"ĠÏĢÎ±ÏģÎ±ÏĦÎ¯Î¸ÎµÏĦÎ±Î¹":10535,"Î±ÏĢÎ¿Ïģ":10536,"Î³Î¬Î»Î·":10537,"ĠÎ±Î½Î±ÏĨÎ¿ÏģÎŃÏĤ":10538,"ĠÎ±Î½Î±Î´ÎµÎ¹ÎºÎ½Ïį":10539,"ÏħÎ½Î¿":10540,"ĠÎºÎ¿Î¹Î½Î¿":10541,"ĠÏĪÎµ":10542,"ĠÏĢÎµÏģÎ¹ÏĮÎ´Î¿Ïħ":10543,"ÏĦÏĮÏĢÎ¹":10544,"ÏĢÎ·Î¼Î±":10545,"ÏĥÏĦÎ±ÏĥÎ·Î½":10546,"ĠÏĢÎ¿Î¹Î®Î¼Î±ÏĦÎ¿ÏĤ":10547,"ĠÎ¼ÏĢÎ¿ÏģÎ¿ÏįÏĥÎ±":10548,"ÎĺÎ¥":10549,"ĠÎ»Î±Î»Î¿ÏįÎ¼ÎµÎ½":10550,"ĠÏİÎ¼Î¿":10551,"ÏĦÎµÏģÎ·Î½":10552,"Î¼Î¹ÏĥÎ±":10553,"ĠÏĢÎ±Î½ÏĦÎµÎ»":10554,"ÏĮÎ»Î¿Î½":10555,"ÏħÏĢÏģÎ¹Î±Î½":10556,"ĠÎłÎĳÎŁÎĽÎŁ":10557,"ĠÎ±ÏģÎ¼Î±":10558,"ÏįÎ½Î¿Î½ÏĦÎ±Î¹":10559,"ĠÎ¸ÎŃÏĥÎ·Î½":10560,"Î¬ÎºÏī":10561,"ĠÎ³ÎµÎ½Î±Î¹":10562,"ĠÎµÎºÎ±Î¼Î±":10563,"ĠÏĢÎ»Î·ÎºÏĦÏģÎ¿Î»Î¿Î³ÎµÎ¯":10564,"ĠÎķÎ¹ÏĥÎ±Î³ÏīÎ³Î®":10565,"ĠÎ¼ÎµÎ³Î¬Î»Î·Î½":10566,"ĠÎŃÏĨÎµÏģÎ±":10567,"ĠKÏįÏĢÏģÎ¿ÏĤ":10568,"ĠÎµÎ´Ïī":10569,"ĠÎ»Î¿Î³Î¹ÎºÎ¬":10570,"ĠÎ»Î¿Î³Î±ÏģÎ¹Î±":10571,"ank":10572,"ĠÏĥÏįÎ¼ÏĢ":10573,"ĠÎºÎ±ÏĨÎŃÏĤ":10574,"ĠÎĳÏĨÎ®":10575,"ĠÎ¿ÏħÎ»Î»Î·":10576,"ĠÏĢÏģÎ±Î³":10577,"ĠÏħÏĢÎ¿ÏĦÎ¹":10578,"ĠÏĦÎ¬Î¾Î·ÏĤ":10579,"ĠÎľÎ¹ÏģÎ®ÏĤ":10580,"Î½Î¿ÏħÎ½ÏĦÎ±Î¹":10581,"ĠÎłÎ¿Î¹Î¿Î½":10582,"ĠÏĩÏİÏģÎ¿Ïħ":10583,"ĠÏĩÏİÏģÎ±Î½":10584,"ĠOÎ¹":10585,"ÏĨÎ¹Î¿ÏĤ":10586,"ĠÏĢÎ¹Î±ÏĦÎŃ":10587,"ĠÏĦÎ¶Î¹Î±Î¼Î±Î¯":10588,"ĠÎķÎºÏĢÎ±Î¯Î´ÎµÏħÏĥÎ·":10589,"ĠÎºÎ¿ÏĢÎŃÎ»Î±":10590,"Î»Î¹ÎºÎ·":10591,"ÎºÎ±ÏĦÎ¬ÏĥÏĦÎ±ÏĥÎ·":10592,"Î¸Î¬ÏģÎ¹":10593,"ĠÎ±ÏĢÎ¿ÎºÎ»ÎµÎ¹":10594,"ĠÎłÎ¿ÏĦÏĦÎŃ":10595,"ÎºÎ¿Î¹Î¿ÏĤ":10596,"ĠÎ¼ÏĢÎ±Î¯Î½ÎµÎ¹Î·":10597,"ĠÏĥÏįÎ½Î½ÎµÏĨ":10598,"ÎµÏģÎ³Î¿":10599,"1996":10600,"Î¡Î§ÎķÎ¤ÎĳÎĻ":10601,"1975":10602,"Î²Î¿ÏħÎ»Î¯Î¿Ïħ":10603,"ĠÎ±ÏħÏĦÎ¿ÎºÎ¯Î½Î·ÏĦÎ±":10604,"ĠÏĥÏĦÎµÏģÎµ":10605,"ĠÏĥÏħÎ¼Î²Î¿ÏħÎ»":10606,"Ġdi":10607,"ĠÎµÎ½Î´Î¹Î±ÏĨÎŃÏģÎµÎ¹":10608,"ĠÎ¿ÏħÏģÎ±Î½Î¿Ïį":10609,"ĠÎ¼ÏĢÎ¿ÏħÎºÎ¬Î»Î±":10610,"ĠÎ¿ÏĦÎ¹Î´Î®ÏĢÎ¿ÏĦÎµ":10611,"ĠÏĢÎµÎ»Î»Î®":10612,"ĠÎµÏħÏĦÏħÏĩÎ¹ÏĥÎ¼ÎŃÎ½Î·":10613,"ĠÎ§Î©Î¡ÎĻÎŁÎ¥":10614,"ĠÎºÏģÎ¯Î¼Î±Î½":10615,"ĠÎ³ÎŃÏģÎ¿ÏĤ":10616,"ĠÏĢÏģÎ¿ÏĥÏīÏĢÎ¹ÎºÎ®":10617,"ĠÎłÏģÎ¿Ïĩ":10618,"ĠÏĢÏģÎ¿Î·Î³Î¿Ïħ":10619,"ĠÎ¬Î´Î¹ÎºÎ±":10620,"ĠÎĻÏĥÏĦÎ¿ÏģÎ¯Î±ÏĤ":10621,"ĠÎļÏħÏģÎ¹Î±Îº":10622,"ĠÎ¹Î´Î¹Î±Î¯ÏĦÎµÏģÎ·":10623,"ĠÎĳÎºÎ¿ÏįÏī":10624,"ĠÎ¬ÏĨÎ·ÎºÎµÎ½":10625,"ĠÎ¼Î¹ÏĦÏĥÎ®":10626,"ĠÏĥÎºÎ¬Î»ÎµÏĤ":10627,"ĠÏĨÏĦÎ±Î¯Ïī":10628,"ĠÎĵÎ¥Î¡ÎĻÎ£ÎľÎĳ":10629,"ĠÏĥÎºÎ¿ÏħÏĢÎ¯":10630,"ĠÎµÎ³Î¯Î½ÎµÏĦÎ¿ÏħÎ½":10631,"ĠÎłÎ±ÏģÎ¬Î»Î»Î·Î»Î±":10632,"ĠÎµÏģÎ³Î±ÏĥÎ¯ÎµÏĤ":10633,"ĠÏĥÎºÎ¿ÏĦÏİÏĥÎµÎ¹":10634,"ĠÎłÎ±ÏĢÎ±Î´ÏĮ":10635,"ÎķÎ¦Î¥Î¡Îĳ":10636,"ĠÎµÎ¹ÏģÏīÎ½ÎµÎ¯Î±":10637,"ĠÎĶÏħÏĥÏĦÏħÏĩÏİÏĤ":10638,"ĠÎ¤Î¡ÎĳÎłÎķÎĸ":10639,"Ġex":10640,"ĠÎºÎ±Î¹Î½Î¿ÏįÏģÎ¹Î±":10641,"ĠÎµÏĥÏīÏĦÎµÏģÎ¹ÎºÏĮ":10642,"ÎķÏĢÎ¹Î¼ÎŃÎ»ÎµÎ¹Î±":10643,"ĠÎ¬ÏģÎ±Î³Îµ":10644,"Î¥ÎĿÎŁÎľ":10645,"ĠÎ½ÎµÎ¿ÎµÎ»Î»Î·Î½Î¹ÎºÎ®":10646,"ĠÎ±Î½ÏĦÏģÎ±ÏĤ":10647,"ĠÎ½Î®ÏĥÎ¿Ïħ":10648,"ĠÎ±Î½Î·ÏĪ":10649,"ĠÎ¸ÎµÎ¬Î¼Î±ÏĦÎ±":10650,"KÏħÎºÎ»Î¿ÏĨÎ¿ÏģÎµÎ¯":10651,"Î£ÏĦÎ±Ïħ":10652,"ĠÎ¸ÎºÎµÎ¹Î±":10653,"ĠÎ´Î¬ÏĩÏĦÏħÎ»Î±":10654,"ĠÎ¼Î¿Î½Î¿ÏĢÎ¬ÏĦÎ¹Î½":10655,"ĠÎłÎµÎ½ÏĦÎ±":10656,"ĠÏĦÏģÎ¹Î±Î½ÏĦÎ¬ÏĨÏħÎ»Î»Î¿":10657,"ĠÎłÎ±ÏĥÎ¹Î±ÏģÎ´Î®ÏĤ":10658,"ÎĺÎķÎĿÎŁÎłÎĹ":10659,"ĠÎµÏģÏİÏĦÎ·ÏĥÎ·":10660,"ĠÎ£Î±Î»ÏĮÎ½Î¹":10661,"ĠÎ´Î¹Î±Î¼ÎŃÏģÎ¹ÏĥÎ¼Î±":10662,"ĠÏĢÏģÎ¿ÏĥÎµÏĩÏĦÎ¹ÎºÎ¬":10663,"ĠÎĽÎ¹ÏĢÎŃÏģÏĦÎ·":10664,"ĠÎµÎ¾ÏİÏĢÎ¿Ïģ":10665,"ÏĢÏĦÏħÎ¾Î·ÏĤ":10666,"ĠÏĨÏĦÎµÏģÎ¿Ïį":10667,"ĠÎ¦Î±ÏģÎ¯Î½ÏĦÎ±":10668,"ĠÎºÎ±ÏĦÏĮÏĢÎ¹Î½":10669,"ĠÎ±ÏħÏĦÎ¿ÎºÎ¹Î½Î·ÏĦÎ¿":10670,"ÎĽÎ¬ÏģÎ½Î±ÎºÎ±":10671,"ĠÏĢÎ¿ÏģÏĦÎ¿ÎºÎ±Î»":10672,"ĠÎ´ÎµÏĥÏĢÎ¿ÏĥÏįÎ½Î·":10673,"ĠÎĳÎ¥Î¤ÎŁÎļ":10674,"ĠÏĢÏģÎ¿ÏĥÎ±Î½Î±ÏĦÎ¿Î»Î¹Ïĥ":10675,"Î¿ÏħÏĥÎ±Î»Î®Î¼":10676,"32":10677,"pe":10678,"Î¹Î¼":10679,"Î¹ÏĥÎ±":10680,"ÎµÏĢÎ¯":10681,"Î»Î¹Î½Î·":10682,"Î¼Î¼ÎŃÎ½Î±":10683,"ÏĢÎµÎ¹ÏĤ":10684,"ĠÏĢÎ½Î¯":10685,"ĠÎ¼ÏħÏģ":10686,"ÎŃÎ»Î·":10687,"Î±Î¹Î½Î¿":10688,"ĠÏĥÎ¼Î¯":10689,"Î³Î¼ÎŃÎ½Î±":10690,"Î³Î»Ïħ":10691,"ĠÎ±Î´Î¹Î±":10692,"Î£ÎŁÎĿ":10693,"Î®Î½Î±":10694,"Î®Î¼Îµ":10695,"ĠÎ½ÎµÏį":10696,"ÎĻÎĸÎķÎĻ":10697,"Î¸Î±Î»":10698,"Î¸Î¯Î±":10699,"Î¸ÏīÏģ":10700,"Î´ÎŃÏģ":10701,"ÏİÏĦÎ·ÏĤ":10702,"ÎµÎ½Ïİ":10703,"ÏģÎ±ÏĢ":10704,"ÎķÎ»":10705,"ÎķÎ¡ÎķÎĳÎ£":10706,"ÎķÎłÎķÎĻÎ£ÎŁÎĶÎĻÎŁ":10707,"ĠÏĦÎ¿Î¹Ïĩ":10708,"ĠÎ³ÎµÎ¯":10709,"ĠÎ³ÎµÏį":10710,"ĠÎ³ÎŃÎ»Î¹Î±":10711,"ĠÎķÎķ":10712,"ĠÎķÏĩÎ¿ÏħÎ½":10713,"ÏĦÎµÎº":10714,"ÎĹÎĽÎĻÎĳ":10715,"ĠÎĳÎ¼":10716,"ĠÎĳÏħÎ³Î¿ÏįÏĥÏĦÎ¿Ïħ":10717,"ĠÏĢÎ¿ÏħÏĢÎ¬Î½Ïī":10718,"ÏĦÎ¿Î¼Î·":10719,"ĠÎļÎĳÎĿ":10720,"ĠÎľÎµÎ¯Î½":10721,"ĠÎľÎŁÎ¥Î£":10722,"ĠÎľÏĮÏģÏĨÎ¿Ïħ":10723,"ĠÎ¤ÎĻÎ£":10724,"ÏĦÎ¬ÎºÎ¹Î±":10725,"ĠÎ£ÎŁÎ¥":10726,"ĠÏĮÎ»ÏīÎ½":10727,"Î¼ÎµÏĦÎŃ":10728,"ĠÏĩÏĦÎ¯":10729,"ÏĥÏĦÎ¿ÏįÏĤ":10730,"ÏĥÏĦÎ¹ÎºÏİÎ½":10731,"ÏĥÏĦÎ¹ÎºÏĮÎ½":10732,"ĠÎºÎ±Ïħ":10733,"ĠÎºÎ±ÏĦÏĥ":10734,"Ġ('":10735,"ĠÏĢÎ±Î¯Î¶ÎµÎ¹ÏĤ":10736,"ĠÏĢÎ±ÏĦÏģÎ¹":10737,"ĠÎĵÎĳÎĽÎĳ":10738,"ĠÎĵÏģÎ·Î³":10739,"ĠÎ±Î½ÏĦÎ±Î½":10740,"ĠÎ¬Î³Î³":10741,"ÏİÎ½Îµ":10742,"ÎłÎ¹":10743,"Î¿ÏĥÏĦÏĮ":10744,"ĠÎ¦Î©Î¤ÎĹ":10745,"ĠÎĹÎ¸ÎµÎ»Î±":10746,"ĠÎĶÎµÏĥ":10747,"ĠÎĽÎ±ÏĢ":10748,"ĠÎµÎºÏģÎ¬":10749,"ĠÎĺÏīÏģ":10750,"ĠÏĦÎ¶Î¹Î±Î¹ÏģÏĮÎ½":10751,"ĠÎµÎ³ÎºÏħ":10752,"ĠÎµÎ³ÏĮÏģÎ±":10753,"ĠÎ¹Î±":10754,"ĠÎ¼ÏĢÎ»Î¿Î³":10755,"ĠÎ¼ÏĢÎ±Î¹Î½ÎµÎ¹":10756,"ĠÏĥÏħÎ½Ïī":10757,"ĠÎŃÎ½ÏĦÏħÏĢÎ±":10758,"ĠÎĪÏĨ":10759,"ĠÎĪÎ¼Î±":10760,"ĠÎµÎ¹Î¼Î±ÏĥÏĦÎµ":10761,"ĠÎµÎ¾Î±Ïģ":10762,"ĠÎµÎ¾Î±Ïĥ":10763,"ĠÎµÎ¾ÏħÏĢ":10764,"ÏĢÎµÏĥÎ±Î¹":10765,"Î³ÎºÎ±Î»Î¹Î¬":10766,"ÏĦÎ¿Î½ÏĦÎ±ÏĤ":10767,"ÏĦÎ¿ÏħÏĥÎ±Î½":10768,"ĠÏĢÏĮÏĥÎ·":10769,"ÎµÏįÎ¿Î½ÏĦÎ±Î¹":10770,"ÎµÏįÎºÏī":10771,"ĠÏĩÏģÏİ":10772,"ĠÎĻÎķÎ¡ÎķÎĳÎ£":10773,"ĠÎ¿ÏįÎ»Î¿Î¹":10774,"ÏģÎ¹Î½ÏĮÏĤ":10775,"ĠÏĢÎµÏģÎ¹ÏĥÏĦÎ±":10776,"ĠÏĢÎ¿Î»Î¿":10777,"Î¸Î®Î½Î±ÏĤ":10778,"Î³ÎµÎ¹Î¿":10779,"ÎµÏĨÎŃÏģÎ·":10780,"ÏĥÎ¼Î¿Î½":10781,"ĠÎ±ÏħÏĥÏĦÎ·":10782,"ĠÎ±ÏħÎ³Î¬":10783,"ĠÎµÏĨÎ·Î²":10784,"ĠÎ´Î¹ÎµÏģ":10785,"ĠÏĢÏģÎ¿Îµ":10786,"ĠÏĢÏģÎ¬ÏĥÎ¹Î½":10787,"ĠÎłÎ±ÏģÎ¯ÏĥÎ¹":10788,"ĠÎ¥ÏĢÎ¿":10789,"ÏĨÏīÎ½Î¿Î½":10790,"ĠÏĢÎ±ÏģÎ¬Î½Î¿Î¼":10791,"ĠÏĢÎ±ÏģÎ¬Î´Î¿ÏĥÎ·ÏĤ":10792,"ĠÎ´Î¹Î¬ÏĥÏĦÎ±ÏĥÎ·":10793,"ÏħÏĢÎ¿ÏįÎ¼Î±Î¹":10794,"ÏĩÎ½Îµ":10795,"ĠÎķÏħÎºÎ±ÏģÎ¹ÏĥÏĦÏİ":10796,"ĠÎ¼ÎµÏĦÎ±ÏĨÏģÎ¬":10797,"ĠÏĦÏģÎ¿Ïĩ":10798,"ĠÎļÎ¬Î¸Î¿Î½ÏĦÎ±Î¹":10799,"ĠÎºÎ¬ÏĢÎ¿Î¹Î¿ÏħÏĤ":10800,"ĠÎŃÎºÎ´Î¿ÏĥÎ·ÏĤ":10801,"ĠÎ±ÎºÎ¿ÏįÏĥÏī":10802,"ĠÎºÎ±ÏģÏĦÎµÏģÎ¬":10803,"ĠÎ´ÏİÏĥÎµÎ¹ÏĤ":10804,"ĠÎ´ÏİÎºÎµÎ¹ÏĤ":10805,"ĠÎ»Î±ÏĦÏģ":10806,"ÎµÏģÎ¬ÎºÎ¹":10807,"ĠÎ±ÏĥÏĨÎ±Î»":10808,"ĠÎ£Î¤ÎŁÎĿ":10809,"ĠÎ¿ÏħÎ»Î»Î¿Î¹":10810,"ĠÎ¹ÏĥÏĦÎ¿ÏģÎ¹ÎºÎ¬":10811,"ĠÎľÎ¬Î»Î»Î¿Î½":10812,"ĠÎľÎ¬ÏģÎºÎ¿":10813,"Ġ186":10814,"ĠÏĨÎ¿ÏģÎ¬ÎµÎ¹":10815,"ĠÎľÎ¹Î»Î¬":10816,"ĠÎĵÎ¹Îµ":10817,"Î»Î¹Î¬ÎµÏĤ":10818,"ĠÏīÏģÎ±Î¯Î¿Î½":10819,"ĠÎ»Î¹Î¿Î½":10820,"ĠÏĢÎ®ÏģÎ±":10821,"ĠÏĢÎ®ÏģÎ±Î½":10822,"ĠÏĪÏħÏĩÎ®ÏĤ":10823,"ĠÎ§ÏģÎ¹ÏĥÏĦÎ¿ÏĨ":10824,"ĠÏĩÏģÎ¿Î½Î¹Î¬":10825,"ĠÎ£ÏĦÎ±ÏħÏģ":10826,"ĠÎ´ÏħÎ½Î±ÏĦÏĮÏĤ":10827,"ĠÏĥÎ·Î¼Î±Î¯Î±":10828,"ĠÎ³Î¬Î¼Î¿ÏĤ":10829,"ĠÎĶÎ·Î¼Î¿ÎºÏģÎ±ÏĦÎ¯Î±":10830,"ÏģÎ®Î½Î·ÏĤ":10831,"ĠÎ½ÎŃÎ¿Î¹":10832,"Î¸ÎºÎ¹ÎŃÏĤ":10833,"ÏĢÎ±Î½Ïī":10834,"ĠÎ¾ÎµÎºÎ¯Î½Î·":10835,"out":10836,"ĠÎ»Î¯ÏĥÏĦÎ±":10837,"ÏĦÎŃÏģÏħÎ³Î±":10838,"ĠÎ¬ÎºÎ¿ÏħÏĥÎµ":10839,"ĠÎºÎ»Î¬Î´Î¿":10840,"Ġ1955":10841,"ĠÎºÎ¹Î½ÎµÎ¯ÏĦÎ±Î¹":10842,"ĠÏĢÎ¿ÏģÏĦÎ±":10843,"ĠÏĢÎµÎ¯Î½Î±":10844,"ĠÎ¾ÎŃÎ½Î¿Î¹":10845,"Ġhas":10846,"ĠÎ´Î·Î¼Î¿ÏĥÎ¹Î¿Î³ÏģÎ¬ÏĨÎ¿ÏĤ":10847,"ĠÎ¼Î¿Î¹ÏģÎ±":10848,"ĠÎ±Î½ÏĦÎ±Î»Î»Î¬":10849,"ÎłÎ±ÏĢÏĢÎ¿Ïį":10850,"ĠÏĦÎ¿Î¯ÏĩÎ¿ÏħÏĤ":10851,"ĠÎºÎ¬ÏĦÏĥÎµÎ¹ÏĤ":10852,"Î¿ÏįÎ»Î»Î·ÏĤ":10853,"ĠÎ´ÏįÏĥÎºÎ¿Î»Î±":10854,"ĠÎ±Î½ÏĦÎŃÏĩÏī":10855,"ĠÎŃÎºÎ±Î¼Î½Î±":10856,"ĠÏĨÎ±Î½ÏĦÎ±ÏĥÏĦÎµÎ¯ÏĤ":10857,"ĠÏĢÎ±Î¯ÏģÎ½Î¿ÏħÎ½":10858,"ĠÎ¶Î·ÏĦÎ®ÏĥÎµÎ¹":10859,"ĠÎ±ÏĥÏĩÎ¿Î»Î®Î¸Î·ÎºÎµ":10860,"Ġthis":10861,"ĠÎºÎ¬Î¼Î½Î¿ÏħÎ¼ÎµÎ½":10862,"ĠÎµÎ¹ÎºÏĮÎ½ÎµÏĤ":10863,"ĠÎµÏģÎ³Î±ÏĥÎ¯Î±":10864,"ĠÎºÎ¬Î¼ÎµÏĦÎµ":10865,"ĠÏĩÏģÎ¹ÏĥÏĦÎ¹Î±Î½Î¿Î¯":10866,"ĠÎµÏĢÎ¹ÏĩÎµÎ¹ÏģÎ®":10867,"ĠÎµÎ¶Î®ÏĦÎ·":10868,"ĠÎ³ÎŃÎ½Î½Î·":10869,"ĠÎ£ÎļÎĹÎĿÎķÎ£":10870,"ÎľÎĳÎ¡ÎĻÎĿ":10871,"ĠÎµÏħÎ¸ÏįÎ½Î·":10872,"ĠÏĥÏħÏģÏĦÎ¬ÏģÎ¹":10873,"ÏĩÎ±Î¼Î¿Î³ÎµÎ»Î¬":10874,"ĠÎ±Î½ÎµÎ¾Î±ÏģÏĦÎ·":10875,"ĠÎ¾ÎµÎ½Î¿Î´Î¿ÏĩÎµÎ¯Î¿":10876,"ÏĥÎ¹ÏİÏĦÎ·ÏĤ":10877,"ĠÎ´Î¹ÎºÎ·Î³ÏĮÏģÎ¿ÏĤ":10878,"ĠÎĿÎ¹ÎºÏĮÎ»Î±ÏĤ":10879,"ĠÏĦÏįÏĢÎ¿ÏĤ":10880,"ĠÎ´Î¹ÎµÏħÎ¸ÏħÎ½ÏĦÎ®ÏĤ":10881,"ĠÎĸÎ±ÏĩÎ±ÏģÎ¯Î±":10882,"ÎµÎ»ÎµÏįÎ¸ÎµÏģ":10883,"ĠÎĵÎ¹Î±ÎºÎ¿ÏħÎ¼Î®":10884,"Î¾Î¹ÎºÏĮÏĢÎ·Î¼Î±":10885,"ĠÎ²ÎµÏģÎ¬Î½ÏĦÎ±":10886,"ĠÏĥÏįÎ¶ÏħÎ³Î¿ÏĤ":10887,"ĠÎµÏĢÎ±ÏĨÎ®":10888,"ĠÎķÎ¡ÎĻÎļÎĳ":10889,"ĠÎºÎ±ÏģÏĦÎµÏģÏİ":10890,"ĠÎ£Î§Îķ":10891,"ĠÏĥÎºÎ±Î½Î´Î¬":10892,"ĠÏħÏĢÎ±ÏģÏĩÎµÎ¹":10893,"ĠÎ´Î¬ÏĥÎºÎ±Î»Î¿ÏĤ":10894,"ĠÎłÎµÎ¹ÏģÎ±Î¹":10895,"ĠÎºÏģÎµÎ²Î¬ÏĦÎ¹Î½":10896,"ĠÏĢÎ½ÎµÏįÎ¼Î±":10897,"ÎĶÎķÎ£ÎłÎŁÎĻÎĿÎĳ":10898,"ĠÎĵÎ±Î»Î¬ÏĦÎµÎ¹Î±ÏĤ":10899,"ĠÎĻÏĥÏģÎ±Î®Î»":10900,"ĠÎĳÎ½ÏĦÎ¹Î³ÏĮÎ½Î·":10901,"ĠÎºÎŃÎ¹Îº":10902,"ĠAndrew":10903,"ĠÎĳÎ£Î¤Î¥ÎĿÎŁÎľ":10904,"ĠÏĢÎ¿Î»ÏħÎ¸ÏģÏĮÎ½Î±":10905,"EÎ»Î»Î·Î½":10906,"The":10907,"ber":10908,"Î±ÎºÎ¿Ïį":10909,"Î½ÏĦ":10910,"ĠÏĦÏĦÎ±":10911,"ÏĥÏĢÎ¹":10912,"ÏĥÎ¼Î±ÏĦÎ¿ÏĤ":10913,"Î¿ÏħÎ¼Î¿ÏħÎ½":10914,"Î¬ÏĦÎ¿Î½":10915,"Î¯ÏĦÎ·":10916,"ÎºÏĦÎ·ÏĥÎ·":10917,"ÏĢÎ±ÏĤ":10918,"ÏĢÎ»Î¬":10919,"ÏĢÏīÏģ":10920,"ĠÏĢÏģÎ¹":10921,"ĠÏĢÎ¿Î³":10922,"ĠÎ¼Î¼Î±":10923,"ĠÎºÎ¿ÏħÎ½Î¬":10924,"ĠÏĥÎ¬Î½":10925,"ĠÏĥÏĢÎ·":10926,"ÎµÎ¹Ïĥ":10927,"Î¶Î®":10928,"Î¶Î·Î¼":10929,"ÎĻÎķÎ£":10930,"ÏĩÏĮ":10931,"ÏĩÎ±Î½Î±":10932,"Î¿ÏįÏĦÎµ":10933,"ÏĨÎµ":10934,"ÏĨÎ»Î±":10935,"ÏĨÎ±Ïĥ":10936,"Î¹ÎºÎ¬Î½":10937,"Î¤Î£":10938,"Î¤Î¥":10939,"ÎķÎĶÎ¡ÎŁÎ£":10940,"ÎĽÎŁ":10941,"ĠÎķÏģÎ³":10942,"ĠÎķÏģÏī":10943,"ĠÎķÎºÎ±Î¼Î±":10944,"ÏĦÎµÎ¯ÎµÏĤ":10945,"ĠÎŃÎ³ÏģÎ±ÏĨ":10946,"Î²Î¹Î±":10947,"Î²Î¯Î±":10948,"ÏģÎ¹ÏĥÎ·":10949,"ĠÎļÎ±ÏĢ":10950,"ĠÎļÎŁÎĿ":10951,"ĠÎļÎĳÎ¡Î¤ÎķÎ¡":10952,"ĠÎľÎµÏģ":10953,"ĠÎłÏħ":10954,"ĠÎłÎŃÏģ":10955,"ĠÎµÎ½Î½":10956,"Î¾ÎŃÎ½":10957,"ĠÎ¿Î¸ÏĮÎ½":10958,"ĠÎ¤ÏģÏĮ":10959,"ĠÎ¤Î¤ÎŁÎŁÎ¥ÎĽ":10960,"ĠÏĨÏģÎŃ":10961,"ĠÎ¸ÎºÎ¹Î¬":10962,"ĠÎ±ÏĢÎ±Ïĥ":10963,"ÏĦÎ¬Î´ÎµÏĤ":10964,"ÏģÎ¬Î½ÏĦÎ±":10965,"ĠÏĩÏĮÏģÏĦÎ±":10966,"ĠÎºÎ±ÏĢ":10967,"ÎŃÎ½Î´ÏħÏĥÎ·":10968,"Î¥ÏĢÎ·ÏģÎµ":10969,"ÏĥÎ¹Î±Î½":10970,"ĠÏĢÏģÎ¿Ïħ":10971,"ĠÏĢÏģÎ¿Î¹":10972,"Î¿Î»ÏĮ":10973,"ĠÏĢÎ±ÏĦÏģ":10974,"ĠÏĢÎ±ÏģÎ±Î½":10975,"ĠÎĵÎķÎ¦Î¥Î¡Îĳ":10976,"ĠÎºÎ¬ÏĦÏĥ":10977,"ĠÎ±Î½Î¿":10978,"ĠÎŁÏģ":10979,"ĠÎŁÎ¼":10980,"ĠÎ¦Ïį":10981,"ĠÎĿÎŃ":10982,"ĠÎµÎ¯ÏĩÎµÎ½":10983,"ĠÎĶÏİ":10984,"ĠÏĥÏĦÏħÎ»":10985,"ÎŃÎ»Î±Î½":10986,"ÎŃÎ»Î¹Î¿":10987,"ĠÏģÎµÏį":10988,"ĠÏģÏĦÎµÎ¹":10989,"ĠÏĢÎµÏĦÏĥ":10990,"ÎĿÎ¤ÎĻÎļÎĽÎĹÎ£":10991,"ĠÏĢÎ¬Î»":10992,"ÏģÎ·Î³Îº":10993,"Î¿Î¯ÏĦÎ·ÏĥÎµ":10994,"ÏĦÎ®Î»Î¹":10995,"Î¸Î·ÏĥÎµÎ½":10996,"ĠÎĴÎ±Ïĥ":10997,"ÏĩÎ±ÏĥÎµ":10998,"ĠÎ´Î¹Î±Î¼Îµ":10999,"ĠÎ´Î¹Î±Î»Ïį":11000,"ĠÎµÎ¾ÎŃÎ»Î¹":11001,"ĠÏĢÎ±ÏģÎ±Î¼ÎŃÎ½ÎµÎ¹":11002,"ĠÎ±Î½Î±ÎºÎ¿":11003,"Î¼Î·ÏĥÎ±":11004,"Î¼Î·ÏĦÏģÎ¿ÏĢÎ¿Î»Î¯":11005,"ĠÎĻÎ³":11006,"ĠÎºÎ±ÏĦÎ±Ïģ":11007,"Î²Î¬Î»ÎµÎ¹":11008,"ĠÎµÏĢÎ¹ÏĦÏģÎŃÏĢÎµÏĦÎ±Î¹":11009,"ĠÎºÏĮÏģÎµÏĤ":11010,"ĠÎĮÏĥÎ¿":11011,"ĠÏĦÏģÎ±ÏħÎ¼Î±":11012,"Î³Î³Î±":11013,"ĠÎµÏĨÏİÎ½Î±":11014,"ĠÏĢÏģÎ¿Î²Î»Î·":11015,"ĠÏĢÏģÎ¿Î²Î¬Î»Î»ÎµÎ¹":11016,"ĠÎµÏħÏģÎ¯ÏĥÎº":11017,"ĠÎłÎ±Î¼ÏĢ":11018,"ĠÎ´ÎµÎ´Î¿Î¼ÎŃÎ½Î±":11019,"ĠÎ³Î¹Î±ÏĦÎ¯Î·":11020,"ÎµÏĢÏĦÎŃ":11021,"ĠÎ´Î¯ÏĥÎºÎ¿":11022,"ĠÎºÎ±ÏĦÎ¬Î»Î±Î²Î±":11023,"ĠÎ±ÏģÏĩÎ¿Î½":11024,"ĠÏĥÎ·ÎºÏİ":11025,"Î¸Î±Î¼Îµ":11026,"ĠÎīÏĦÎ¿ÏħÎ½":11027,"ĠÎµÎºÎ±ÏĦÏĮ":11028,"Î³Î¼Î±ÏĦÎ¿ÏĤ":11029,"ĠÏĨÏįÎ³Î¿ÏħÎ½":11030,"ĠÏĦÏģÏįÏĢ":11031,"ĠÏĦÏģÏįÏĢÎ±":11032,"ÎºÏħÎ²ÎµÏģÎ½Î®":11033,"ÏĥÏĦÎ®ÏģÎ±":11034,"Î»ÏħÏĥÎ·":11035,"ĠÎ±ÎºÎ¿ÏįÎµÏĦÎ±Î¹":11036,"ĠÎ»Î¿Î³Î¹ÎºÏĮ":11037,"ĠÏĩÎ±ÏģÏĦÎ±":11038,"ĠÏĩÎ±ÏģÏĦÏī":11039,"ĠÎ»Î±Î¿Ïį":11040,"ĠÎ»Î±Î¼ÏĢÎ¬":11041,"ĠÎºÎ¿ÏģÎ¼Î¯Î½":11042,"ÏĦÎµÏįÎµÎ¹":11043,"ĠÎłÎ¬ÏĨÎ¿ÏĤ":11044,"ĠÎ´ÎµÎ¯ÏĩÎ½Î¿ÏħÎ½":11045,"ĠÎ´ÎµÎ¯Î»Î¹ÏĤ":11046,"ĠÎ±Î»Î»Î±Î³Î®":11047,"Î´Î¿ÏĦÎ¹ÎºÎ®":11048,"ĠÎľÎ¬ÏģÎºÎ¿ÏĤ":11049,"ĠÎ±ÏĨÎ®ÎºÎµÎ¹":11050,"ĠÎ£ÎµÎ²":11051,"ĠÎ¤Î¿ÏįÏĦÎ·":11052,"ĠÎ½ÎµÎºÎ±":11053,"ĠÎ±Î³Î±ÏĢÎ·ÏĦÎ®":11054,"ĠÏĨÎ¬Ïī":11055,"ĠÎķÏĢÎ¹Î±":11056,"ĠÎ³Î½ÏīÏģÎ¯":11057,"ĠÎ³Î½ÏīÏģÎ¯ÏĥÎµÎ¹":11058,"ĠÎĸÎ±":11059,"ĠÏĨÎ±Î½ÎµÎ¯":11060,"ĠÎºÎ±ÏĦÎ±Î»Î¬Î²Î¿ÏħÎ½":11061,"ĠÏĪÏħÏĩÎ¹Î±ÏĦÏģ":11062,"ĠÏĦÎ¶Î¹Î±Î¼Îµ":11063,"ÎĵÎĻÎĳÎļÎŁÎ¥ÎľÎĹÎ£":11064,"ÏĥÏĦÎ¹ÏĩÎ±":11065,"ĠÎ±ÏĢÎ¿ÏĨÏį":11066,"ĠÎ¼Î¹ÏĥÎ¬":11067,"1964":11068,"ĠÎ¯Î´Î¹Î¿Î¹":11069,"ĠÎºÏħÏģÎ¯Î±ÏģÏĩ":11070,"ĠÎºÎ»ÎµÎ¹Î½ÎµÎ¹":11071,"ĠÎ´ÏħÎ½Î±ÏĦÎ®":11072,"ition":11073,"ÏĥÏĩÎŃÎ´Î¹Î¿":11074,"ĠÎŁÏħÎ¬":11075,"ĠÏĦÏģÎŃÏĩÎ¿ÏħÎ½":11076,"Î½Î¿ÏħÏĥÎ¹Î½":11077,"ĠÏĢÎµÎ¶Î¿Î´ÏģÏĮÎ¼Î¹Î¿":11078,"ĠÎ´ÎµÎºÎ±ÎµÏĦÎ¯Î±ÏĤ":11079,"ĠÏĦÎµÎ»ÎµÎ¹ÏİÏĥÏī":11080,"Î±ÏĥÎ¹Î»ÎµÎ¯Î¿Ïħ":11081,"1986":11082,"ĠÎµÎ¯Î´Î±Î¼Îµ":11083,"Î±ÎºÎµÎ¯":11084,"ĠÎºÎ»Î¬Î¼Î±Î½":11085,"ĠÏĥÏħÎ¼Î²ÎµÎ¯":11086,"ĠÏĨÎºÎ¬Î»ÎµÎ¹ÏĤ":11087,"ÎļÎŁÎ¥ÎĸÎĻÎĿÎĳ":11088,"ĠÎ±Î½Î¬Î³ÎºÎµÏĤ":11089,"ĠÎ®ÏģÏĦÎµÎ½Î·":11090,"âĪĴ":11091,"Î±Î¯Î½Îµ":11092,"ĠÏĥÏĦÎ¿Î¹ÏĩÎµÎ¯Î¿":11093,"ĠÎķÏĢÎ®ÎµÎ½":11094,"1937":11095,"ĠÎºÎ±Î»Î¿ÏĦÎ¶Î±Î¯":11096,"ĠÏħÏĢÎ¿ÏħÏģÎ³ÎµÎ¯Î¿":11097,"ÎłÎ±ÏĢÎ±Î»ÎµÎ¿Î½ÏĦÎ¯Î¿Ïħ":11098,"ĠÏĢÏģÎ¿Î·Î³Î¿ÏįÎ¼ÎµÎ½":11099,"ĠÎ¿Î¹ÎºÎ¿Î½Î¿Î¼Î¹ÎºÎ®":11100,"ĠÏĢÎ»ÎµÏħÏģÏĮÎ½":11101,"ĠÏĨÏĮÎ²Î¿ÏĤ":11102,"ĠÎ£Î¤Î¡ÎĳÎ¤ÎĻÎ©":11103,"ĠÎ¬ÏģÏĢÎ±":11104,"ĠÎŃÎ¾Î¿Î´Î¿":11105,"ĠÎ±Î»Î·Î¸ÎºÎµÎ¹Î±":11106,"ĠÎ¬ÏĥÏĢÏģÎ¿":11107,"ĠÏĥÎºÎ¿ÏĢÏĮÎ½":11108,"ĠÏĢÏĮÏģÏĦÎ±ÏĤ":11109,"Î¡ÎĻÎ£Îļ":11110,"ĠÎµÎ¼ÏĢÎ¿ÏģÎ¿ÏįÏĥÎ±":11111,"ĠÎµÎ»ÎŃÎ·ÏĥÎ¿Î½":11112,"ĠÏĢÎ»Î®Î¸Î¿ÏĤ":11113,"ĠÎ¤Î¿ÏįÏģÎºÎ¿Î¹":11114,"ĠÎ³ÎµÏģÎ¼Î±Î½":11115,"Ġnot":11116,"ĠÎµÎºÎ½ÎµÏħÏģÎ¹ÏĥÎ¼ÎŃÎ½Î·":11117,"ĠÎµÎºÎ½ÎµÏħÏģÎ¹ÏĥÎ¼ÎŃÎ½Î¿ÏĤ":11118,"ĠÎıÏĥÏĦÎµ":11119,"ĠÎıÏĥÏĢÎ¿Ïħ":11120,"ĠÎ¤Î¶ÎµÎ¯Î½Î·":11121,"ĠÎ¤Î¶ÎµÎ¯Î½Î¿ÏĤ":11122,"ĠÎ¤ÎĹÎĽÎķÎ¦Î©ÎĿ":11123,"ĠÎ³ÏģÎ±Î¼Î¼Î®":11124,"ĠÏĦÏįÏĩÎµÎ¹":11125,"ĠÎ¬Î½Î¿Î¹Î¾Î·":11126,"ĠÎ¾ÎµÏĢÎ»":11127,"ĠÎµÏģÎ³Î±ÏĥÎ¯Î±ÏĤ":11128,"ĠÎķÏħÏģÏİÏĢÎ·ÏĤ":11129,"ĠÏħÏĢÏĮÏĥÏĩÎ¿Î¼Î±Î¹":11130,"ĠÎĪÎºÎ´Î¿ÏĥÎ·":11131,"ĠÎ¾ÎµÏĩÏīÏģÎ¯Î¶ÎµÎ¹":11132,"ĠÎļÎ»ÎµÎ¹Î¿ÏįÎ»Î»Î±":11133,"ĠÎµÏĢÎ¬Î³Î³ÎµÎ»Î¼Î±":11134,"ĠÏĦÎ¿ÏĢÎ¿Î¸ÎµÏĦÎµÎ¯":11135,"ĠÏĢÎ¬ÏģÏĦÎ¹":11136,"Î®Î³Î·ÏĥÎ¹ÏĤ":11137,"ĠÎŃÎ¼Î¼Îµ":11138,"ĠÎ¦ÏģÎ±Î³ÎºÎ¿Ïį":11139,"ĠÏĦÏģÎ¿Î¼Î¬Î¶ÎµÎ¹":11140,"ĠÎ±Î¯ÏĥÎ¸Î·Î¼Î±":11141,"ĠÎ¹ÏĥÏĩÏħ":11142,"ĠÎ±ÏĥÏĦÎµÎ¯Î±":11143,"ĠÎ±ÏĢÏĮÎ»ÏħÏĦÎ·":11144,"ÎºÎ»Î¿ÏĨÎ¿ÏģÎ¿ÏįÎ½":11145,"ĠÎŃÎ½Î¹ÏīÎ¸Î±":11146,"ĠÎºÎ¿Î¯ÏĦÎ±Î¾Îµ":11147,"ĠÎ´ÏĮÎ½ÏĦÎ¹":11148,"ĠÎ´ÏĮÎ½ÏĦÎ¹Î±":11149,"ĠÎ»ÏħÏģÎ¹ÎºÎ®":11150,"ĠÎļÏħÏĢÏģÎ¹Î±Î½ÏĮÏĤ":11151,"ĠÎŃÎ³Î¹Î½ÎµÎ½":11152,"ĠÎĳÎ¼ÎµÏģÎ¹ÎºÎ®":11153,"ÏĦÏįÏĢÎ·ÏĥÎµ":11154,"ĠÎ·Î¼ÎµÏģÎ¿Î¼":11155,"ĠÎ½Î¿ÏĥÎ¿ÎºÎ¿Î¼ÎµÎ¯Î¿":11156,"ĠÏĥÏħÎ¶Î·ÏĦÎ®ÏĥÎµÎ¹ÏĤ":11157,"ĠÎµÏĨÏĦÎ¿Î¼Î¬Î´Î±":11158,"ĠÎµÏĢÎµÎ¾ÎµÏģ":11159,"ĠÎ±ÏĩÎ¬ÏĢÎ±":11160,"ĠÎ±ÏĢÎ¿ÏĩÎ±Î¹ÏģÎµ":11161,"ĠÎ½ÎµÎ¿ÏĦÎµÏģ":11162,"ÎµÏĢÎ¹ÏĥÏĦÎ·Î¼Î¯Î¿Ïħ":11163,"ĠÎ»Î±Î¼ÏĢÏģÏĮÎ½":11164,"ĠÎ±ÏģÎºÎµÏĦÎŃÏĤ":11165,"ĠÎ±ÏģÏĩÎ±Î¯Î±":11166,"ĠÎ¼ÏĢÎ¬Î½Î¹Î¿":11167,"ĠÎ£Î¥ÎĿÎĶÎķÎ£ÎĹ":11168,"ĠÎµÎ¾ÎµÎ»Î¯Î¾ÎµÎ¹ÏĤ":11169,"ĠÏĨÎ¬Î½Î·ÎºÎµ":11170,"ĠÎĻÏĦÎ±Î»Î¯Î±":11171,"ĠÎľÏħÏģÏĥÎ¯Î½Î·":11172,"ÏģÎ·Î³ÎºÏĮÏģÏħ":11173,"49":11174,"89":11175,";(":11176,"ie":11177,"ial":11178,"um":11179,"Ġk":11180,"Î¹ÏĥÎ·":11181,"ÎµÎ»Î»Î±":11182,"ÏģÎ¸Îµ":11183,"ĠÏĦÎŃÎ½":11184,"ÏĥÎ¯Î¿Ïħ":11185,"Î¼ÎµÎ¯ÏĤ":11186,"ÎºÏģÎ¯":11187,"ÏĢÎ¹Î¬":11188,"ĠÎ¼ÏĢÎ¿":11189,"ĠÎ¼ÏĢÏģ":11190,"ĠÎºÎ¿ÏĨ":11191,"ĠÎºÎ»Ïī":11192,"ÎŃÏħ":11193,"ÎŃÏĥÎ±":11194,"Î±Î¹Î¿ÏĤ":11195,"ĠÏĥÎ±Î»Î¬":11196,"ĠÎµÎ»Î»Î±":11197,"ĠÎµÏĦÏģÎ±":11198,"ÏħÎ»Î¿ÏĤ":11199,"ĠÎ±ÏįÏģÎ¹Î¿Î½":11200,"ÎĳÏĢÎ¿":11201,"ĠÎ½Î¿Î¹Îº":11202,"Î¹Î±ÏĥÎ¼ÎŃÎ½Î¿ÏĤ":11203,"Î¸ÎŃÎ½Î·":11204,"Î´Î¬Îº":11205,"ÏĩÎµÎ¹ÏĤ":11206,"ĠÎ´Î·Î»Î±Î´Î·":11207,"ÏĦÎ·ÏĥÎ±Î½":11208,"ĠÎķÎ¹Î½Î±Î¹":11209,"ÏĦÎµÏĪÎµ":11210,"ĠÎŃÎ¼Î¿Î¹Î±":11211,"ĠÎĳÎ¸Î®Î½Î±ÏĤ":11212,"ĠÎ¼ÎµÎ»Îµ":11213,"ĠÎ¼ÎµÏĥÎ±Î¹ÏīÎ½":11214,"ÎĿÎ¯ÎºÎ¿ÏĤ":11215,"ÏģÎ¹Îµ":11216,"ÏĦÎ¹ÏĥÎµ":11217,"ĠÎľÎ¹Î»":11218,"ĠÎłÎ¹Î¬":11219,"ĠÎ¿ÏĢÏīÏĤ":11220,"Î±Î»Î¬Î¶":11221,"ĠÎ¤ÏĦÏĮ":11222,"ĠÏĨÎ¸":11223,"ĠÏĨÏģÎ±":11224,"ĠÎ¸Î¬Ïģ":11225,"ÏĦÎ¬Ïģ":11226,"ÏĦÎ¬ÏģÎ±":11227,"ĠÎ£Î¹Î¶":11228,"ĠÏĮÏĩ":11229,"ĠÏĦÎ±Ïħ":11230,"ĠÎ»Î¿Ïį":11231,"ÏĥÏĦÎ¹ÎºÎ¿Ïį":11232,"Î¬Î½ÎµÏĤ":11233,"Î¥Îĺ":11234,"ÏģÎ¯Î»Î·":11235,"ĠÎĵÎĳ":11236,"ĠÎºÎ¬ÏĦÎ¿Î¹ÎºÎ¿Î¹":11237,"ĠÎ±Î½ÏĦÎµ":11238,"ĠÎµÏĢÎµÏģÎ¹":11239,"ÏĢÎ±ÏįÏĥÎ·":11240,"ĠÎ¦Î¡ÎŁÎ£ÎŁÎ¥":11241,"ĠÎĿÎĳÎ£ÎŁÎ£":11242,"ÏĢÎ¿ÏĦ":11243,"ĠÎĹÎ¼ÎµÏģ":11244,"ĠÎĶÎ¥":11245,"ĠÎ§ÏİÏģÎ±":11246,"ÎŃÎ»ÎµÏĤ":11247,"ĠÏĢÎµÎ¸ÎµÏģ":11248,"ĠÎ¼Î±Î¸Î±":11249,"ÏģÎºÎµÏĤ":11250,"Î»Î»Î±Î³ÎŃÏĤ":11251,"ĠÎ¼ÎŃÎ»Î·":11252,"ÏģÏĩÎ¯Î±ÏĤ":11253,"ĠÎ¶Ïħ":11254,"ĠÎ±ÎºÎ¯Î½Î·":11255,"ĠÎ¼Î¬ÏĤ":11256,"Î¸ÎµÏİ":11257,"Î¹ÏİÏĦÎ·":11258,"ĠÎµÎ³Ïħ":11259,"ĠÎ¹ÏĨ":11260,"ĠÎĴÎ¹":11261,"ĠÎ¼ÏĢÏģÎ¬Î²Î¿":11262,"ĠÏĥÏħÎ½Î®":11263,"ĠÏĥÏħÎ½ÏĦÏį":11264,"ÏħÏģÏĮÏĤ":11265,"ÏĦÏĥÎ¹Î¿Ïį":11266,"Î²Î±ÏĥÎµ":11267,"ÏīÏĥÎ®":11268,"ÏīÏĥÎ¯Î±":11269,"ÎºÎ¹Î¿Ïį":11270,"ÏĦÎŃÎ»Î·":11271,"ÎºÎµÏĨ":11272,"ĠÎĻÏĦÎ±Î»":11273,"ĠÏħÏĢÎµÎ½":11274,"Î¸Î®ÏĥÎµÎ¹ÏĤ":11275,"ĠÎĮÏĢÎ¿Ïħ":11276,"Î¶Î¯Î»Î¹":11277,"ÏĦÏĥÎ¬":11278,"ĠÏĢÏģÎ¿Î¾ÎµÎ½":11279,"Î¬Î¶Î¹":11280,"ĠÎµÏħÎ»Î¿Î³":11281,"ĠÎºÎ±ÏĦÎ¬Î½":11282,"ĠÎ³ÏħÏģÎµÏĨ":11283,"ĠÎķÏħÎ·ÏĤ":11284,"ĠÎķÏħÏĩÎ±":11285,"ĠÎ³Î¹ÏĮ":11286,"ÎĹÎĿÎķ":11287,"ĠÎ¸ÎµÏĥÎ¼":11288,"Î¹Î»Î¯Î±":11289,"ĠÎ´Î·Î¼Î¿ÎºÏģÎ±":11290,"ĠÎķÎ¯ÏĩÎµ":11291,"ĠÏįÏĢÎ¿ÏĢ":11292,"ĠÏĢÏģÏĮÎ²Î»Î·":11293,"ĠÎ»ÏĮÎ³Î¿Ïħ":11294,"ĠÎ±ÎºÎ¿ÏįÎ³Î¿Î½ÏĦÎ±Î¹":11295,"ĠÎµÏĢÎ¯Î¸ÎµÏĥÎ·":11296,"ĠÏİÏģÎ±ÏĤ":11297,"Î¹ÏĥÏĦÎ¿ÏįÎ½":11298,"Î¹ÏĥÏĦÎ¹ÎºÎ®":11299,"Î¿Î²Î»Î·":11300,"ĠÏĢÎ±Î¯Î¾Ïī":11301,"ÏĦÎµÏįÏī":11302,"ĠÎµÎ²ÏģÎµ":11303,"ĠÏĨÎ¯Î»Îµ":11304,"ĠÏĦÎ¬ÏĨÎ¿":11305,"ĠÎ¸ÏīÏģÎ¿ÏįÎ½":11306,"ĠÎĵÎ¹Î¿Î»Î¯":11307,"Î³Î¹Î±Î½":11308,"ĠÎ±Î¹ÏİÎ½ÎµÏĤ":11309,"Î¹ÎºÎ±ÏĦÎµÏģ":11310,"ĠÎ³Î½ÏīÏĥÏĦÏĮ":11311,"ĠÎ³Î½ÏīÏģÎ¯Î¶Ïī":11312,"ord":11313,"ĠÎĸÎ©":11314,"ĠÎ®Î½ÏĦÎ±Î»ÏīÏĤ":11315,"Î±Î¹Î½Î±Î½":11316,"ĠÎ²Î¿Î·Î¸":11317,"ĠÏĥÏħÎ½ÎµÏĩÎ¯Î¶Î¿ÏħÎ½":11318,"Î¡ÎĳÎ£ÎĻÎĶ":11319,"ĠÏĩÎµÎ¹ÏģÎ±":11320,"Ġch":11321,"Ġcom":11322,"ÏĢÎ¿Î»Î·ÏĤ":11323,"ĠÎ£ÎłÎĹÎĽÎĻÎĳ":11324,"ĠÏĥÎ±Î»Î¿Î½":11325,"Î±Î½Î±Î³Î¯Î±":11326,"ĠÎ¼ÎµÎ¯Î½Î¿ÏħÎ½":11327,"ĠPa":11328,"Ġby":11329,"ĠÏĩÏīÏģÎºÎ¿Ïį":11330,"Ġwith":11331,"ĠÏĢÏħÎº":11332,"ĠÎ±Î¼Î¼Î¬Î¸ÎºÎ¹Î±":11333,"ĠÎłÎ±ÏģÎ±ÏĥÎºÎµÏħÎ®":11334,"ĠÎĵÎµÎ½Î¹ÎºÏĮ":11335,"ĠÎ¼Î±ÏįÏģÎ¿Î½":11336,"ĠÎ¿ÏģÎ³Î®":11337,"ĠÎ¼Î¿Î¹ÏģÎ¬":11338,"ĠÎ¼ÏīÏģÎ¿Ïį":11339,"ĠÎľÎ¿ÏħÏĩÏĦÎ¬":11340,"ĠÏħÏĢÎ¿ÏĥÏĩÎŃ":11341,"ĠÏĨÏĮÎ²Î¿":11342,"ĠÎ´Î¹ÏĢÎ»Î±Î½":11343,"ĠÎ»Î¿Î®ÏĤ":11344,"ÎĳÏĢÏģÎ¹Î»Î¯Î¿Ïħ":11345,"ĠÎ¤ÏģÎ±ÏĢÎŃÎ¶Î·ÏĤ":11346,"ĠÎµÏĢÏĮÎ¼ÎµÎ½Î¿":11347,"ĠÎ¦ÏīÏĦÎ·":11348,"ĠÎ¼Î¯ÏĥÎ¿ÏĤ":11349,"ĠÎ³ÎµÎ¼Î¬ÏĦÎ·":11350,"ĠÎ³ÎµÎ¼Î¬ÏĦÎ¿":11351,"ĠÎºÎ±ÏĦÎ±Î»Î±Î²Î±Î¯Î½ÎµÎ¹":11352,"ĠÎĴÎµÎ½Îµ":11353,"ĠÎļÎ¿ÏģÎ½Î·":11354,"ĠÎ¿ÎºÏĦÏİ":11355,"ĠÏĨÎ±Î¯Î½Î¿Î½ÏĦÎ±Î¹":11356,"ĠÎłÎ¹Î¬Î½ÎµÎ¹":11357,"ĠÏĥÏħÎ¼Î¼ÎµÏĦÎŃ":11358,"ĠÎ³ÏħÎ½Î±Î¯ÎºÎ±ÏĤ":11359,"ÏĩÎ¿ÏħÏģÎ³":11360,"ĠÎŁÎ¹ÎºÎ¿Î½Î¿Î¼":11361,"ĠÏĮÎ½Î¿Î¼Î¬":11362,"ĠÎĳÎ³Î±ÏĢÎ·":11363,"ĠÎ§ÎĳÎ¤Îĸ":11364,"ĠÎŃÏĢÎ±Î¹Ïģ":11365,"ĠÎ³ÏħÎ½Î±Î¹Îº":11366,"ĠÎ¿ÏĢÎ¿Î¹Î¿":11367,"ĠÎłÏģÏİÏĦÎ±":11368,"ĠÏĢÎ½ÎµÏħÎ¼Î±":11369,"ÏĮÏĢÎ¿ÏħÎ»Î¿ÏĤ":11370,"ĠÏĥÎµÏģÎ²Î¯":11371,"ĠÎµÎ¸ÏİÏģÎµÎ½":11372,"ĠÎ·Î¾ÎŃÏģÎµÎ¹ÏĤ":11373,"ĠÎ¶ÏİÎ±":11374,"ĠÏĢÎµÎ»Î¬ÏĦÎµÏĤ":11375,"ĠÎµÎ¹Î»Î¹ÎºÏģÎ¹Î½Î¬":11376,"ĠÎŃÎ³Î¹Î½Î±Î½":11377,"ĠÎ¥ÏĢÎ¬ÏģÏĩÎ¿ÏħÎ½":11378,"ĠÎľÎµÏĥÎ¿Î³ÎµÎ¯Î¿Ïħ":11379,"ĠÏĢÏģÎ¿ÏĥÎŃÏĩÏī":11380,"ĠÎ¿Î½ÎµÎ¯":11381,"ÎłÎ±ÏģÎ¸ÎµÎ½ÏĮÏĢÎ·":11382,"ĠÎ²ÏģÎµÏĦÎ±Î½Î¹ÎºÎŃÏĤ":11383,"ĠÎµÏĢÎ¹ÎºÎ¿Î¹Î½ÏīÎ½":11384,"ĠÎµÏĢÎ¹ÎºÎ¿Î¹Î½ÏīÎ½Î¯Î±":11385,"ĠÏĢÎ±ÏģÎ·Î³Î¿Ïģ":11386,"ĠÎ¦Î¥ÎĿÎ¤ÎĻÎļÎĽÎĹÎ£":11387,"ĠÏĨÎ¿ÏįÏģÎ½Î¿":11388,"ĠÏĥÏħÎ¼ÏĢÎŃÎ¸ÎµÏģÎµ":11389,"ĠÎ±Î¼ÎµÏģÎ¹ÎºÎ±Î½":11390,"ÎĵÎ¹Î¬Î½Î½Î·ÏĤ":11391,"ĠÎ²Î³Î±Î¯Î½Î¿ÏħÎ½":11392,"ĠÏĩÎ±ÏĢÎ¬ÏģÎ¹Î½":11393,"ĠÎµÎ¼ÏĢÏĮÏģÎµÎ½":11394,"ĠÎķÏħÎ³ÎµÎ½Î¯Î±":11395,"ÏĦÎ¿ÏħÎ¹ÏĦÏĤ":11396,"ĠÏĢÎ¿ÏħÎºÎ¬Î¼Î¹ÏĥÎ¿":11397,"ĠÎ·Î¼Î¯ÏĥÎ¹Î·":11398,"ĠÎµÏħÎ´Î¹Î¬ÎºÏģÎ¹":11399,"ĠÎºÎ±ÏĨÎµÏĦÎŃÏģÎ¹Î±":11400,"ĠÎĳÎ¥Î¤ÎŁÎļÎĻÎĿÎĹÎ¤ÎŁ":11401,"ĠÎĵÎĳÎĽÎĳÎ¤ÎŁÎ¥":11402,"ĠÎ§ÎĳÎ¤ÎĸÎĹÎĿÎķ":11403,"71":11404,"80":11405,"og":11406,"á¼":11407,"Î±Î³Î±":11408,"ÏĦÏģÎ¹Î¬":11409,"Î¹ÎŃÏĦÎ±Î¹":11410,"ÏĥÎ¼ÎŃÎ½Î¿Î½":11411,"Î¿ÏħÎ»ÎµÏį":11412,"Î¬ÏģÎ¹Î¿ÏĤ":11413,"Î¯ÎµÎ¹":11414,"Î¯ÏĥÏĦÎµ":11415,"Î¼Î¼ÎŃÎ½Î¿":11416,"ĠÏĢÎ±Î½Î±Î³Î¹Î¬":11417,"ÏīÎ¼ÎŃÎ½Î¿Î¹":11418,"ÏĮÏħ":11419,"ÏĮÎ´Î¿":11420,"ĠÎºÎµ":11421,"ÎŃÎ¾":11422,"ÎŃÎ¼Î±ÏĦÎ±":11423,"ÎŃÎ¾Î¹":11424,"ĠÏĥÏĢÏĮ":11425,"ĠÎµÎ¼ÎµÎ½Î±":11426,"Î³Î¿ÏħÎ¼Îµ":11427,"ÎĳÎ¦":11428,"ÎĳÎºÎ¿Ïį":11429,"Î£Î·Î¼":11430,"Î±Î½Î¿Î¯Î³ÎµÎ¹":11431,"ĠÎ½Î±Ïħ":11432,"Î¡Îµ":11433,"ĠÎ´Î±Î½":11434,"ĠÎ³ÎºÎ±":11435,"ĠÎķÎ½Î±":11436,"ĠÎķÏħÏģ":11437,"ĠÎķÎ»Î»Î®Î½ÏīÎ½":11438,"ÏĦÎµÎ¿":11439,"ĠÎŃÏĥÎ¹ÎµÏĦÎµ":11440,"Î»Î»Î®ÏĤ":11441,"Î²ÏģÏī":11442,"ĠÎĳÎ»Îµ":11443,"ĠÎļÎŁÎ¥ÎĽÎĽÎĳ":11444,"ĠÎļÎĳÎ¡":11445,"ĠÎłÏĦÏī":11446,"ĠÎłÏĮÏĥÎµÏĤ":11447,"ĠÎµÎ½ÎµÏģÎ³":11448,"ĠÎµÎ½Î½Î¹Î¬":11449,"ĠÎ¿Î¹ÎºÏĮ":11450,"ĠÏĨÏģÏĮÎ½":11451,"ĠÏĨÎ»ÏĮÎ³":11452,"ÏĦÎ¬ÏģÎ¹Î±":11453,"ĠÏĮÏĢÎ¿Î¹":11454,"ÎļÎķÎ£":11455,"ÎļÎŁÎ¡":11456,"ÎļÏįÏĢÏģÎ¹Î¿Î¹":11457,"ĠÎ³Î¹Î±ÏĥÎµ":11458,"ĠÏĢÎ±ÏģÎº":11459,"ĠÎ±Î½ÏĦÏģÎ¿ÏĢ":11460,"ĠÎ¬ÏĥÏĦÏģÎ±":11461,"ĠÎŁÎ§":11462,"ĠÏĥÎ¿ÏħÎ¿":11463,"ÎµÏģÎ³Î·":11464,"ÏĢÎ±ÏĥÎµ":11465,"ĠÎ¦ÏīÎ½":11466,"Î¼ÎŃÎ½Î¿ÏħÎ½":11467,"ÏĦÏģÎ¿Î¼":11468,"ÏĦÏģÏĮÏĨ":11469,"ÎľÎ±Î¯Î¿Ïħ":11470,"ĠÎµÎ¯Î¼Î±ÏĥÏĦÎ¹Î½":11471,"ĠÎĶÎ¹Îº":11472,"Î¼ÎµÎ½Î¿Î½":11473,"Î¿Î³ÏģÎ±Î¼Î¼Î¬ÏĦÏīÎ½":11474,"ÎµÎ»Î¹":11475,"Î¿Î¼Î²":11476,"Î¿Î¼Î¿Î¸Îµ":11477,"ĠÏģÎ±Î²":11478,"ĠÎ¼Î±Î³Î±":11479,"ĠÏĢÎ¿ÏĦÎµ":11480,"Î»Î»Î¬ÏĤ":11481,"ÎĶÎĻÎļÎŁ":11482,"ĠÏħÏħ":11483,"Î¿ÏĢÏī":11484,"Î±ÏģÎ¿":11485,"Î¿ÏįÎ½Î¹Î¿ÏĤ":11486,"ĠÎºÎ±Î»ÏİÏĤ":11487,"ĠÎ¶Î¿ÏįÎ¼Îµ":11488,"Î»Î¹Î¸ÎŃÏģ":11489,"ÏģÎŃÏĢÎµÎ¹Î±":11490,"ĠÎ¤Î¶Î¿Î½":11491,"ĠÏĥÏħÎ½Î¿Î»":11492,"ĠÏĥÏħÎ½ÎŃÏĢÎµÎ¹":11493,"ĠÏĥÏħÎ½ÏĦÏģÏĮÏĨ":11494,"Î¿ÏĨÏħ":11495,"ÏĦÏīÏĥÎ·":11496,"ĠÎµÎ¹ÏĢÎµÎ½":11497,"ĠÎµÎ¾Î±Î½Î¬":11498,"ÏĢÎµÏģÎ±":11499,"Î¼Î±Î½Î´":11500,"Î¼Î±Î½ÏĦÎ®ÏĤ":11501,"Î³Î¬ÏĤ":11502,"Î´Î¹Î´Î±Îº":11503,"ĠÏĦÎ¿ÏįÏģÏĦÎ±":11504,"ĠÎµÏĥÎ®":11505,"ĠÎĻÎĻ":11506,"ÎĸÎķÎ¤ÎĳÎĻ":11507,"ĠÎºÎ±ÏĦÎ±ÏĥÏĦÏģÎŃ":11508,"Î¿Î´Î¿Î½":11509,"ĠÎľÎ±ÎºÎ±ÏģÎ¯Î¿Ïħ":11510,"ĠÎºÎ±Î½Î¬":11511,"ĠÏģÎµÎ±Î»Î¹ÏĥÏĦ":11512,"Î³Î³ÎŃÎ»":11513,"ĠÏĢÎ¹Î»ÎŃ":11514,"ÏĦÎµÏģÏīÎ½":11515,"Î¹ÏīÏĥÎ±":11516,"ĠÏĢÏģÎ¿Î±":11517,"ĠÏĢÏģÎ¿ÎŃÏģÏĩÎµÏĦÎ±Î¹":11518,"Î¼Î¹Î±Î½":11519,"Î¼Î¹Î¿Î½":11520,"ĠÏĢÏģÎ¬Î¾Î·":11521,"ÎŃÏģÎ±Î¼Îµ":11522,"ĠÎ¿ÏĢÎ¿Î¯Î±ÏĤ":11523,"ĠÏĥÏĦÎ¹ÏĩÎ¿ÏħÏģÎ³":11524,"ĠÎłÎ±ÎµÎ¹":11525,"ĠÎłÎ±ÏįÏĥÎ·":11526,"ÎŃÏĩÎ½Î·ÏĤ":11527,"ĠÎ¬Î½ÏĦÏģÎ±Î½":11528,"ĠÎºÎ±ÏĦÎ¬ÎºÏĦÎ·ÏĥÎ·":11529,"ĠÎ±ÏģÏĩÎ¹ÎµÏĢÎ¯ÏĥÎº":11530,"ĠÏĢÏģÏİÎ·Î½":11531,"ÏĦÎ¿Î¹ÏĤ":11532,"ĠÎºÏģÎ±ÏĦÏİ":11533,"ĠÎºÏģÎ±ÏħÎ³":11534,"ĠÎ³Î¹Î¿Ïį":11535,"ĠÎµÎºÎ±Î¼ÎµÏĤ":11536,"ĠAÎ¼Î¼ÏĮÏĩÏīÏĥÏĦÎ¿":11537,"ĠÏĢÎµÎ¹Î¿":11538,"ĠÎµÎ´ÎŃÏĩ":11539,"Ġ2012":11540,"ĠÎ»Î¬Î¼ÏĢ":11541,"186":11542,"ĠÎµÏĢÎ®Î±Î¹Î½":11543,"ĠÏĢÎ±Î»Î±Î²":11544,"ĠÎ±ÏĥÎ®Î¼Î±Î½":11545,"ĠÏĢÎ±Î¯Î¾ÎµÎ¹":11546,"ÏĦÎµÏįÎ¼Î±ÏĦÎ±":11547,"ÏĨÎ±ÏĦÎ¹ÎºÎ¬":11548,"ĠÏĢÎ¹Î¬ÎµÎ¹ÏĤ":11549,"ÏĩÎ±Î½Î¹ÎºÏĮÏĤ":11550,"Î´ÎµÎ¹Îº":11551,"Ġ90":11552,"Î¿Î³ÏģÎ±ÏĨÎ¹ÎºÎ¬":11553,"ĠÎļÎ±ÏģÎ¬Î³Î¹ÏīÏģÎºÎ·Î½":11554,"ĠÎ£ÏħÎ½Î®Î¸ÏīÏĤ":11555,"Î¸ÎµÎ»ÎµÏĤ":11556,"Î½Î±Î¯Î¿ÏĤ":11557,"ÎŁÎ§ÎĹ":11558,"ÎĨÎ³Î³":11559,"ÏĦÎ¿Î³ÏģÎ±ÏĨÎ¯Î±":11560,"ĠÏĦÏģÏĮÏĢÎ¿ÏħÏĤ":11561,"ĠÏĩÏģÎ¿Î½Î¹ÎºÏĮ":11562,"ĠÎºÎ±ÏĦÎµÎ²Î¬":11563,"ĠÎ¸ÏħÎ¼ÏīÎ¼ÎŃÎ½Î¿ÏĤ":11564,"ÎĮÏĢÏīÏĤ":11565,"ĠÏĥÏĩÎ¿Î»ÎµÎ¯Î¿Ïħ":11566,"Î¸Î¬ÏģÎ±":11567,"ĠÎ¥ÎłÎĳÎ¡Î§":11568,"ĠÎµÎºÎ±ÏĦÎ¬Î»Î±Î²ÎµÎ½":11569,"ĠÎµÎºÎ¬Î¼Î½Î±":11570,"ĠÎ²Î³Î¬Î»ÎµÎ¹":11571,"ĠÏĢÎµÏģÎ¬ÏĥÎ¿ÏħÎ½":11572,"1998":11573,"ĠÎ£ÏħÎ³Î³":11574,"ÏĦÎ¿ÏģÎ±":11575,"ĠÎ»ÏħÏĢÎ¬":11576,"ĠÏĦÏĥÎ¹Î³Î¬":11577,"ĠÎŃÏģÎºÎµÏĦÎ¿ÏħÎ½":11578,"ĠÎ·Î¼ÏİÎ½":11579,"ĠÏĦÎ¶ÎµÎ¹ÎºÎ¬ÏĦÏī":11580,"Ġ1956":11581,"ĠÏĦÏģÎ±Î³Î¿ÏħÎ´Î¹Î¿Ïį":11582,"ĠÏĦÏģÎ±Î³Î¿ÏħÎ´Î¹ÏİÎ½":11583,"ĠÏĢÎ±Î¹Î´ÎµÎ¯Î±":11584,"ĠÎ¼Î±ÏįÏģÎ·":11585,"ĠÎłÎ±Î½Î±Î³Î¯Î±":11586,"ĠÎ§Î¡ÎŁÎĿÎŁÎ¥":11587,"ĠÎĻÏīÎ±ÎºÎµÎ¯":11588,"ĠÎµÎ¼ÏĨÎ±Î½ÏİÏĤ":11589,"ĠÎłÏģÎ¿Î³ÏģÎ±Î¼Î¼Î¬ÏĦÏīÎ½":11590,"ĠÎłÎ±ÏģÏĮÎ»Î¿":11591,
[...]
